<unk>	0
<s>	0
</s>	0
▁	-3.86121
▁너	-4.56268
도	-4.60751
요	-4.67026
▁내가	-4.69336
▁네	-4.82492
고	-4.87095
가	-4.87129
▁아	-4.91916
는	-4.95397
▁왜	-5.02931
▁나	-5.04589
▁좀	-5.1406
▁야	-5.18437
야	-5.21301
지	-5.22457
을	-5.23687
▁아니	-5.25147
▁다	-5.26535
▁안	-5.27689
게	-5.30225
서	-5.32681
은	-5.34352
▁죄송합니다	-5.39354
▁진짜	-5.40639
▁이	-5.45312
▁지금	-5.4548
▁내	-5.54517
면	-5.55916
이	-5.56609
▁돈	-5.56718
를	-5.58167
▁그럼	-5.6614
▁저	-5.68678
▁그래	-5.7146
에	-5.71969
▁그	-5.7235
▁뭐	-5.72992
▁그냥	-5.75319
만	-5.79847
▁제가	-5.81508
▁이거	-5.87962
▁무슨	-5.88518
네	-5.89832
▁잘	-5.90276
▁제발	-5.94296
▁거	-5.97362
로	-5.9851
▁우리	-6.00333
▁못	-6.03255
▁더	-6.05304
나	-6.08367
▁그렇게	-6.08505
다	-6.08754
냐	-6.11391
▁말	-6.12399
▁어	-6.12415
▁니	-6.12431
▁어떻게	-6.14177
▁니가	-6.17323
▁너무	-6.18765
▁수	-6.20239
▁한	-6.23429
▁오늘	-6.25373
▁일	-6.27291
▁정말	-6.28485
니까	-6.2854
▁아니야	-6.29217
▁해	-6.29488
▁없어	-6.35383
▁빨리	-6.36697
는데	-6.43268
▁그건	-6.44795
으로	-6.44904
▁그게	-6.45227
▁넌	-6.47441
세요	-6.48281
▁여기	-6.48825
▁것	-6.48898
▁이렇게	-6.49118
▁응	-6.49566
잖아	-6.50575
니	-6.52017
거야	-6.52526
어	-6.52832
▁하	-6.53145
▁있어	-6.54095
▁할	-6.54109
▁나도	-6.54303
라고	-6.55436
▁너가	-6.56409
▁난	-6.58002
▁안돼	-6.59734
▁그런	-6.60123
라	-6.61695
▁뭘	-6.61788
▁이제	-6.63548
▁제	-6.65024
죠	-6.67672
▁알아	-6.7065
▁근데	-6.72126
랑	-6.72774
▁나한테	-6.73629
이야	-6.74048
▁그거	-6.77043
▁이게	-6.7867
한테	-6.79091
하고	-6.79713
▁다시	-6.79823
▁돈이	-6.79955
▁사람	-6.80183
까지	-6.80801
▁당장	-6.83333
▁말이	-6.84152
▁미안해	-6.85265
히	-6.85461
한	-6.85993
▁그래도	-6.86565
봐	-6.86588
해	-6.87022
▁줄	-6.87208
데	-6.87213
거	-6.87578
▁하나	-6.87917
▁없어요	-6.90613
▁다른	-6.90807
▁아닙니다	-6.9122
다고	-6.9211
▁알겠습니다	-6.93434
인데	-6.94059
▁하고	-6.94451
아	-6.94841
▁회사	-6.95474
▁같이	-6.96921
▁내놔	-6.983
▁또	-6.9876
▁이런	-6.9925
▁때	-7.00363
으면	-7.00828
에서	-7.01973
▁있는	-7.04328
▁어디	-7.0449
의	-7.04732
▁부장님	-7.05649
▁자네	-7.06036
▁사	-7.06295
▁나는	-7.07637
▁엄마	-7.09236
부터	-7.10775
▁싫어	-7.11787
▁친구	-7.12429
▁뭐야	-7.12485
▁누가	-7.13057
▁그래서	-7.13769
▁하면	-7.15524
해서	-7.161
습니다	-7.17722
▁알겠어	-7.17962
▁뭐가	-7.18328
▁하는	-7.18369
▁아니라	-7.18433
▁이건	-7.18458
▁거야	-7.18527
좀	-7.18844
▁당신	-7.19486
▁내일	-7.19498
▁와	-7.19794
▁많이	-7.20563
▁아니고	-7.21355
▁일이	-7.21648
만원	-7.22552
▁가	-7.23121
▁저희	-7.23358
▁그만	-7.23696
▁꼭	-7.24247
▁누구	-7.25213
▁이번	-7.25349
까	-7.25862
▁생각	-7.26624
▁너는	-7.27582
▁너네	-7.28257
▁요즘	-7.28524
▁말고	-7.28601
라도	-7.29328
것도	-7.30006
▁그리고	-7.30487
▁하지	-7.33224
▁사람이	-7.33314
▁집에	-7.33489
▁그만해	-7.33684
▁혹시	-7.33846
▁그러니까	-7.33894
하면	-7.35033
▁이번에	-7.35039
▁아무	-7.35059
▁자꾸	-7.35753
▁미안	-7.36912
▁날	-7.37066
▁갑자기	-7.37118
▁말을	-7.37119
▁애	-7.3717
입니다	-7.37359
기	-7.38233
▁없는데	-7.38848
▁참	-7.39216
▁한번	-7.39774
래	-7.39812
▁제대로	-7.40006
▁저번에	-7.40337
▁봐	-7.40432
▁죄송해요	-7.40439
▁어디서	-7.40453
▁얼마나	-7.40963
▁말이야	-7.41329
▁게	-7.41481
하게	-7.41731
▁그러면	-7.42038
날	-7.43112
▁앞으로	-7.44331
▁오	-7.44632
▁없는	-7.44964
▁아직	-7.4504
▁저도	-7.45071
▁살려주세요	-7.45762
▁어제	-7.46104
▁살	-7.46212
▁없어서	-7.46701
▁얼굴	-7.4685
야지	-7.47045
▁집	-7.47103
▁전	-7.48176
▁돼	-7.48331
보다	-7.48653
긴	-7.48753
▁줘	-7.49124
▁아주	-7.49466
▁얘	-7.49728
▁소리	-7.50189
▁좋은	-7.50622
▁김대리	-7.51591
▁마	-7.52014
▁하지마	-7.52107
▁전에	-7.52133
▁알았어	-7.52454
▁딸	-7.52865
▁그걸	-7.53058
▁칼	-7.53458
▁너도	-7.53896
▁저는	-7.54079
는거야	-7.54267
▁알고	-7.54435
자	-7.54446
▁업무	-7.54638
▁한번만	-7.54692
▁바로	-7.55528
▁나랑	-7.55624
▁손님	-7.55787
▁선생님	-7.57183
잖아요	-7.57435
▁애들	-7.57587
▁거기	-7.57995
▁고객님	-7.58559
▁가서	-7.58608
▁알지	-7.58769
▁몰라	-7.59761
▁새끼	-7.5991
▁번	-7.60166
▁아니요	-7.60425
▁저기	-7.60973
▁같은	-7.61905
▁1	-7.62005
▁하겠습니다	-7.62233
▁같아	-7.62234
▁오빠	-7.62484
▁언제	-7.63303
▁계속	-7.63726
▁보고	-7.63958
▁왜그래	-7.64333
▁어이	-7.64526
▁얘기	-7.64868
▁옷	-7.65242
▁5	-7.66663
▁딱	-7.66674
▁정신	-7.66681
에요	-7.67005
▁싶어	-7.67769
▁여기서	-7.67834
▁있어서	-7.67869
▁과장님	-7.68133
▁건	-7.68314
▁3	-7.68568
▁주세요	-7.68621
▁10	-7.69178
▁안돼요	-7.69518
와	-7.69918
▁똑바로	-7.70307
▁눈	-7.70313
든	-7.70978
▁일을	-7.71229
▁아냐	-7.7134
▁때문에	-7.71397
이라도	-7.71568
▁알아서	-7.7198
▁가지고	-7.72665
▁돈을	-7.72679
▁것도	-7.72812
▁씨	-7.73236
▁있는데	-7.73349
▁기분	-7.73551
줘	-7.73869
엔	-7.7408
▁뭐라고	-7.74221
구나	-7.74314
▁너랑	-7.74565
씨	-7.74872
▁우리가	-7.75076
▁몇	-7.75126
▁아니면	-7.75673
▁시간	-7.75983
▁아빠	-7.7632
▁얼른	-7.7642
이랑	-7.77795
▁예	-7.77796
▁사장님	-7.78165
▁맨	-7.78172
▁보	-7.78203
▁사진	-7.7831
▁입	-7.78388
▁없	-7.78857
▁아닌데	-7.791
▁있지	-7.79236
▁싫으면	-7.79419
▁저기요	-7.79738
▁조용히	-7.80023
피	-7.80099
▁신고	-7.80457
▁맞아	-7.80507
▁먼저	-7.8087
처럼	-7.80955
▁같습니다	-7.80961
▁쟤	-7.81194
주세요	-7.81458
▁죽어	-7.81472
▁없습니다	-7.81568
밖에	-7.81864
▁마세요	-7.82539
▁얼마	-7.82589
▁자	-7.82645
할	-7.82815
▁가족	-7.82854
▁됐고	-7.83088
▁그렇지	-7.83511
▁휴가	-7.83587
▁이미	-7.8371
일	-7.83825
▁아니에요	-7.83897
▁알	-7.83916
인	-7.83967
시죠	-7.84583
▁밖에	-7.86196
▁자기	-7.86411
대	-7.86616
▁하는데	-7.8674
▁이리	-7.86858
▁돼지	-7.86889
▁조금	-7.87154
▁엄마가	-7.87648
▁절대	-7.87832
▁열심히	-7.88224
▁빌려줘	-7.88417
▁했는데	-7.89319
▁형	-7.89448
▁개	-7.90009
▁좋아	-7.90068
▁잠깐	-7.90358
▁내일까지	-7.90567
려고	-7.90576
차	-7.90705
▁못해	-7.90975
▁부모님	-7.91298
▁보내	-7.91676
▁머리	-7.91775
거에요	-7.91822
▁되	-7.92026
줄	-7.92192
▁뭔데	-7.92506
들	-7.93141
▁나오면	-7.93842
▁커피	-7.94071
▁혼자	-7.94382
▁그런데	-7.94461
▁해야지	-7.94495
▁있습니다	-7.9461
▁널	-7.94713
▁학교	-7.95275
합니다	-7.95804
▁동생	-7.95896
▁조금만	-7.95904
▁있어요	-7.96213
▁시간을	-7.96464
▁팀장님	-7.9708
건	-7.97154
▁새끼야	-7.97398
▁너희	-7.97506
▁일단	-7.9754
▁냄새	-7.98163
▁손	-7.984
▁차	-7.98624
▁그니까	-7.98727
▁지	-7.99122
▁에이	-7.99221
▁아들	-7.99222
▁뭔	-7.99231
▁있나	-7.99543
던데	-7.9962
▁너한테	-8.00203
▁아저씨	-8.00467
▁모르	-8.00502
▁2	-8.00532
▁밥	-8.0063
▁많아	-8.01744
리	-8.01758
▁있	-8.01788
면서	-8.01919
▁대신	-8.02166
▁원래	-8.02299
만원만	-8.02464
▁같은데	-8.0257
▁꺼져	-8.03893
겠어	-8.03958
으니까	-8.03981
▁말씀이	-8.0419
분	-8.04294
며	-8.04889
▁줄게	-8.04928
▁확	-8.05012
신	-8.05396
▁이래	-8.05504
시	-8.05867
걸로	-8.06395
구	-8.06526
▁했어	-8.07446
▁잘못	-8.07969
▁있잖아	-8.07999
▁말해	-8.08589
▁걸	-8.08875
▁말씀	-8.09155
▁들어	-8.09445
지마	-8.09725
▁전화	-8.09752
▁말로	-8.09798
▁써	-8.10104
▁그러게	-8.10277
▁마음	-8.10762
대로	-8.1077
겠다	-8.10906
▁상사	-8.11007
▁다리	-8.11095
▁니네	-8.11386
▁먹고	-8.11506
걸	-8.11656
때문에	-8.11853
▁될	-8.12207
▁하네	-8.12296
▁그런거	-8.1239
▁김	-8.12522
▁아닌	-8.12599
▁해서	-8.12881
▁그러	-8.13876
▁그러세요	-8.14073
십니까	-8.14417
▁아줌마	-8.14679
▁않아	-8.14707
▁주면	-8.14722
▁그치	-8.14898
▁머	-8.15247
놓고	-8.15884
▁안녕하	-8.15912
는게	-8.16013
▁없고	-8.16149
건데	-8.16155
▁힘들어	-8.16193
▁어머	-8.16505
▁사람들	-8.1691
이나	-8.17412
▁여자	-8.17578
▁남자	-8.17639
▁남자친구	-8.17925
▁곧	-8.18759
구요	-8.18804
▁그럴	-8.19262
▁없네	-8.19741
▁저한테	-8.2025
▁거짓말	-8.20296
▁찐따	-8.20316
▁왜요	-8.20387
▁죽고	-8.20652
▁이걸	-8.20689
▁그때	-8.20961
▁나가	-8.21073
▁오늘은	-8.21195
▁장난	-8.21282
어요	-8.21395
▁했잖아	-8.21533
▁100	-8.22056
러	-8.22127
같이	-8.22379
▁가방	-8.22419
▁있는거	-8.22584
▁완전	-8.22692
▁살아	-8.22896
▁알바	-8.23307
가지고	-8.23343
진	-8.23493
마	-8.23947
▁경찰에	-8.24159
▁맞	-8.24405
▁안되	-8.24475
▁같아요	-8.24521
▁갈	-8.24522
▁없지	-8.24773
습니까	-8.24797
▁어머니	-8.248
더라	-8.25348
▁대체	-8.25373
▁말도	-8.25845
▁소리야	-8.25846
▁생각해	-8.26002
▁우	-8.26164
시면	-8.26256
▁사실	-8.26857
▁없으면	-8.26896
▁있냐	-8.26929
▁아직도	-8.27073
▁가만히	-8.2772
▁줘봐	-8.27825
▁약속	-8.27835
▁담배	-8.28183
지만	-8.28279
▁들고	-8.28306
▁하세요	-8.28349
▁같	-8.28371
하나	-8.28537
▁큰	-8.28654
▁해봐	-8.28679
▁대	-8.28817
▁주	-8.28908
▁하라고	-8.28915
▁부탁	-8.29838
▁두	-8.30092
▁나중에	-8.30363
▁이야기	-8.30383
▁좋게	-8.30422
▁않	-8.30471
▁맞고	-8.30531
▁빌려주라	-8.30593
▁새끼가	-8.30692
▁일도	-8.30896
▁해줘	-8.31682
겠습니다	-8.31756
▁아니잖아	-8.32082
▁정도	-8.32125
▁쓰고	-8.32253
하는데	-8.32537
▁그러지	-8.32545
튼	-8.32732
▁당신이	-8.32874
▁짓	-8.3296
▁지갑	-8.3305
▁장기	-8.33087
▁있으면	-8.33177
▁이유	-8.3323
▁아이	-8.33359
▁어떤	-8.33364
▁와서	-8.33575
▁다녀	-8.33622
▁싶	-8.33927
▁되잖아	-8.34066
▁벌써	-8.34173
예요	-8.34477
내	-8.34488
수	-8.34525
▁안될까	-8.34543
겠네	-8.34719
▁둘	-8.34795
도록	-8.34818
▁보고서	-8.34848
▁번만	-8.35446
▁않으면	-8.35502
▁감사합니다	-8.35515
▁돌려줘	-8.35933
니깐	-8.35987
▁수가	-8.36231
▁그래요	-8.36397
는거	-8.36453
다며	-8.36576
▁자네가	-8.36578
▁힘들	-8.36604
▁아까	-8.3666
▁몸	-8.3687
▁죽여버릴거야	-8.37117
▁하는거	-8.37154
해요	-8.37364
▁쳐	-8.37852
▁거지	-8.37972
▁해야	-8.38147
▁없잖아	-8.38217
말고	-8.38266
려	-8.38515
▁공부	-8.38919
▁제발요	-8.39385
▁줄래	-8.39438
▁술	-8.3969
▁죽	-8.39966
▁하지만	-8.40563
▁적	-8.40749
하세요	-8.40765
▁그러지마	-8.40779
때	-8.40947
▁사와	-8.41111
▁자식	-8.415
보고	-8.4158
▁대리	-8.41595
▁놈	-8.41643
▁피	-8.42542
▁돈은	-8.42585
이에요	-8.42634
▁아뇨	-8.42668
▁주말에	-8.4268
▁보면	-8.42945
있어	-8.43039
▁눈치	-8.43039
들이	-8.43292
▁달	-8.43577
들은	-8.4389
하지	-8.43929
▁회사에	-8.43969
▁죽을	-8.4435
텐데	-8.44454
▁그렇	-8.44525
했어	-8.44757
구만	-8.44821
▁없이	-8.44823
▁이새끼	-8.44875
▁사과	-8.4541
▁얘들아	-8.45496
거든	-8.45653
▁다음에	-8.45914
겠지	-8.46009
▁문제	-8.46132
▁너같은	-8.46332
▁꼴	-8.46375
▁오늘까지	-8.46436
▁없다고	-8.46902
▁좋	-8.47301
가요	-8.47301
▁되지	-8.4741
▁시간이	-8.47449
▁용돈	-8.47478
▁했지	-8.47504
▁앞에서	-8.47971
▁드릴게요	-8.48451
했는데	-8.48553
▁어쩔	-8.48553
어서	-8.48638
나요	-8.48689
▁똑같	-8.48839
단	-8.48862
▁다들	-8.48898
▁대리님	-8.49108
▁아파	-8.49209
▁입고	-8.49349
것	-8.49357
주면	-8.49426
더니	-8.49476
▁싶지	-8.49481
▁경찰	-8.49572
셔서	-8.49641
▁나와	-8.49673
▁가져와	-8.49952
가서	-8.5011
▁존나	-8.50158
하네	-8.50167
▁여	-8.50202
▁고마워	-8.50211
▁필요	-8.50357
▁죽여	-8.505
▁만나	-8.50698
겁니다	-8.50874
▁다음	-8.50977
▁도대체	-8.51685
는데요	-8.5173
▁불	-8.51765
▁소문	-8.51816
▁승진	-8.51835
▁환불	-8.51836
▁없다	-8.51945
아니야	-8.51999
▁온	-8.52239
▁별로	-8.52243
▁집에서	-8.52337
▁빼	-8.527
와서	-8.52728
▁안녕	-8.5301
땐	-8.53072
네요	-8.53238
▁와봐	-8.53446
▁죄	-8.5349
▁뒤져서	-8.5349
▁왜이렇게	-8.5363
이라고	-8.53652
까요	-8.54364
▁있다고	-8.54679
▁실수	-8.5484
▁이것	-8.54853
줄게	-8.5495
▁매일	-8.54971
인지	-8.55031
▁미	-8.55113
테니까	-8.55177
한거	-8.55217
▁연차	-8.55272
▁막	-8.5528
하겠습니다	-8.55285
▁아침	-8.55417
과	-8.55486
▁반	-8.55656
마다	-8.55681
하는	-8.55999
▁자리	-8.56068
▁인생	-8.56206
▁물건	-8.56238
▁으	-8.56565
▁되는	-8.56964
▁애가	-8.57037
여	-8.57048
줄까	-8.57338
▁아는	-8.57664
▁대학	-8.57685
▁이름	-8.58172
▁모르는	-8.58177
▁됐어	-8.58255
▁30	-8.58323
▁보기	-8.58375
▁정	-8.58464
▁이상	-8.58478
▁친구야	-8.58859
실	-8.59094
▁만들어	-8.59569
▁다니	-8.59685
▁아이고	-8.59896
바	-8.59985
▁영상	-8.60147
▁저녁	-8.60185
다가	-8.60463
▁준비	-8.60474
▁음	-8.60566
▁받아	-8.60581
냐고	-8.60639
▁확인	-8.60729
시간	-8.6099
▁가게	-8.61029
▁물	-8.6134
▁발	-8.61822
던	-8.61911
▁볼	-8.62328
▁살려줘	-8.62453
▁올	-8.62461
년	-8.62531
▁주시면	-8.62534
▁월급	-8.63095
▁원하는	-8.6315
▁어때	-8.63233
▁팔	-8.63372
음	-8.63475
▁대로	-8.6355
▁해요	-8.63586
간	-8.63788
같은	-8.63983
▁언니	-8.64075
▁보여	-8.64247
▁이러지	-8.64493
▁새로	-8.64534
▁하는거야	-8.64745
▁불러	-8.64935
▁형이	-8.64979
▁있을까	-8.64988
▁중	-8.65152
▁안해	-8.65296
하니까	-8.65309
▁말하면	-8.65314
▁여보	-8.6543
▁학생	-8.65431
하냐	-8.6551
▁척	-8.65732
▁가족들	-8.65777
▁어쩌	-8.65922
던가	-8.6608
▁한다고	-8.66595
▁그러고	-8.66706
▁말하는	-8.6678
▁장애인	-8.66958
▁길동	-8.66962
▁평생	-8.67192
▁요새	-8.67204
▁먹	-8.67236
▁기다려	-8.67266
▁말대꾸	-8.67313
애	-8.67328
▁아무리	-8.67574
▁이러면	-8.67619
▁핸드폰	-8.6765
▁애들아	-8.67658
▁오해	-8.67673
거예요	-8.6776
▁약	-8.67815
▁무슨일이	-8.67861
▁미쳤어	-8.67875
▁열	-8.67898
▁일주일	-8.68076
▁이리와	-8.68341
▁너만	-8.68469
▁신경	-8.68679
▁부	-8.687
란	-8.68709
▁어딨어	-8.68901
▁그런게	-8.69013
▁안되는	-8.69028
▁이러세요	-8.69371
▁내려	-8.69375
▁들	-8.69409
▁아버지	-8.69457
▁남	-8.69469
▁할게요	-8.69684
▁최대	-8.69796
▁증거	-8.69876
▁괜찮아	-8.69994
▁뭐냐	-8.69994
우	-8.70322
▁가자	-8.70691
▁가져가	-8.7074
▁타	-8.70882
▁엄청	-8.71
▁어휴	-8.71027
▁분명	-8.71231
▁문	-8.72447
▁하루	-8.72488
▁원	-8.72493
▁갖고	-8.72532
▁산	-8.7266
▁하냐	-8.7278
▁미쳤	-8.72846
건가요	-8.7301
▁회사가	-8.73079
▁싫은데	-8.73162
▁남편	-8.73226
보니까	-8.73264
▁아니지	-8.73452
▁못하면	-8.73608
▁있을	-8.73736
▁일로와	-8.73761
▁짜증나	-8.73809
▁저희가	-8.73958
▁따라	-8.7411
▁돈좀	-8.74345
▁주제에	-8.7435
▁신발	-8.74383
개	-8.744
▁현금	-8.74578
▁들어가	-8.74768
▁사정이	-8.74826
▁부모	-8.75189
▁죄송하면	-8.75204
▁20	-8.75357
▁선물	-8.75401
억	-8.75523
▁본	-8.7564
▁어떡해	-8.76082
▁되게	-8.76336
전에	-8.76427
▁잘못했어	-8.76443
▁이번주	-8.76572
▁무서워	-8.76617
▁알겠어요	-8.76716
▁하나도	-8.76922
▁연락	-8.76932
▁많	-8.76941
▁역시	-8.77016
▁퇴근	-8.77035
▁맘에	-8.7709
▁말라고	-8.7713
▁앞에	-8.77194
▁손가락	-8.77211
▁중요한	-8.77292
▁피해	-8.77389
인거	-8.77519
▁아닌가	-8.77525
▁할머니	-8.77532
▁시키는	-8.77542
에게	-8.78196
▁회사에서	-8.78231
▁빌려	-8.78522
▁목숨	-8.78836
▁직장	-8.78926
▁싶어서	-8.78944
사	-8.78984
▁넵	-8.79142
▁이러지마	-8.79195
▁임마	-8.79206
▁음식	-8.79238
▁해도	-8.7927
인가	-8.79298
▁나오	-8.79314
▁먹어	-8.79335
▁총	-8.79561
▁협박	-8.79593
▁하자	-8.79674
한다고	-8.79902
▁점심	-8.80006
▁할때	-8.80009
겠어요	-8.80023
▁준비해	-8.80097
▁할게	-8.80273
▁기분이	-8.80424
▁제일	-8.80566
▁아가씨	-8.80748
▁카드	-8.80989
▁항상	-8.81208
치	-8.81221
▁보자	-8.81248
▁직원들	-8.81331
▁여보세요	-8.81437
▁누군지	-8.81447
네가	-8.8156
▁처리	-8.81618
▁왜이래	-8.81644
▁학원	-8.81855
해봐	-8.81868
▁미친	-8.81909
주	-8.81978
▁하하	-8.82047
▁엄마한테	-8.82177
▁대화	-8.8221
길래	-8.82248
▁너를	-8.82251
▁건데	-8.82429
▁이대리	-8.82431
▁서로	-8.82487
▁여자친구	-8.82612
하는거야	-8.82794
한다	-8.82802
그래	-8.82843
질	-8.83093
▁빵	-8.83547
줄테니까	-8.83623
한데	-8.83765
▁안됩니다	-8.83823
끼리	-8.84093
▁끝내	-8.84146
▁싫다고	-8.84159
오	-8.84255
▁장난해	-8.84316
▁결혼	-8.84381
▁봤어	-8.84426
▁교육	-8.84492
▁못하는	-8.84589
▁죽이고	-8.84737
씩	-8.8482
▁애들이	-8.85252
보자	-8.85394
▁주고	-8.85415
▁방금	-8.85611
▁매번	-8.85614
군	-8.85647
▁분	-8.8569
▁솔직히	-8.8577
▁얼굴이	-8.85855
▁회의	-8.85893
▁말아줘	-8.85981
▁오래	-8.86069
▁놔	-8.86485
지도	-8.86859
보면	-8.86947
자나	-8.87367
▁옷이	-8.87402
▁노력	-8.87501
▁데리고	-8.8751
▁세상	-8.87665
▁안되는데	-8.8768
▁가면	-8.8775
▁생각이	-8.87822
▁있다	-8.87875
▁옆에	-8.87908
꺼야	-8.87981
▁같아서	-8.87988
▁금방	-8.88008
▁이런식으로	-8.88201
▁봐주세요	-8.88238
▁하라는	-8.88279
▁건가	-8.88289
▁무	-8.88433
▁보는	-8.88453
▁하여	-8.88465
▁시	-8.88608
▁달라고	-8.88752
▁있고	-8.88755
▁다야	-8.88818
▁말씀이신	-8.88958
아냐	-8.89164
▁그러는데	-8.8922
▁싶냐	-8.8936
▁되는거	-8.89661
▁새	-8.89675
▁싫어요	-8.8991
님	-8.8993
▁직접	-8.90197
▁해주세요	-8.90258
▁우린	-8.90326
▁쓰	-8.90401
▁편하게	-8.90484
▁자료	-8.90643
▁세	-8.90691
▁귀	-8.90889
▁내꺼	-8.90917
말이야	-8.90957
주시면	-8.9097
▁가진	-8.91213
는건	-8.91277
▁문제가	-8.9131
▁사는	-8.91323
▁죽는	-8.91361
▁말귀	-8.91406
▁몸이	-8.91506
▁하기	-8.91742
▁생긴	-8.91827
▁박	-8.91904
▁부모님이	-8.9212
돼	-8.9216
길	-8.92291
▁프로젝트	-8.923
▁나이	-8.9262
▁먹으면	-8.92977
▁건들지	-8.92996
거지	-8.93299
▁마지막	-8.93353
▁폰	-8.93366
▁해라	-8.93433
▁재	-8.93444
▁냄새나	-8.93475
▁쓰레기	-8.93491
▁말야	-8.93698
▁맞아야	-8.93817
▁사람이야	-8.93931
▁회식	-8.94014
원	-8.94484
▁다니는	-8.94757
▁받	-8.94816
하	-8.94835
유	-8.94869
저	-8.94951
▁진작	-8.95024
▁까지	-8.95062
▁봐라	-8.95072
▁말할	-8.95208
▁저렇게	-8.95256
▁친구끼리	-8.95264
▁이상한	-8.95298
▁어쩌라고	-8.95422
▁사람들이	-8.95469
▁게임	-8.95482
▁말아주세요	-8.95639
▁우리집	-8.95749
▁정리	-8.95785
▁하지말고	-8.95833
▁인정	-8.95836
▁그랬어	-8.96011
▁어머님	-8.96233
▁길	-8.96279
▁뭔가	-8.96566
▁이런거	-8.96677
▁보이	-8.96755
▁쓸	-8.96877
▁봐봐	-8.97009
▁기	-8.97073
▁뒤에	-8.97219
▁죽일	-8.97243
▁헐	-8.97457
▁못생긴	-8.97472
▁싹	-8.97482
▁애초에	-8.97546
▁바람	-8.97567
▁모든	-8.97571
▁걔	-8.97752
▁왜그러세요	-8.97756
▁그동안	-8.97772
▁별	-8.97796
▁맞지	-8.9791
▁언제까지	-8.97959
▁그정도	-8.98077
▁죽는다	-8.98137
라니	-8.98198
▁마무리	-8.98199
▁병원	-8.98342
▁될까요	-8.98397
▁바	-8.98421
▁형님	-8.98674
▁목	-8.98682
이라	-8.9869
▁있네	-8.98757
▁눈에	-8.98897
▁하루만	-8.98908
오면	-8.99046
▁화장실	-8.99245
▁야근	-8.99326
▁서류	-8.99534
▁아닌가요	-8.99539
▁상황	-8.99816
▁목소리	-8.99916
▁설마	-9.00083
▁감히	-9.00131
▁싫	-9.00176
▁글	-9.00214
▁돌려주세요	-9.00219
▁아휴	-9.00255
▁마지막이야	-9.00329
▁벌	-9.00518
말	-9.0058
▁죽고싶어	-9.00617
▁적당히	-9.00685
서요	-9.00772
▁그러냐	-9.00813
▁합니다	-9.01
▁지금까지	-9.01108
▁누나	-9.01114
▁시간에	-9.01182
▁드	-9.01211
▁할거야	-9.01262
▁시계	-9.01429
▁가만	-9.01544
겁니까	-9.01588
▁남의	-9.02237
▁때려	-9.02246
려면	-9.02395
▁하니까	-9.02412
▁듣고	-9.02551
▁아닙니	-9.02584
▁어이가	-9.02739
▁일처리	-9.02798
세	-9.02805
▁순	-9.02816
▁죄송한데	-9.02981
했습니다	-9.02994
▁없을	-9.02996
▁싶은데	-9.03039
지말고	-9.03054
▁내놓으라고	-9.03065
▁부탁이야	-9.03148
드릴게요	-9.03267
▁비싼	-9.03489
겠냐	-9.0354
▁달라	-9.03563
▁받고	-9.03592
▁봤는데	-9.03702
▁방법	-9.0381
▁사회생활	-9.03856
▁아니라고	-9.03871
봐도	-9.03899
▁가져다	-9.03914
▁수업	-9.04088
었습니다	-9.04191
▁아님	-9.04248
▁꺼	-9.04363
니다	-9.04474
하지마	-9.04687
▁부탁해	-9.04716
기는	-9.04724
▁어서	-9.04737
라서	-9.0478
봐요	-9.04805
▁못할	-9.04825
▁심하	-9.04842
▁구	-9.0486
수도	-9.04868
▁안하고	-9.05129
▁괜	-9.05353
▁욕	-9.05377
해야지	-9.05434
▁죽자	-9.05493
▁봤	-9.05549
▁당	-9.05621
▁길동씨	-9.05662
▁미리	-9.0574
▁당연	-9.0578
▁행동	-9.05799
▁시험	-9.05806
▁6	-9.05849
했지	-9.0589
적으로	-9.06087
▁가지	-9.06183
▁대가리	-9.06242
▁코	-9.06263
▁장사	-9.06391
▁인사	-9.0672
안	-9.06741
▁맞자	-9.06782
▁일로	-9.06885
▁이것도	-9.06963
▁못하	-9.0697
▁이쁘다	-9.07019
부러	-9.0717
▁처음	-9.07418
준다고	-9.07511
▁따라와	-9.0762
상	-9.07943
▁잔	-9.07966
▁받은	-9.08074
▁비	-9.08125
▁와이프	-9.08375
이면	-9.08538
▁죽기	-9.0857
▁헤어져	-9.08604
▁끝까지	-9.0861
인데요	-9.08643
▁헤어지	-9.08643
▁도움	-9.08724
▁간	-9.09009
더	-9.09015
▁사장	-9.09035
호	-9.09088
버린다	-9.09648
▁번호	-9.09781
▁더러워	-9.09993
▁모	-9.10343
▁그랬	-9.1048
▁영	-9.1051
▁없나	-9.1053
▁매	-9.10542
입니까	-9.10705
▁선배	-9.10722
▁배	-9.10921
▁저리	-9.10944
▁노	-9.11092
▁급하	-9.11125
▁가세요	-9.11126
는거지	-9.11138
봐라	-9.11159
장	-9.11191
▁글쎄	-9.11206
기가	-9.11224
셨어요	-9.11265
▁싶으	-9.1127
▁부탁드립니다	-9.11289
▁그렇다고	-9.11512
▁힘	-9.11577
식으로	-9.11585
▁닥치고	-9.11629
이러시면	-9.1196
께	-9.12036
▁여기가	-9.12214
▁안하면	-9.12241
만원이	-9.12352
▁선배님	-9.12481
▁상	-9.12582
▁참나	-9.12659
데요	-9.1287
시고	-9.13205
혀	-9.1325
▁죽여버린다	-9.13252
▁어린	-9.13427
▁이러는	-9.1371
▁바꿔	-9.13738
▁야야	-9.1391
▁모두	-9.14007
▁따박따박	-9.14024
▁이럴	-9.14063
▁딸이	-9.14076
▁다음부터	-9.14184
▁젊은	-9.14195
▁함부로	-9.14209
▁생겨서	-9.1421
▁신고할거야	-9.14218
▁처음부터	-9.1428
▁짜증나게	-9.14307
▁맞잖아	-9.14315
▁왔어	-9.1432
▁사고	-9.14393
▁진정해	-9.14427
▁나빠	-9.14489
▁꺼내	-9.14519
▁꼬라지	-9.14532
▁갚을게	-9.14553
때까지	-9.14629
▁죄송하지	-9.14723
▁나쁜	-9.14756
▁시키	-9.14791
▁잘못했어요	-9.15217
▁진	-9.15312
해도	-9.15338
▁생각하	-9.15466
▁허	-9.15483
▁팀	-9.15518
▁듣기	-9.1566
나봐	-9.15681
▁살고	-9.15709
리고	-9.15721
▁잡	-9.15948
▁선	-9.16014
▁00	-9.16169
▁몰라서	-9.16197
▁차라	-9.16408
선	-9.16517
▁많은	-9.16621
▁빌려달라	-9.16772
▁빌려주	-9.16815
▁가라	-9.17023
▁내놔라	-9.1712
▁손에	-9.17122
▁기회	-9.17128
소	-9.1714
인가요	-9.17218
▁거잖아	-9.17477
▁잠깐만	-9.17642
▁간다	-9.17647
▁주머니에	-9.17681
▁무슨소리야	-9.17685
▁크	-9.17696
비	-9.177
▁한대	-9.17724
▁그러는거야	-9.17765
▁회사생활	-9.17815
다니까	-9.1795
그러면	-9.17951
▁자식이	-9.18376
▁어딜	-9.18448
▁이봐	-9.18449
▁장난하	-9.18496
▁알면	-9.1866
▁신입	-9.18766
▁따	-9.18795
▁신	-9.18843
▁했	-9.18873
▁다닐	-9.19038
할게요	-9.19082
기전에	-9.19112
년이	-9.19184
▁드릴	-9.19253
▁돌아가	-9.19269
▁안에	-9.19416
▁그러시	-9.19425
▁나와서	-9.19739
▁하시는	-9.19852
▁그러는	-9.19963
▁생일	-9.20379
▁돌려줄게	-9.20476
▁없냐	-9.20631
▁마음대로	-9.20638
▁쉽게	-9.20767
▁재밌	-9.20868
▁뭐해	-9.20905
▁운전	-9.20962
▁여기요	-9.21297
▁왕따	-9.21317
▁몰	-9.21381
▁사정	-9.21385
▁나온	-9.21971
듯	-9.21994
▁생활	-9.22307
▁진정	-9.22377
▁사람한테	-9.22381
▁끝나고	-9.22385
▁최선	-9.22404
▁못생겼	-9.22535
▁않고	-9.22741
▁세상에	-9.22748
▁배달	-9.22897
▁끝나	-9.22962
▁저번	-9.23068
▁성	-9.2307
▁1000	-9.23156
▁않은	-9.23212
▁죄송	-9.23268
에휴	-9.23282
▁해줄게	-9.23339
▁김사원	-9.23374
▁목걸이	-9.23384
▁좋은말로	-9.2346
▁맞는	-9.23571
▁놈이	-9.23623
집	-9.23652
▁됐	-9.23662
▁치마	-9.23797
▁나만	-9.23805
▁좋겠다	-9.23862
▁닥쳐	-9.23905
줄래	-9.24034
▁친구들	-9.24057
▁안되겠다	-9.24076
▁바보	-9.24092
▁담	-9.24216
▁돌려	-9.24406
▁배가	-9.24493
▁말하지	-9.24539
▁두고	-9.24599
▁걱정	-9.246
▁무슨일	-9.24619
▁가져간다	-9.2463
▁동안	-9.24668
▁하는게	-9.247
▁뭐하는	-9.24734
▁비켜	-9.24806
운	-9.25119
▁입금	-9.25122
▁학원비	-9.25187
라니까	-9.25376
▁주문	-9.25378
▁밤	-9.25451
▁둘이	-9.25509
만은	-9.25634
던지	-9.25742
할때	-9.25803
▁기억	-9.25807
▁소	-9.25833
▁머리가	-9.25841
▁뽑아	-9.25868
▁많아서	-9.26066
내놔	-9.26087
▁어려운	-9.26206
▁사이	-9.26245
하는게	-9.26567
▁이젠	-9.26695
▁시키는대로	-9.26797
▁뭐래	-9.26863
▁기회를	-9.27093
▁시끄럽	-9.2713
라는	-9.27152
▁이따위로	-9.27218
▁가는	-9.27268
살	-9.27369
▁그러니	-9.27398
▁웃기네	-9.27459
▁쯧쯧	-9.27468
있는데	-9.27664
▁앞	-9.27674
했잖아	-9.27723
▁한다	-9.28006
▁정보	-9.28036
▁믿고	-9.28049
없이	-9.28076
▁맞을	-9.28118
▁저런	-9.28122
▁휴가를	-9.28139
제	-9.28208
▁알어	-9.28386
▁조	-9.28432
▁맞는데	-9.28616
▁책	-9.28707
▁하려고	-9.28788
▁시킨	-9.28841
▁일찍	-9.28977
▁이걸로	-9.29011
이지	-9.29043
하라고	-9.29097
리면	-9.291
▁괜찮	-9.29181
▁약속이	-9.29205
▁했다고	-9.29265
▁시켜	-9.29286
▁잡아	-9.29288
▁불편하	-9.29372
당	-9.29624
▁4	-9.29636
▁미안하다	-9.29757
▁기사	-9.29762
▁부분	-9.29776
▁커	-9.29898
드	-9.30008
적	-9.30119
▁진정하세요	-9.30285
▁죽고싶냐	-9.30289
▁어쩔건데	-9.30309
▁그만하세요	-9.30442
▁내려놔	-9.30457
잔	-9.30554
하다	-9.30557
▁사과해	-9.30574
기만	-9.30598
▁안되겠네	-9.30637
▁있으	-9.30686
▁먹는	-9.30694
▁생기	-9.30912
기를	-9.30928
래서	-9.31005
▁안된다고	-9.31033
▁하라면	-9.31049
▁말대꾸야	-9.31172
했다고	-9.31201
▁당연하	-9.31242
않습니까	-9.3134
▁직원	-9.31352
야돼	-9.31455
▁500	-9.31658
▁300	-9.31701
▁떼	-9.31759
▁상황이	-9.31853
▁필요한	-9.31947
▁이쁘	-9.31974
▁뒤	-9.32094
▁안그래	-9.32119
▁샀	-9.32245
▁웃기	-9.32249
▁일하는	-9.32319
▁싶은	-9.32378
▁대답	-9.32388
▁줘야	-9.32462
달라고	-9.32639
주고	-9.3272
▁좋을	-9.32782
꺼	-9.32838
보인다	-9.32852
▁가족이	-9.32881
▁받아서	-9.32912
해줘	-9.32946
▁후	-9.33167
었는데	-9.33232
▁그런건	-9.33267
▁부르셨	-9.33346
▁비밀	-9.33352
▁이번달	-9.33353
▁아들이	-9.33362
앗	-9.33432
▁50	-9.33473
▁못하게	-9.33569
▁찾아	-9.33657
▁어쭈	-9.33738
▁다름이	-9.33811
▁이딴	-9.33815
▁안될	-9.33945
▁철수	-9.34073
▁한거	-9.34173
▁조심해	-9.34254
▁박대리	-9.34303
▁사원	-9.34309
▁하셨	-9.34373
트	-9.34509
▁좋아서	-9.34534
▁된	-9.34621
이냐	-9.34643
▁입을	-9.34686
▁이번만	-9.34687
▁학교에서	-9.34704
▁말만	-9.34745
온	-9.34787
점	-9.34869
▁좋아하는	-9.34895
▁물어	-9.34934
▁내말	-9.35209
▁안보여	-9.35214
▁아니라니까	-9.35269
▁들었어	-9.35277
일이	-9.35314
▁누구세	-9.35331
▁부서	-9.35339
▁저리가	-9.35508
▁올려	-9.3551
건가	-9.35546
▁잘해	-9.35608
▁청소	-9.35622
지가	-9.35712
▁합	-9.3575
으라고	-9.35877
▁사람은	-9.3597
▁거기서	-9.36034
정도	-9.36111
야겠다	-9.3615
▁안들어	-9.36157
▁가져오	-9.36266
▁생각해서	-9.36355
이고	-9.36366
▁돈없어	-9.36381
▁토	-9.36421
▁하시면	-9.36473
▁넘	-9.36511
▁찔러	-9.36541
▁유	-9.36572
시에	-9.36664
▁관심	-9.36673
▁안되지	-9.36757
▁나왔	-9.36783
▁집안	-9.36787
▁속	-9.36834
까봐	-9.36892
해라	-9.36918
▁전부	-9.37015
▁되겠네	-9.37295
▁장애인이	-9.37319
▁부르	-9.37321
▁빌려줄	-9.37415
▁뒤질래	-9.37447
▁연	-9.37451
▁너네집	-9.37473
적이	-9.37503
▁같은데요	-9.37513
전	-9.37636
▁손목	-9.37817
▁주는	-9.37943
▁본인	-9.38043
진짜	-9.38273
▁예쁘다	-9.38365
된	-9.38388
라면	-9.38405
▁믿	-9.38503
▁털어	-9.38525
▁지내	-9.38533
▁똑같은	-9.3855
▁겁니다	-9.38557
▁아닌거	-9.38632
두	-9.38871
▁병신	-9.38944
▁놀리	-9.39048
갈	-9.39087
겠다고	-9.39169
부	-9.39209
▁계좌	-9.39218
등	-9.3923
▁급한	-9.39268
▁살려	-9.39297
▁만원	-9.39323
▁지켜	-9.39355
▁싸가지	-9.39357
▁병원비	-9.39451
▁주라	-9.3951
▁오면	-9.39518
▁말한	-9.3989
으	-9.3991
▁씨발	-9.39966
▁열어	-9.4003
수가	-9.40088
▁말하	-9.40182
▁놓고	-9.40185
▁하셔서	-9.40214
▁믿어	-9.40226
▁쓰면	-9.4026
▁다니면	-9.40277
▁싸	-9.40278
▁티	-9.40359
▁그래야	-9.40448
▁모르겠	-9.40514
▁명	-9.40656
▁찍어	-9.40677
▁잠시만	-9.4072
▁치	-9.41094
야하는데	-9.41157
▁걍	-9.4119
▁이러	-9.41192
해주세요	-9.41222
▁무서운	-9.41244
줬잖아	-9.41361
▁할아버지	-9.41381
▁으악	-9.41469
▁했습니다	-9.41479
▁이해	-9.41542
▁잘못했습니다	-9.41544
▁일어나	-9.41569
▁보내주세요	-9.4159
▁따로	-9.41634
▁겁나	-9.41726
▁맞다	-9.41895
▁분위기	-9.41959
▁놀	-9.41977
▁같네	-9.42215
▁선배가	-9.42234
▁점수	-9.42248
발	-9.42307
▁죽으면	-9.42315
▁아내	-9.42454
▁거지새끼	-9.42499
놔	-9.42646
하시면	-9.42673
▁다니지	-9.4275
▁곳	-9.4282
▁보지	-9.42829
드리겠습니다	-9.42911
하는거	-9.42951
▁많네	-9.42962
▁물어보	-9.43084
▁빌려간	-9.43376
▁재미	-9.43414
▁주말	-9.43493
▁뭐라	-9.43566
▁딴	-9.43619
▁좋지	-9.4363
없어	-9.43657
▁능력	-9.43739
보이지	-9.43824
▁걸어	-9.43994
▁나올	-9.44042
▁아파트	-9.44081
▁사용	-9.44172
▁좋다	-9.44268
▁키	-9.44298
었어	-9.4446
▁입금해	-9.44494
▁가져	-9.44526
▁것이지	-9.44528
▁늦게	-9.44588
▁돌	-9.44671
쳐	-9.44707
거나	-9.44763
▁장	-9.44805
▁해결	-9.44896
하려고	-9.44912
▁미쳤나	-9.44961
하기	-9.44985
▁맛	-9.45047
▁준	-9.45162
▁벌어	-9.45183
▁꽤	-9.45187
▁휴대폰	-9.45268
기로	-9.45354
만큼	-9.4542
▁숙제	-9.45592
▁죽일거야	-9.4561
중	-9.45647
▁싫으니까	-9.45648
▁무섭	-9.45662
▁8	-9.4569
▁편의점	-9.45694
▁않나	-9.45759
▁나가서	-9.45893
▁잘못했는데	-9.45948
▁그러다	-9.45968
▁하잖아	-9.46017
▁아나	-9.46175
터	-9.46194
줄알아	-9.46221
▁없다니까	-9.46228
▁없으니까	-9.46291
▁바빠서	-9.4637
▁태도	-9.46579
▁않을까	-9.46676
▁끝났	-9.46678
▁신고하	-9.46695
▁오늘도	-9.46743
▁알겠지	-9.46903
거면	-9.46944
▁늘	-9.4709
▁갚아	-9.47218
▁년	-9.47267
참	-9.47383
▁어디가	-9.4751
▁장애	-9.47515
내가	-9.47664
▁찾아가	-9.47832
동	-9.47836
께서	-9.47969
▁옆	-9.4821
▁모르겠어	-9.48238
▁찍	-9.48419
▁눈이	-9.48474
개월	-9.48534
자고	-9.48535
▁잘못한거	-9.4854
▁웃겨	-9.48541
작	-9.48557
▁맞기	-9.48633
▁관리	-9.48678
▁받아야	-9.48697
▁동네	-9.4875
▁바빠	-9.48758
▁바쁜	-9.48833
▁바쁘	-9.48859
▁잠	-9.48942
▁아이가	-9.4906
▁차려	-9.49096
▁각오해	-9.49357
▁시끄러	-9.49415
순	-9.49434
▁가슴	-9.49455
▁왜이러세요	-9.49605
▁좋을거야	-9.49744
▁차장님	-9.49815
▁개인적	-9.49955
할거야	-9.4997
▁했으면	-9.50062
▁신입이	-9.50109
▁아프	-9.50137
▁지워	-9.50138
▁만들	-9.50282
▁때리	-9.50286
▁여기에	-9.50361
선생님	-9.5053
▁표정이	-9.50613
▁떠	-9.50637
▁구해	-9.5074
▁있었	-9.50766
이네	-9.50906
통	-9.50967
▁문제야	-9.50981
▁멈춰	-9.5109
▁할래	-9.51138
초	-9.5127
▁몰랐	-9.51449
▁잘하는	-9.51655
▁되나	-9.51821
대리	-9.5183
볼까	-9.51895
▁팔아	-9.5191
▁뒤지	-9.51925
없어요	-9.52015
▁오랜만	-9.52107
▁니들	-9.52138
▁일이나	-9.52165
▁좋은데	-9.52179
▁수술	-9.52291
▁되는데	-9.52737
▁잘못한	-9.5284
▁악	-9.52857
▁아는데	-9.53002
▁비싸	-9.53004
▁빠지	-9.53049
▁나대	-9.53089
▁공	-9.53141
▁그것	-9.53182
▁좋겠어	-9.53206
▁허락	-9.5321
▁오지	-9.53226
▁바꾸	-9.53326
▁안된다	-9.53352
▁더이상	-9.53413
▁않아요	-9.53467
▁개새끼	-9.53651
▁시발	-9.53783
▁꺼지라고	-9.53851
▁노력하겠습니다	-9.53863
▁어렵습니다	-9.53874
인줄	-9.53891
▁망치	-9.53894
▁그것만은	-9.53914
▁도와주세요	-9.53956
▁대충	-9.54002
▁쓴	-9.54038
▁죽을래	-9.54096
▁한테	-9.5416
▁여친	-9.54247
▁그만하라고	-9.5427
▁이자	-9.5438
▁기다려주세요	-9.54439
▁나쁘게	-9.54479
디	-9.54709
▁필요해서	-9.54755
▁갚을	-9.54927
▁하니	-9.54972
▁있으니까	-9.54975
▁그쪽	-9.55043
친구가	-9.55078
기도	-9.55186
▁그러시는	-9.55441
왜	-9.55468
▁풀어	-9.55537
▁심하다	-9.55603
동안	-9.55646
▁가진거	-9.55672
▁만큼	-9.5569
▁핑계	-9.55757
치고	-9.55774
하자	-9.55902
▁싶다	-9.55981
봤는데	-9.56078
▁이따	-9.56145
▁아니냐	-9.56177
▁되나요	-9.5618
▁해보겠습니다	-9.56245
용	-9.56418
▁덜	-9.56445
▁않냐	-9.56534
▁거의	-9.56559
▁들어오	-9.56604
없는	-9.56827
▁뭔소리	-9.5686
명	-9.5691
▁생각하지	-9.57035
나보네	-9.57041
▁쳐맞고	-9.57041
▁싫다	-9.57215
▁필요해	-9.57231
▁일정	-9.5724
는지	-9.57329
려서	-9.57384
하지말고	-9.57393
▁뭔지	-9.5741
▁죽겠	-9.57439
미	-9.575
봤자	-9.57677
▁어려워	-9.57793
▁받는	-9.57827
▁조심	-9.57831
▁밥도	-9.57924
▁시끄러워	-9.57946
▁법	-9.57979
▁주머니	-9.58081
▁열받	-9.58306
▁흑흑	-9.58316
▁홍당무	-9.58317
▁마스크	-9.58321
되면	-9.5834
▁하긴	-9.58342
▁이딴식으로	-9.58357
▁정신차려	-9.58358
▁시정하겠습니다	-9.58362
보세요	-9.58367
▁놀리지마	-9.58378
▁다음주	-9.58432
▁괜찮습니다	-9.5849
▁살게	-9.58563
▁신고할거에요	-9.58668
▁겨우	-9.58678
▁순간	-9.5876
▁미안하네	-9.58808
▁웃긴다	-9.58811
해주면	-9.58859
새끼가	-9.58864
▁되면	-9.58941
▁몰라요	-9.59033
▁화	-9.59047
든가	-9.59082
▁서비스	-9.59132
짓	-9.59196
▁잠시만요	-9.59238
그럼	-9.59243
▁작업	-9.59269
▁오랜만이	-9.59385
▁먹을	-9.5956
▁소중한	-9.59646
▁운동	-9.59705
▁그런가	-9.59738
하니	-9.59799
준	-9.59818
▁데	-9.59882
▁해주	-9.60039
▁학교에	-9.60127
▁보니	-9.60187
▁인	-9.602
▁안했어	-9.60393
▁오는	-9.60423
▁미안한	-9.60449
▁사모님	-9.60486
▁애들한테	-9.60503
▁빌려주면	-9.60511
는건데	-9.60534
▁나보고	-9.60765
▁전달	-9.60791
보	-9.60872
▁파	-9.6098
버릴거야	-9.61079
▁사랑해	-9.61082
▁해와	-9.61176
▁이새끼야	-9.61183
▁나쁘	-9.6123
▁됩니다	-9.61236
둬	-9.61267
▁된다고	-9.61505
▁풀	-9.61626
▁샀어	-9.61802
겠니	-9.61809
▁그리	-9.61954
▁어어	-9.62033
▁얘기해	-9.62043
거아니야	-9.62112
시는	-9.6212
시나요	-9.6214
▁데이트	-9.62208
하잖아	-9.62238
정	-9.62243
▁알려주	-9.62323
▁낼	-9.6253
▁안좋아	-9.62738
▁어려울	-9.6275
▁계산	-9.62768
▁울	-9.62827
▁않았	-9.62868
느라	-9.62874
▁알았	-9.62906
엥	-9.62925
▁키우	-9.62988
래요	-9.63045
▁동영상	-9.63077
▁스트레스	-9.63091
▁지은씨	-9.6312
▁영화	-9.63164
▁불쌍하다	-9.63197
▁다음주까지	-9.63216
건데요	-9.63327
▁됐다	-9.63447
▁앉아	-9.63473
▁살려만	-9.63498
▁맞습니다	-9.63603
▁바쁜데	-9.63758
▁절	-9.63772
▁건들지마	-9.6378
▁궁금해	-9.63782
▁병원에	-9.63791
▁해줄	-9.63819
▁있어야	-9.63863
▁부당한	-9.63899
시까지	-9.63931
▁이것좀	-9.63956
▁이정도	-9.63957
▁두고봐	-9.63977
▁어떡하	-9.64043
▁7	-9.64108
▁땅	-9.64129
줬더니	-9.64153
▁내용	-9.64264
십니다	-9.64357
너	-9.64442
드립니다	-9.64532
▁치워	-9.64575
▁어딨	-9.64601
▁있죠	-9.64642
▁됐지	-9.64674
▁뭐하냐	-9.6468
▁죽는거야	-9.64732
▁될까	-9.64751
▁소문내	-9.64792
▁때까지	-9.648
▁이러고	-9.64906
▁같지	-9.64947
▁빌린	-9.6501
▁성적이	-9.65018
▁좋은거	-9.65044
▁윽	-9.65063
▁할까	-9.65184
▁출근	-9.65195
▁아파서	-9.65294
▁드리겠습니다	-9.65314
▁그대로	-9.65343
▁집이	-9.65419
여서	-9.65445
▁병	-9.65457
▁됐어요	-9.65535
▁있던	-9.65564
▁치고	-9.6559
▁위해서	-9.65642
▁정리해	-9.65719
했어요	-9.65909
▁어울리	-9.66183
▁밑에	-9.66194
▁천원	-9.66222
▁맞춰	-9.66269
▁없었어	-9.66603
▁제정신이	-9.66608
▁아오	-9.66635
▁썩	-9.66936
▁멍청한	-9.66993
▁대해	-9.67005
▁멀	-9.67077
십시오	-9.67131
▁그러네	-9.67133
▁넘어가	-9.67143
▁둬	-9.67167
중에	-9.67432
▁모를	-9.67513
티	-9.67727
허	-9.67766
▁잠시	-9.67825
▁들어온	-9.67829
▁만	-9.67859
▁그런데요	-9.67902
▁들려	-9.67971
▁그날	-9.68005
▁했잖아요	-9.68036
▁얌전	-9.68044
▁마시고	-9.68045
▁노트북	-9.68071
▁했냐	-9.6809
심	-9.6817
▁하나만	-9.68194
▁고개	-9.68196
▁낫	-9.68212
▁인터넷에	-9.68223
▁넘겨	-9.68301
▁우선	-9.68318
▁지갑에	-9.6842
▁발표	-9.68486
▁뭐라구요	-9.68517
▁더럽게	-9.68537
▁죄송하다	-9.68554
▁헉	-9.68559
▁망	-9.68616
▁거울	-9.68631
▁나서	-9.68672
▁현	-9.68683
▁선생님이	-9.68714
것같아	-9.6877
▁밤에	-9.68802
▁맡	-9.68813
버	-9.68827
번	-9.68837
▁상관이야	-9.6886
▁비싸게	-9.68866
▁필요없어	-9.68942
답	-9.69042
▁내일부터	-9.69051
씨가	-9.69068
▁살아야	-9.69105
준다	-9.69224
▁고객	-9.69249
줘라	-9.69297
따	-9.69438
▁추가	-9.69488
▁상관	-9.69517
▁대학교	-9.69522
▁말하는데	-9.69617
▁없는거	-9.69723
▁불렀	-9.69772
▁받았	-9.69779
▁무슨소리	-9.69839
▁정신이	-9.70016
▁곤란	-9.70135
▁지나가	-9.70231
▁빌리	-9.70317
▁자리에	-9.70335
▁개인	-9.70382
▁찾	-9.70393
▁씻고	-9.70656
게요	-9.70791
▁금액	-9.71101
뿐이야	-9.71146
주라	-9.71167
▁이새끼가	-9.71221
기라도	-9.7123
▁인간	-9.7126
▁나씨	-9.71328
▁뭐든	-9.71365
▁갈게	-9.71531
겠는데	-9.71566
▁빨	-9.71566
▁마음이	-9.71579
빵	-9.71584
▁없으니	-9.71658
▁돈만	-9.71677
▁말이에요	-9.71678
리가	-9.71692
▁잘못이	-9.71771
▁한달	-9.71784
사람	-9.71811
▁의견	-9.71886
소리	-9.71955
▁안되요	-9.72025
▁수정	-9.72026
▁맘대로	-9.72038
가봐	-9.7206
▁지우	-9.72084
▁사랑	-9.72137
▁빠져	-9.72168
▁미친놈	-9.72175
침	-9.72192
해야	-9.72219
▁표정	-9.7225
돈	-9.72277
▁올린	-9.72283
릴	-9.72296
▁봐줘	-9.7244
모	-9.72492
▁일만	-9.72519
린	-9.72556
있는	-9.72634
턴	-9.72735
그	-9.72834
보라고	-9.72869
론	-9.72881
▁배우	-9.72921
▁위	-9.7308
▁몰랐어	-9.73113
▁이틀	-9.73163
줄거야	-9.73164
져	-9.7321
▁예전	-9.7321
알아	-9.73259
▁누굴	-9.73305
▁허허	-9.73315
▁코로나	-9.7333
▁꼬박꼬박	-9.73345
▁가까이	-9.73357
▁걷	-9.73362
▁비밀번호	-9.73377
▁위해	-9.73408
할래	-9.73439
▁할거	-9.73447
매	-9.73484
▁지난번에	-9.73503
▁조심해라	-9.73535
건지	-9.73612
▁때리지마	-9.73618
▁진짜로	-9.73624
▁화나게	-9.73642
▁남친	-9.73662
▁알겠	-9.73753
▁그러십니까	-9.73805
하지만	-9.73829
▁최대리	-9.73844
▁우유	-9.73879
아서	-9.73946
▁며칠	-9.73974
▁여행	-9.74021
▁어찌	-9.74066
▁주지	-9.7407
▁부장님이	-9.74109
▁이쁜	-9.7411
▁죄송할	-9.74125
▁벌레	-9.74245
▁방	-9.74285
▁건드리지	-9.74358
▁심하잖아	-9.74409
해달라고	-9.74446
▁짜증나네	-9.74595
▁필요없	-9.74642
▁이상해	-9.7466
▁메일	-9.74683
▁깨끗	-9.74699
▁갚	-9.74707
▁고	-9.74725
▁죽어야	-9.74862
▁말인데	-9.74923
▁있겠어	-9.74942
▁왔	-9.75043
▁도와주	-9.75084
▁감사	-9.75088
▁숨	-9.7511
볼래	-9.75167
▁자식아	-9.75204
▁되는지	-9.75216
▁다른데	-9.75271
▁지랄	-9.75304
▁친	-9.75361
▁것이	-9.75361
▁굴어	-9.75715
거니까	-9.75725
▁심해	-9.75769
▁사업	-9.75837
합	-9.75901
▁주십시오	-9.75917
▁사정이고	-9.76046
▁누	-9.76095
▁나오는	-9.76135
▁사기	-9.76248
분이	-9.76286
안에	-9.76413
▁나때	-9.76424
할께요	-9.76436
▁있거든	-9.76461
줄께	-9.76519
▁보내면	-9.76521
▁기다리고	-9.76578
아니라	-9.76704
▁맞으면	-9.76801
받고	-9.76843
▁뻔뻔하	-9.76873
▁동	-9.76973
다녀	-9.77012
▁그런말	-9.77028
록	-9.77062
▁살기	-9.77063
▁올리	-9.77131
▁심한	-9.77137
▁위에	-9.77175
정도면	-9.77198
▁보내줘	-9.77225
▁깔끔하	-9.77302
림	-9.77314
왔는데	-9.77441
먹고	-9.7766
▁성격	-9.77744
▁있을거	-9.77756
▁어쨌	-9.77791
▁오라고	-9.77901
▁넣어	-9.77912
▁종	-9.78066
▁보세요	-9.78083
▁아니니	-9.78141
▁병신이	-9.78143
말하지마	-9.78254
▁무엇	-9.78278
▁사람도	-9.78287
▁좋아요	-9.78287
▁군대	-9.78311
▁잘못했	-9.78317
월	-9.78325
▁살지	-9.78359
시다	-9.78389
▁예약	-9.78413
조	-9.78437
▁사무실	-9.78465
▁괴롭히는	-9.78467
▁과	-9.78473
▁정신차리	-9.78546
봐야	-9.78546
▁쯧	-9.7855
▁않겠어	-9.78551
안돼	-9.78646
▁어느	-9.78691
일이야	-9.78692
져서	-9.78748
▁굳	-9.78804
▁고치	-9.78846
▁불쌍해	-9.78863
▁만약	-9.78874
▁강대리	-9.78889
▁기분나빠	-9.78901
▁그딴식으로	-9.78911
▁니꺼	-9.78943
▁확실	-9.78964
▁편	-9.78994
▁버스비	-9.78996
▁그만하자	-9.79011
▁지수씨	-9.79057
▁주소	-9.79141
▁빨리빨리	-9.79148
거잖아	-9.79185
▁있는지	-9.79213
▁한마디	-9.79228
▁쓰는	-9.79241
▁그따위로	-9.79276
▁다음주에	-9.7931
▁뭐라고요	-9.79327
▁어딘지	-9.7937
▁다녔	-9.79415
▁비행기	-9.79466
▁와라	-9.79496
▁중요해	-9.79501
오라고	-9.79502
지는	-9.79559
▁말씀하신	-9.79636
▁신고할	-9.79683
▁분이	-9.79759
▁하지말라고	-9.79771
▁흐	-9.79776
▁부탁할게	-9.79812
▁어디있어	-9.79835
▁근무	-9.80021
▁넣	-9.80038
▁9	-9.80078
이씨	-9.80152
▁생겼어	-9.80184
▁했어요	-9.80209
든지	-9.80229
▁말든	-9.80265
▁써야	-9.80294
▁가겠습니다	-9.80345
▁아네	-9.80357
▁화장	-9.80401
▁환불해주	-9.80434
▁알죠	-9.80434
▁새꺄	-9.80456
▁그만해라	-9.80525
▁죄송하	-9.80564
▁했나	-9.80589
▁가방에	-9.80627
▁얼굴에	-9.80797
▁쓸게	-9.80931
팀	-9.80975
▁미안해요	-9.81086
▁우리는	-9.81117
▁두번	-9.81222
▁그만둬	-9.81304
▁못하겠어	-9.81382
▁따라해	-9.81405
▁임신	-9.8146
▁필요하	-9.81588
▁그쪽이	-9.81654
▁담아	-9.81679
▁맛있는	-9.8174
▁농담	-9.81782
▁예쁘	-9.81822
▁허튼	-9.81938
무	-9.81975
▁않을	-9.81999
▁말자	-9.82023
▁손을	-9.82166
▁알려	-9.82174
▁우리도	-9.82174
연	-9.82274
▁헛소리	-9.82353
▁놀려	-9.8243
▁써서	-9.8251
다니	-9.82566
▁죽여버리고	-9.82627
있어요	-9.82815
▁오겠습니다	-9.82816
▁나오지	-9.82893
▁못알아	-9.82918
▁봐야	-9.82957
▁똥	-9.83035
▁괴롭혀	-9.83097
거리	-9.83121
▁심	-9.83254
▁어디로	-9.83337
않습니다	-9.83344
▁책임	-9.83498
▁쪽	-9.83558
▁흑	-9.83589
▁주신	-9.83664
거든요	-9.8367
▁생각해봐	-9.83741
새끼	-9.83787
뇨	-9.83837
예	-9.83878
뭐야	-9.8389
성	-9.83958
간다	-9.84094
▁뚱뚱하	-9.84162
▁목숨이	-9.84187
하면서	-9.84422
▁괜찮은	-9.84446
▁성적	-9.84473
와봐	-9.84474
들고	-9.84476
▁사실이	-9.84476
▁동료	-9.84478
주려고	-9.84501
▁김선생	-9.84598
▁민수	-9.84604
▁먹으	-9.84627
▁아시죠	-9.84637
이다	-9.84644
▁부모님도	-9.84688
▁알아듣	-9.84695
▁안내	-9.84716
▁레벨	-9.8473
▁카톡	-9.84731
▁팩트	-9.84731
▁컴퓨터	-9.84746
▁휠체어	-9.84755
▁협박죄	-9.84767
▁낸	-9.84775
▁빠르	-9.84839
▁외	-9.84844
▁묻	-9.84878
▁김과장	-9.84887
▁하던	-9.849
그래그래	-9.84926
지고	-9.8493
▁각서	-9.8495
▁기간	-9.84984
▁많은데	-9.85002
▁신고하겠습니다	-9.85005
셔	-9.85023
▁고통	-9.85052
▁아메리카노	-9.85131
▁하시고	-9.85307
▁급해서	-9.85387
▁최	-9.85444
보여	-9.85452
▁결과	-9.85493
▁주변에	-9.85526
▁도와줄	-9.85566
▁꼬	-9.85573
▁무시하	-9.85603
▁맞죠	-9.85616
▁시끄럽게	-9.85617
▁했다	-9.85628
▁않는	-9.85688
놈	-9.85708
▁몸으로	-9.85775
▁천	-9.85824
▁남아서	-9.85872
▁병신아	-9.85916
▁독약	-9.85956
배	-9.85957
▁서	-9.86011
▁모르겠습니다	-9.86134
▁한데	-9.8615
▁진짜야	-9.86174
지금	-9.86186
척	-9.86187
금	-9.86256
반	-9.86283
▁애인	-9.86284
천	-9.86287
되는거지	-9.86323
▁크게	-9.86347
▁말로만	-9.86374
▁헤어지자	-9.86421
▁하면서	-9.86623
▁막내	-9.86624
▁작	-9.86626
적인	-9.86683
▁늦	-9.86714
▁갚는다	-9.8674
▁손해	-9.86746
▁속이	-9.86874
▁없으면서	-9.86892
▁많잖아	-9.86955
▁버리고	-9.86973
다는	-9.87003
▁말해봐	-9.87091
않으면	-9.87139
드려요	-9.87222
▁물어봐	-9.87311
주셨어	-9.87334
끼	-9.87378
하신	-9.87512
▁머리카락	-9.87519
케	-9.8757
▁몇번	-9.87607
▁어디에	-9.87652
▁너보다	-9.87678
▁너무하다	-9.87714
▁것만	-9.87753
글	-9.87823
▁결제	-9.87869
▁예쁜	-9.88273
▁버스	-9.88274
▁못생겼다	-9.88287
▁있으니	-9.88442
▁된다	-9.88485
▁어떻	-9.88601
▁경	-9.88676
▁고소	-9.88707
우면	-9.88742
▁이혼	-9.88935
▁되잖아요	-9.8901
랬지	-9.89019
▁거래	-9.89039
▁단	-9.89039
▁충분	-9.89211
▁남편이	-9.89384
▁너나	-9.89392
▁안좋	-9.894
워	-9.89443
르	-9.89456
▁밥이	-9.8947
▁틀린	-9.89518
생활	-9.89532
였	-9.89666
▁원하시는	-9.89702
들어	-9.89708
▁말했	-9.89775
을거야	-9.89808
▁썼	-9.89809
▁되겠	-9.89918
아니	-9.90103
난	-9.90231
▁신고해	-9.9025
▁암	-9.90413
▁특별	-9.90627
▁금	-9.90631
였어	-9.90651
▁차가	-9.90744
▁죽인다	-9.90876
▁이빨	-9.90997
▁곱게	-9.91022
▁문제집	-9.91049
더라고	-9.91076
▁쳐다봐	-9.91077
▁쪽팔려	-9.9119
▁고맙다	-9.91193
▁누군데	-9.91225
▁말대답이야	-9.91233
▁떨어지	-9.91266
▁할말	-9.91285
▁놓으	-9.91311
▁한참	-9.91361
▁떨어져	-9.91386
▁찌르	-9.91463
재	-9.91524
▁맛있게	-9.91551
▁진심	-9.9156
▁왜그러는거야	-9.91578
증	-9.91591
▁돼요	-9.91593
▁빌리자	-9.916
을텐데	-9.91644
▁때리지	-9.91662
▁사장님이	-9.91698
▁그만해줘	-9.91736
되는	-9.9175
▁나갈	-9.91858
▁말할거야	-9.91928
▁시작	-9.91947
▁가져오라고	-9.91948
▁돌아	-9.91951
▁오냐오냐	-9.91955
▁잘난	-9.91963
▁정신차리지	-9.91981
▁벗어	-9.91985
▁해오겠습니다	-9.92025
식	-9.92032
▁주제	-9.92071
▁점	-9.92074
▁내동생	-9.92119
▁죽는거	-9.92169
▁만만해	-9.92172
▁좋잖아	-9.9219
▁죽은	-9.92251
▁봐서	-9.92355
▁남은	-9.92369
한번	-9.9237
내고	-9.92404
돈으로	-9.9243
시간에	-9.92455
▁카페	-9.92464
▁느려	-9.9247
▁내놓	-9.92528
▁알았어요	-9.9262
▁구매	-9.92669
▁명품	-9.92709
▁책상	-9.92713
▁눈깔	-9.92713
같은데	-9.92739
▁박사원	-9.92763
나서	-9.92919
▁주차	-9.92951
▁보내주	-9.9302
▁팔아서	-9.9306
▁살려줄	-9.9313
▁끝	-9.93134
달	-9.93144
▁작성	-9.93232
▁하던가	-9.9327
▁마라	-9.93356
▁그랬잖아	-9.93397
▁뒤져	-9.9341
▁뛰어	-9.93411
▁선택	-9.93413
국	-9.93472
▁패	-9.93509
▁준다	-9.93511
거냐	-9.9355
▁관계	-9.93673
▁꼴보기	-9.93724
▁들었는데	-9.93741
▁이뻐	-9.93765
▁만원만	-9.93778
▁손님이	-9.93803
▁어릴	-9.93899
쳐서	-9.93943
▁말하기	-9.93946
드릴	-9.93947
▁움직이	-9.94325
▁신상	-9.94391
▁앞으로도	-9.9441
▁알려줘	-9.94443
▁부러뜨려	-9.94514
쪽으로	-9.94526
▁받으면	-9.94611
▁한잔	-9.9467
▁맛이	-9.94786
▁하시네요	-9.94835
▁잔말말	-9.94838
▁시비	-9.94901
▁가고	-9.94937
▁재미없	-9.95006
▁맛있	-9.95112
▁잔말	-9.95114
시간이	-9.95215
▁지수	-9.9545
▁타고	-9.95462
▁들리	-9.9554
▁쉬	-9.95546
▁너무해	-9.95577
▁쪼잔하	-9.95584
했으면	-9.956
▁예뻐	-9.95605
▁재수없	-9.95627
▁모양이	-9.95631
▁듣	-9.95653
▁함께	-9.95698
▁다했어	-9.9578
▁어렵	-9.958
▁힘들어서	-9.95826
▁죽이는	-9.95846
목숨만은	-9.95897
▁입은	-9.95906
▁전까지	-9.95914
▁같다	-9.96152
들한테	-9.96172
▁빌려주는	-9.96219
하느라	-9.96335
▁답답하	-9.96355
▁무리	-9.96402
러니까	-9.96452
▁제품	-9.96471
있으면	-9.96508
▁보이는	-9.96522
▁걸레	-9.96541
▁죽이	-9.96554
▁밥먹	-9.9657
▁다에요	-9.96615
▁강	-9.96622
▁복사	-9.96648
▁무사할	-9.96744
▁다니냐	-9.96749
▁장사하	-9.96763
▁생	-9.96766
▁맡겨	-9.96813
▁동기	-9.96825
▁아껴	-9.96879
아니고	-9.96929
될	-9.9695
▁있니	-9.97016
▁답답해	-9.97051
▁미안하	-9.97075
▁각오	-9.97079
▁거라	-9.97138
▁어째	-9.97163
▁아그래	-9.97311
▁걸리	-9.97418
보게	-9.97423
▁사생활	-9.97424
씬	-9.97448
▁차비	-9.97575
▁민폐	-9.97635
▁고릴라	-9.97659
▁무조건	-9.97659
▁다음부	-9.97686
▁역겨워	-9.97732
▁200	-9.97738
▁걱정마	-9.9774
▁왜그러십니까	-9.97777
노	-9.97779
배로	-9.97814
방	-9.97843
▁어쩐지	-9.9787
▁그러니깐	-9.97878
▁그렇구나	-9.97914
▁의미	-9.97934
▁이따구로	-9.97943
▁죽여줄게	-9.97959
▁몇개	-9.97967
▁축하	-9.9799
일을	-9.98034
▁얘기한	-9.9809
없는데	-9.98091
▁부족해서	-9.98128
▁지난	-9.98141
▁통화	-9.98149
▁환불해줘	-9.98176
▁놀아	-9.98247
복	-9.98293
좋게	-9.983
▁않겠습니다	-9.98342
▁여기로	-9.98356
▁불어	-9.98438
▁받은거	-9.98465
▁상관없	-9.98527
▁아이디어	-9.98555
▁헤어지자고	-9.98555
▁말대답	-9.98618
▁이쁘게	-9.98665
투	-9.98713
들이랑	-9.98719
▁사와라	-9.98746
▁도와줘	-9.98778
야겠어	-9.98851
▁저랑	-9.98872
▁사랑하는	-9.98884
▁부모님한테	-9.98936
▁잠을	-9.9894
▁행사	-9.98943
▁함	-9.98953
▁사라져	-9.98971
▁버려	-9.99049
▁가는데	-9.99085
겠지만	-9.99091
색	-9.99092
▁저를	-9.99162
▁심부름	-9.99248
▁않았어	-9.99317
▁들었	-9.99368
▁모르겠는데	-9.99435
▁하셨어요	-9.99488
같아	-9.99498
▁고쳐	-9.99578
▁다녀오	-9.9961
▁헤어질	-9.99706
▁버	-9.99848
하죠	-9.99864
▁뭐하시는	-9.99864
년아	-10.0016
▁왔는데	-10.0018
갈래	-10.0023
친	-10.0024
키	-10.0024
▁가야	-10.0027
▁말아	-10.0028
▁검사	-10.0028
들어서	-10.004
▁튀	-10.0047
▁쉬고	-10.0054
▁감	-10.0072
냥	-10.0075
▁상관이	-10.0075
▁참아	-10.0081
▁부자	-10.0086
▁못해서	-10.0089
▁작은	-10.0092
▁빌려가	-10.0094
▁값	-10.0101
▁대박	-10.0115
▁다닌다	-10.0118
▁불편	-10.014
▁머라	-10.0149
▁내고	-10.0153
▁안보이	-10.0156
본	-10.0156
▁잘못을	-10.016
▁믿을	-10.0161
▁구라	-10.0168
▁모르지	-10.0172
▁내돈	-10.0174
▁남자친구가	-10.0175
▁방해	-10.0176
▁어때서	-10.0185
▁혼자서	-10.019
▁이상하	-10.0193
▁굴	-10.0195
▁거니까	-10.0201
▁골라	-10.0216
한건데	-10.0222
▁했던	-10.0225
▁장소	-10.0231
▁더럽	-10.0233
▁다녀와	-10.0246
▁먹자	-10.0249
▁겁	-10.0251
이잖아	-10.0259
▁시켰	-10.0261
▁어쩔수	-10.0261
▁계	-10.0296
▁문자	-10.0296
▁듣지	-10.0302
▁아이들	-10.0304
▁무사하	-10.0313
▁되겠어	-10.0327
▁따위	-10.0333
태	-10.0339
▁먹게	-10.0344
▁달라는	-10.0358
▁왜그러냐	-10.0368
▁받을	-10.0372
▁생일선물	-10.0384
▁쏴	-10.0399
▁의심	-10.0399
▁주변	-10.04
응	-10.0407
거라고	-10.0416
▁봤다	-10.0434
째	-10.0436
천원	-10.0438
▁빼고	-10.0442
▁다행이	-10.0449
▁따라하지마	-10.0451
꼴	-10.0451
이가	-10.0455
원에	-10.0457
잉	-10.0467
할거	-10.0468
▁생신	-10.0468
▁환자	-10.0468
뒤룩	-10.0469
▁남친이	-10.0477
▁알겠다	-10.048
▁개인정보	-10.0482
▁처신	-10.0485
▁갚겠습니다	-10.0488
▁빌	-10.0488
▁님	-10.049
▁엄마아빠	-10.0491
▁사적인	-10.0493
▁풀어줘	-10.0496
▁말같지	-10.0496
▁죽어버릴거야	-10.05
▁끝내자	-10.05
▁평소에	-10.0501
▁상태	-10.0502
▁그렇다면	-10.0504
▁혀	-10.051
▁우습냐	-10.051
▁꿈	-10.0511
▁데려다	-10.0511
▁갔다와	-10.0514
▁세금	-10.0519
▁다른사람	-10.052
업	-10.052
▁끝이야	-10.0522
▁갔다	-10.0524
▁빌릴	-10.0528
▁강아지	-10.0528
▁어이없네	-10.0531
▁안녕히	-10.0531
▁이러지마세요	-10.0537
▁잘못했다	-10.0537
▁어딨냐	-10.0542
▁예쁘게	-10.0542
▁뽑	-10.0544
신고하기전에	-10.0545
▁우리한테	-10.0548
▁잘됐네	-10.055
▁생각합니다	-10.0552
▁십만원	-10.0556
▁생겼는데	-10.0557
▁좋아하	-10.0559
▁승	-10.0568
옷	-10.0576
이라니	-10.0578
▁알아들어	-10.0579
▁차비가	-10.058
▁돌았	-10.0582
▁능력이	-10.0587
▁용	-10.0592
▁뜻	-10.0598
▁장난이야	-10.0599
장이	-10.0603
▁기한	-10.0603
▁맘	-10.0604
▁자르	-10.061
▁반말	-10.0612
새끼야	-10.0613
돈도	-10.0617
▁아가리	-10.0628
▁성격이	-10.0629
▁만날	-10.0635
▁존재	-10.0635
▁그런거야	-10.0636
▁고등학교	-10.0636
▁말던가	-10.0639
▁길동이	-10.064
▁회장님	-10.0643
애가	-10.0652
▁여러	-10.0654
석	-10.0654
있습니다	-10.0656
▁동의	-10.0668
▁취	-10.0668
▁거래처	-10.0682
▁퍽	-10.0684
▁몇번째	-10.0685
▁소리세요	-10.0688
▁초	-10.0689
▁호	-10.0703
▁잊었	-10.0713
었어요	-10.0715
체	-10.0718
말을	-10.0724
▁공지	-10.0726
발이	-10.0726
▁말해야	-10.0733
▁진행	-10.0733
▁보네	-10.0735
▁좋냐	-10.0737
▁찢어	-10.0738
▁김사장	-10.0743
▁계세요	-10.0756
▁군	-10.0763
▁의도	-10.0766
는걸	-10.0768
▁주셔야	-10.0768
▁몸에	-10.0773
▁밖	-10.0775
▁사랑이	-10.0779
▁나와야	-10.0785
▁시키면	-10.0787
▁기어	-10.0789
▁이런걸	-10.0791
임	-10.0799
거같아	-10.08
죄송합니다	-10.0805
▁뻔	-10.0809
▁봐주	-10.0816
었으면	-10.0819
▁좋네	-10.083
▁어딨어요	-10.0832
▁산다	-10.0838
▁부탁하	-10.084
▁말한다	-10.0854
역	-10.0856
▁억울하	-10.0857
▁어우	-10.0864
▁돌려주	-10.0867
▁없던	-10.0871
▁같냐	-10.0874
▁사오	-10.0875
▁이러다	-10.088
코	-10.0885
▁생각할	-10.0896
▁끊	-10.0898
▁아닐	-10.0906
▁과장	-10.0907
줬는데	-10.0908
서라도	-10.0914
하던데	-10.0919
▁파악	-10.092
희	-10.0928
겠다는	-10.0938
▁번에	-10.0939
우야	-10.094
▁모르나	-10.0943
▁하신거	-10.0951
구네	-10.0955
▁운	-10.0961
▁당하고	-10.0963
▁못하나	-10.0965
▁사과하	-10.0971
▁건들	-10.0974
드릴께요	-10.0975
했냐	-10.0975
손으로	-10.0978
▁것들이	-10.0978
▁만나면	-10.0984
라구요	-10.0984
▁여러분	-10.0988
▁우리엄마	-10.0991
▁하실	-10.0997
▁사오라	-10.1
놈이	-10.1002
▁착하	-10.1003
▁다니는거	-10.1003
▁휴	-10.1011
▁보낸	-10.1017
을래	-10.1032
래도	-10.1037
▁민	-10.1044
▁한다는	-10.1047
▁진정하	-10.1049
▁살리고	-10.1054
▁어떡	-10.106
▁남자들	-10.1076
▁나같	-10.1077
▁문제라	-10.1079
▁용돈이	-10.1085
▁지나	-10.1087
▁칼을	-10.1087
▁화나	-10.1089
▁고졸	-10.1093
▁엄	-10.1095
▁이만	-10.1097
▁하든	-10.1099
▁거라고	-10.1099
▁만났	-10.1099
▁예의	-10.1105
안해	-10.1107
▁보냈	-10.1111
▁000	-10.1112
▁나온다	-10.1114
▁다르	-10.1118
▁그러지말	-10.1126
▁부분이	-10.1129
▁종이	-10.1132
▁좋아해	-10.1136
으니	-10.1141
급	-10.1146
▁하도록	-10.1147
였으면	-10.115
2	-10.1165
▁아이스	-10.1171
▁들을	-10.1173
▁못하네	-10.1175
▁다녀야	-10.1192
▁탓	-10.1205
나면	-10.1211
짝	-10.1214
곤	-10.1215
다면	-10.1219
새	-10.1222
▁가봐	-10.1223
▁아드님	-10.1223
▁귀찮	-10.1225
▁헤어졌	-10.123
▁그럴게	-10.1233
▁끝날	-10.1236
싫으면	-10.1237
▁쏘	-10.1238
▁아아	-10.1238
되어서	-10.1241
▁있는건	-10.1244
▁꿀꿀	-10.1246
▁갔	-10.1246
▁점장	-10.1247
▁미루	-10.1247
▁스스로	-10.1248
▁우스워	-10.1248
▁모른척	-10.1248
▁때마	-10.1249
▁한숨	-10.125
▁땡땡씨	-10.1251
▁뜯	-10.1251
▁고생	-10.1251
▁도와드릴	-10.1252
▁심하시네요	-10.1252
▁말씀드렸	-10.1255
시지	-10.1255
▁수정하겠습니다	-10.1257
▁물건이	-10.126
▁불법	-10.126
▁덕분에	-10.1264
▁다음달에	-10.1265
▁금요일	-10.127
▁규정	-10.127
있나	-10.1272
▁말투	-10.1272
▁응응	-10.1281
▁쫌	-10.1282
▁컸	-10.1285
▁이사님	-10.1287
값	-10.1289
▁냅둬	-10.1289
▁형씨	-10.1291
▁줄께	-10.1292
▁꼬마	-10.1295
▁머래	-10.1295
▁죽었다	-10.1296
▁만들어줘	-10.1297
▁지나가는	-10.1299
▁피부	-10.1304
▁데려와	-10.1304
하시죠	-10.1307
▁민수씨	-10.1311
뿐이에요	-10.1314
▁자주	-10.1317
▁해고야	-10.1319
▁범죄	-10.1322
▁자신	-10.1326
▁접	-10.1327
▁대화로	-10.1329
▁놀고	-10.1331
▁말할때	-10.1335
▁부모님께	-10.1336
했더니	-10.1337
사진	-10.1343
깐	-10.1343
▁않았나	-10.1344
▁쉬는	-10.1345
▁만나자	-10.1346
▁만드네	-10.135
▁깔	-10.1353
▁재밌어	-10.1368
됐네	-10.1372
▁지옥	-10.1374
▁늦었어	-10.1374
▁입사	-10.1376
후	-10.1378
▁좋겠네	-10.1378
▁맞는다	-10.1378
▁먹으라고	-10.1379
주는	-10.1382
▁아픈	-10.1383
한것도	-10.139
▁잘하겠습니다	-10.1399
테니	-10.1401
▁쓴다고	-10.1402
어른한테	-10.1408
▁간식	-10.1408
▁싶나	-10.1412
슬	-10.1413
할꺼야	-10.1415
▁쥐	-10.1417
▁웃기고	-10.1418
▁맞았	-10.1431
하시고	-10.1431
애들이랑	-10.1435
▁누구한테	-10.1435
▁사과를	-10.1436
▁누구랑	-10.1437
겨	-10.1442
립니다	-10.1442
▁마감	-10.1442
▁잘라	-10.1446
칠	-10.1453
▁여유	-10.1454
▁만든	-10.1458
껄	-10.146
▁해보자	-10.146
말이	-10.1461
갚으면	-10.1464
▁뭐요	-10.1465
▁일하고	-10.1466
라고요	-10.1466
▁실	-10.1466
▁살면	-10.1468
▁어른이	-10.1475
관	-10.1478
▁내려가	-10.1489
▁처	-10.1495
신가	-10.1496
이요	-10.1497
스	-10.1504
▁늦어	-10.1513
▁예민하	-10.1519
▁결혼식	-10.1521
▁없게	-10.1526
▁먹은	-10.1528
▁메	-10.153
▁소문이	-10.154
먼	-10.1548
따위로	-10.155
▁이병	-10.155
형	-10.1551
▁짧	-10.1552
했다	-10.1556
▁포기	-10.1566
▁무슨일이야	-10.1567
줬으면	-10.1576
신데	-10.1592
▁앞이	-10.1612
▁부장	-10.1613
▁생겼	-10.1615
▁식당	-10.162
▁할수	-10.1621
필	-10.1624
▁딸도	-10.1627
▁후에	-10.1629
▁안했는데	-10.163
하도록	-10.1641
▁계약	-10.1646
껏	-10.1646
▁이름이	-10.1646
▁낮	-10.1649
대들어	-10.1652
▁갈게요	-10.1657
▁중요하	-10.1663
▁저거	-10.1671
▁걷는	-10.1673
만원에	-10.1674
▁경찰이	-10.1682
▁합의	-10.1682
▁이대로	-10.1692
▁안되서	-10.1692
텐	-10.1692
▁안되겠어	-10.1701
▁그딴	-10.1702
▁영수증	-10.1704
▁불만	-10.1706
▁먹는거	-10.1706
▁말하는거	-10.1713
▁환불해	-10.1721
철	-10.1727
자리에서	-10.1734
간다고	-10.1738
▁때리고	-10.174
▁만들어줄	-10.1746
자가	-10.1756
둔	-10.1758
정이	-10.1759
벌	-10.1764
▁가방이	-10.1769
직	-10.1775
런식으로	-10.1776
▁타와	-10.1777
▁놀다	-10.1783
▁왜그러	-10.1789
▁나눠	-10.1792
짜	-10.18
▁못한	-10.1802
▁못가	-10.1808
사람이	-10.1814
▁건강	-10.182
왔어	-10.1833
▁장난감	-10.184
▁천만원	-10.1841
▁작작	-10.1842
▁체육	-10.1855
▁났어	-10.1861
고요	-10.187
곳으로	-10.1872
▁감정	-10.1882
▁만나는	-10.1884
감	-10.1885
왔	-10.1891
있냐	-10.1892
▁건물	-10.1898
립	-10.1906
▁수준	-10.1912
▁다른거	-10.1913
▁방법이	-10.1917
볼게	-10.1919
원이	-10.1923
▁올라	-10.1924
▁인질	-10.1929
▁죽여버릴	-10.1938
겠네요	-10.1943
입	-10.195
▁주기	-10.1951
▁못쓰	-10.1958
두고	-10.196
▁심하신	-10.1961
지를	-10.1961
▁안나오	-10.1979
드려	-10.1998
천만원	-10.1999
▁만만하	-10.2003
▁혼나	-10.2008
▁마실	-10.2013
▁더러운	-10.2013
▁신장	-10.2021
▁이놈	-10.2031
먹어서	-10.2035
▁몸매	-10.2038
▁자랑	-10.2045
▁옛날	-10.2046
봤어	-10.2048
테니깐	-10.2057
▁입사한	-10.2064
▁양심	-10.207
▁뒷	-10.2071
▁쫙	-10.2071
▁춤	-10.2071
▁풉	-10.2071
▁훨	-10.2071
웩	-10.2071
▁깡패	-10.2071
▁꾸미	-10.2071
▁일부	-10.2076
▁교수님	-10.2081
▁압니다	-10.2081
▁지방대	-10.2081
▁내버려둬	-10.2082
▁탈	-10.2082
▁유치원	-10.2082
밥	-10.2082
▁전화번호	-10.2084
▁돕고	-10.2084
▁고통스럽	-10.2084
▁잘쓸게	-10.2084
▁연애	-10.2086
▁못생겨서	-10.2087
▁평	-10.2088
▁잘못했는지	-10.209
▁계좌번호	-10.2093
▁비번	-10.2094
▁환장했	-10.2094
▁반성	-10.2095
보지	-10.2096
▁너무하시네요	-10.2099
▁언	-10.21
▁저번주에	-10.2104
▁어처	-10.2104
말이지	-10.2105
▁얼	-10.2106
▁힘든데	-10.211
▁남들	-10.2116
▁가져갈게	-10.2116
▁땀	-10.2118
▁설명	-10.2119
아닌데	-10.212
▁휘	-10.2121
▁들어와	-10.2123
알지	-10.2125
▁모습	-10.2125
▁급	-10.2125
▁우습	-10.2126
될까요	-10.2126
▁평가	-10.2128
▁뭐하	-10.2128
▁신고한다	-10.2133
▁적어도	-10.2134
▁구해와	-10.2138
▁범죄야	-10.2142
물	-10.2143
▁했을	-10.2145
▁재수가	-10.2145
▁차에	-10.2146
▁며칠만	-10.2146
것이지	-10.2148
▁기분나쁘	-10.2155
하다가	-10.2158
▁싶습니다	-10.2162
생각	-10.2165
▁사줄게	-10.2166
▁그만큼	-10.2167
▁퇴근하고	-10.217
나본데	-10.217
▁그런적	-10.2171
▁보여주	-10.2171
▁웃어	-10.2175
▁살이	-10.2175
▁죽이지	-10.2178
▁상관인데	-10.2182
▁연락처	-10.2183
셨	-10.2193
▁생겼냐	-10.22
▁사람들한테	-10.2202
▁한명	-10.2202
어야지	-10.2202
▁불편해서	-10.221
▁들어와서	-10.2213
▁되고	-10.2218
▁올해	-10.2219
▁갑시다	-10.2233
▁복	-10.2235
▁찾아봐	-10.2236
▁쳐다보	-10.2241
▁감당	-10.2242
▁꺼져라	-10.2242
▁할일이	-10.2243
▁뒤진다	-10.2244
▁마셔	-10.2249
▁동생이	-10.2252
▁녹음	-10.2254
▁믿어줘	-10.2255
▁해볼까	-10.2255
▁죄송하다고	-10.2256
▁줬	-10.2256
▁보고싶어	-10.2268
▁우리딸	-10.2269
▁했어야지	-10.2269
▁하나하나	-10.2273
▁통장	-10.2275
▁그만하고	-10.2284
▁거기에	-10.2293
▁애기	-10.2293
같아서	-10.2298
▁인기	-10.2298
주제에	-10.2301
▁화가	-10.2304
▁채	-10.2307
▁알면서	-10.2311
▁지원	-10.2311
▁떨	-10.2312
한게	-10.2313
▁먹지	-10.2314
▁흠	-10.2318
▁듣는	-10.2318
▁짐	-10.2319
▁친구한테	-10.233
▁있던데	-10.2333
▁힘드	-10.2334
▁오해야	-10.234
▁오빠랑	-10.2343
고싶어	-10.2343
▁계신	-10.2345
위	-10.2356
▁환불이	-10.2356
▁듯	-10.2358
▁있나봐	-10.236
▁인생이	-10.2361
▁있었는데	-10.2361
▁중요하지	-10.2365
▁그렇잖아	-10.2366
▁적게	-10.2367
▁없애	-10.2371
▁놓	-10.2373
▁한국	-10.2374
▁하는건데	-10.2375
▁취업	-10.2384
▁하기로	-10.2386
▁하더라	-10.2392
▁죽든	-10.2401
나봐요	-10.2408
▁못줘	-10.2411
▁높	-10.2414
▁놀러	-10.2421
▁받기	-10.2425
을때	-10.2429
▁든	-10.2432
▁촬영	-10.2436
▁못사	-10.2438
아야	-10.244
산	-10.2441
▁참고	-10.2443
버릴까	-10.245
헤	-10.2456
▁정당	-10.2459
▁하아	-10.2459
▁별거	-10.2461
▁있으신가	-10.2466
처리	-10.2469
▁어제도	-10.2471
았어	-10.2471
▁통	-10.2481
▁텐데	-10.2485
▁하지마세요	-10.2493
▁가능하	-10.2495
▁착각	-10.2501
▁찾아서	-10.2507
▁반지	-10.2508
▁보이네	-10.2512
잇	-10.2515
이리	-10.2519
▁알아라	-10.252
▁답	-10.2531
보네	-10.2532
성이	-10.2534
▁보다	-10.2536
▁가자고	-10.2537
니까요	-10.2541
되	-10.2543
님이	-10.2546
▁팀장	-10.2546
다시	-10.255
▁해드리겠습니다	-10.2551
▁못하겠다	-10.2564
▁해고	-10.2571
▁사이에	-10.2574
▁머리카락이	-10.2574
▁수정해	-10.258
▁죽게	-10.2592
▁보상	-10.2596
▁넘어	-10.2601
▁다니기	-10.2602
▁길이	-10.2606
▁나가고	-10.2607
하겠어	-10.2626
시네요	-10.2629
▁들어간	-10.2632
▁있었어	-10.2638
▁11	-10.2641
▁달에	-10.2647
있지	-10.2648
화	-10.2648
▁끊어	-10.2652
▁버리	-10.2665
일로	-10.2672
▁서울	-10.2674
▁말씀해주시	-10.2682
난리야	-10.2685
▁질	-10.2689
뒤로	-10.2692
같은건	-10.2693
▁웃으면	-10.2699
▁큰일	-10.27
▁느	-10.2707
▁모른	-10.2708
▁웃기다	-10.271
졌어	-10.2711
▁갚아야	-10.2713
▁갖다	-10.2718
들을	-10.2719
▁되냐	-10.2725
▁진짜에요	-10.2738
▁가장	-10.2738
1	-10.2748
▁남았	-10.275
왔냐	-10.2755
▁먹었어	-10.2758
▁주라고	-10.2758
▁걸린	-10.2759
▁다니고	-10.2762
본데	-10.2766
▁스	-10.2766
▁그걸로	-10.2767
▁팬	-10.2769
▁온거	-10.2771
▁용서	-10.2779
▁부족한	-10.2781
먹어	-10.2796
절	-10.2798
▁계정	-10.2799
▁오후	-10.2804
▁기다리	-10.2814
▁오백	-10.282
▁짤리고	-10.2836
써	-10.2844
▁웃	-10.2845
다구요	-10.2864
해줄게	-10.287
▁휴가가	-10.2874
▁당해	-10.2878
▁참석	-10.2879
될거야	-10.2879
▁도	-10.2881
▁다치	-10.2889
▁먹었	-10.2896
릅니다	-10.2902
▁진심이	-10.2902
▁있으신	-10.2914
▁그럴리가	-10.2915
▁사회	-10.2916
▁창고	-10.2918
▁키워	-10.2919
▁만드	-10.2921
▁이야	-10.293
▁변명	-10.2945
류	-10.2947
▁은행	-10.2949
▁웃긴	-10.295
가자	-10.2954
▁모르면	-10.2957
다보니	-10.2959
▁뒷담	-10.2969
▁학생들	-10.2971
▁어깨	-10.2974
▁되니	-10.2975
으면서	-10.2978
▁첫	-10.298
▁리뷰	-10.298
▁외모	-10.2981
보겠습니다	-10.2981
▁아까워	-10.2982
시켜	-10.2985
▁15	-10.2986
▁융통성	-10.2988
▁조만간	-10.2988
▁아버님	-10.2989
▁데이터	-10.2989
▁수행평가	-10.299
▁일어날	-10.2991
▁김비서	-10.2992
▁좋은말할때	-10.2992
▁주둥이	-10.2993
▁지나간다	-10.2993
▁지현씨	-10.2993
▁성과	-10.2994
▁김인턴	-10.2994
▁비워	-10.2995
▁없었	-10.2995
▁드렸	-10.2999
▁용서해주세요	-10.3
▁웃기지마	-10.3001
▁부럽다	-10.3003
▁수학	-10.3004
▁뒤지기	-10.3004
▁어울린다	-10.3004
▁음료수	-10.3004
약	-10.301
▁받으	-10.3011
▁신고할꺼야	-10.3011
먹으면	-10.3013
▁소개시켜	-10.3016
영	-10.3018
▁옮겨	-10.3024
▁무슨말씀이신	-10.3029
▁이것들이	-10.3029
3	-10.3029
▁진정하시고	-10.303
법	-10.3032
자마	-10.3034
▁건드려	-10.3035
▁만만하냐	-10.3037
▁죽였	-10.3039
▁피아노	-10.3041
▁찌른다	-10.3041
▁죽고싶	-10.3043
▁심한거	-10.3048
▁마지막으로	-10.3049
▁뭐라는거야	-10.305
▁죽고싶지	-10.3055
▁안통하네	-10.3056
▁학력	-10.3059
종	-10.3062
▁무시하냐	-10.3063
▁자세	-10.3064
▁아주머니	-10.3065
▁노래	-10.3066
▁예전에	-10.3067
▁졸라	-10.3068
▁의사	-10.3069
▁가야하는데	-10.307
▁성의	-10.3072
▁부탁드려요	-10.3074
▁집안에	-10.3075
▁가져올게	-10.3077
▁기억나	-10.3079
▁옷차림	-10.3091
▁공개	-10.3092
회	-10.3095
▁않은데	-10.3095
▁아까워서	-10.3095
▁막혀	-10.3097
▁도시락	-10.3097
머리	-10.31
줘야	-10.31
▁편의점에	-10.3109
▁뛰	-10.3109
▁인상	-10.311
▁고민	-10.3111
▁있었네	-10.3112
▁김씨	-10.3123
▁짧은	-10.3124
▁알았지	-10.3129
린다	-10.3132
▁단가	-10.3133
▁누군	-10.3136
▁재산	-10.3136
▁미쳤네	-10.3139
▁하루에	-10.3139
▁어른	-10.3145
▁사다	-10.3147
▁엉	-10.3147
▁힘들다고	-10.3147
동생	-10.3149
▁쓰지	-10.3149
▁벼	-10.3151
▁되겠다	-10.3151
▁방에	-10.3153
▁칭찬	-10.3164
▁파일	-10.3165
▁성희롱	-10.3168
▁좋겠어요	-10.3173
▁치료	-10.3175
▁무서워서	-10.3182
▁해야할	-10.3185
▁불편해	-10.3189
있는거	-10.3197
▁됐다고	-10.32
조차	-10.3204
▁회	-10.3206
▁떨어진	-10.3207
▁가져올	-10.321
김	-10.3211
▁가져왔	-10.3213
▁생각하면	-10.3217
▁무시해	-10.322
것좀	-10.3226
없어서	-10.3229
▁힘든	-10.323
▁아직까지	-10.3231
▁배워	-10.3232
▁내말이	-10.3235
▁했니	-10.3237
만한	-10.3238
▁말에	-10.3245
진다	-10.3247
테	-10.3247
준건데	-10.3258
▁나올때	-10.326
▁날이	-10.3273
프	-10.3285
▁불구	-10.3287
▁씹	-10.3287
▁정리하	-10.3296
스러운	-10.3298
▁뿌려	-10.3299
가면	-10.33
▁점심시간	-10.3305
▁해주셔야	-10.3306
▁중에	-10.3312
▁죽어버리	-10.3312
▁가져가면	-10.3315
병	-10.3319
▁날짜	-10.3321
▁무릎	-10.3323
▁받았어	-10.3325
▁제출	-10.3329
▁드리면	-10.3329
▁털	-10.3331
▁도와	-10.3334
셨잖아	-10.3343
▁말했어	-10.3344
다니냐	-10.3344
▁중간	-10.3345
▁분들	-10.335
▁인턴	-10.3351
▁살자	-10.3352
▁아가씨가	-10.3354
줬어	-10.3359
울	-10.3364
하셔서	-10.3364
▁기억이	-10.3368
▁사냐	-10.3371
▁까	-10.3371
것은	-10.3378
▁모아	-10.3386
▁하겠	-10.3402
계	-10.3404
▁고맙	-10.3413
▁끼	-10.342
▁입금하	-10.3425
▁궁금하	-10.3432
▁이런데	-10.3432
▁깨	-10.3433
같습니다	-10.3435
▁의원님	-10.3436
▁직원이	-10.3439
설	-10.344
학년	-10.3456
▁풀어주	-10.3457
▁많다	-10.3458
▁받지	-10.3462
▁퇴근시간	-10.3462
신거	-10.3464
▁냈	-10.3466
▁안나	-10.3469
것같은데	-10.3482
▁먼	-10.3486
▁하시	-10.3487
▁어떡할	-10.3492
▁몇년	-10.3492
▁녀석	-10.3504
▁주의	-10.3505
▁정확	-10.3507
▁너에게	-10.3507
▁놈아	-10.3509
▁갈거야	-10.3515
▁살려주	-10.3516
그렇게	-10.352
▁협박하는거	-10.352
▁가려고	-10.3531
▁레	-10.3533
▁정대리	-10.3545
▁둔	-10.3547
▁나좀	-10.3549
▁크크	-10.3556
▁나라	-10.356
▁대한	-10.3565
나와	-10.3575
▁내라고	-10.3577
할게	-10.3588
▁졸업	-10.3598
▁후배	-10.3602
▁말했잖아	-10.3606
▁테니까	-10.361
▁업체	-10.3615
와라	-10.3623
▁자식들	-10.3625
▁어쩌려	-10.3632
고싶냐	-10.3638
▁틀린말	-10.3643
▁미친것	-10.3644
▁추	-10.3646
▁카페에	-10.3649
▁차별	-10.3651
▁신입사원	-10.3653
▁물론	-10.3653
▁만난	-10.3655
사원	-10.3656
제발	-10.3658
▁반응	-10.3667
▁취급	-10.3667
▁할건데	-10.367
일인데	-10.3693
야해	-10.3693
▁나름	-10.3693
▁슬	-10.37
▁만나고	-10.3714
▁친구랑	-10.3715
▁과장님이	-10.3716
▁명령	-10.3719
▁안드	-10.372
박	-10.3722
▁이자식	-10.3723
▁위한	-10.3723
▁불쾌	-10.3727
뭐	-10.3734
▁찾아오	-10.3734
▁될거	-10.3736
▁옷만	-10.3737
▁뿐	-10.3758
▁따님	-10.3771
▁사주	-10.3778
바로	-10.3782
▁내놓으	-10.3787
▁뒤지고	-10.3788
▁봐줘야	-10.3793
▁꼬리	-10.3798
▁음식이	-10.3802
▁작성해	-10.3811
▁가봐야	-10.3811
▁쓴다	-10.3811
▁동물	-10.3828
왔네	-10.3829
려나	-10.3837
▁모르겠지	-10.3837
르면	-10.3837
▁책임지	-10.3846
▁자릿세	-10.3851
▁보내고	-10.3854
▁잘됐	-10.3857
▁언젠	-10.3858
▁그러나	-10.386
▁어디다	-10.3861
▁일하	-10.3862
▁골프	-10.3871
▁적은	-10.3875
▁있으시	-10.3877
일만	-10.3885
▁밝	-10.3886
▁모르겠네	-10.3888
▁업	-10.3897
픈데	-10.39
▁찍은	-10.3901
람	-10.3902
되나	-10.3903
▁가격	-10.3905
▁내려놓으	-10.3909
▁하겠다	-10.3922
▁원하	-10.3922
럼	-10.3923
▁못한다	-10.3933
▁도둑	-10.3933
▁가족들이	-10.3933
했던	-10.3937
없다	-10.3944
▁부탁이	-10.3947
▁평소	-10.3951
▁신고하기	-10.3951
▁지난번	-10.3953
실까	-10.3957
▁못차렸	-10.3962
▁뇌	-10.3965
낳고	-10.3966
몰라	-10.3968
▁되었	-10.3969
▁빚	-10.3977
▁떡볶이	-10.398
▁인수인계	-10.398
▁콱	-10.398
넨	-10.398
▁콩팥	-10.398
▁삼백	-10.398
▁싸구려	-10.398
▁교환	-10.398
▁가정교육	-10.398
▁헛소문	-10.398
▁택배	-10.398
▁명심해	-10.398
▁직업	-10.398
▁로미씨	-10.3981
▁노래방	-10.3981
겨워	-10.3981
▁비상금	-10.3981
▁훔친	-10.3981
▁월세	-10.3982
▁지혜	-10.3982
▁상처	-10.3982
▁영희씨	-10.3983
▁손녀	-10.3984
▁뚱뚱한	-10.3984
▁이따위	-10.3984
처	-10.3984
▁담임	-10.3984
▁밤길	-10.3985
▁공간	-10.3988
▁근처에	-10.3989
▁묶어	-10.399
더라구	-10.3991
▁치료비	-10.3991
▁대리님이	-10.3991
▁질문	-10.3991
▁어떠	-10.3992
▁주의하겠습니다	-10.3993
▁너무하십니다	-10.3996
▁사람인데	-10.3996
▁다녀오겠습니다	-10.3998
▁난쟁이	-10.3999
▁문열어	-10.4
▁민주씨	-10.4001
니가	-10.4005
▁얼만데	-10.4006
▁사줬어	-10.4008
▁찌를	-10.4008
▁환자분	-10.4009
▁사회에	-10.401
▁어떨까	-10.4014
▁헤어지고	-10.4024
▁수진씨	-10.4025
▁꽉	-10.4026
▁누구신데	-10.4027
▁옥상	-10.4028
▁어쨌다	-10.403
▁못차렸네	-10.4035
▁내려놓고	-10.4037
▁빌려줄래	-10.4037
▁눈알	-10.4039
▁센스	-10.4041
▁예정	-10.4042
▁과외	-10.4042
▁면목	-10.4043
▁당신들	-10.4044
▁보내줄	-10.4046
▁멋대로	-10.4046
▁미래	-10.4046
▁불쌍한	-10.4047
▁궁금하지	-10.4048
▁건드리지마	-10.4048
▁월요일	-10.405
▁배신하	-10.4052
▁이자식이	-10.4053
▁아시잖아요	-10.4054
있네	-10.4056
▁경찰한테	-10.4057
▁호구	-10.4057
▁실력	-10.4058
▁친한	-10.4062
▁매점	-10.4065
▁본사	-10.4075
▁생겼네	-10.4077
됐다	-10.4079
▁친구들이	-10.408
▁그럴수	-10.4081
▁후회할	-10.4082
파	-10.4082
▁주먹	-10.4084
▁정현	-10.4087
▁없을까	-10.4089
▁특	-10.4091
▁인성	-10.4095
▁현실	-10.4103
▁신고합니다	-10.4106
▁있긴	-10.4107
▁해결하	-10.411
▁계약서	-10.4119
▁못해줘	-10.4119
있어서	-10.412
▁높은	-10.4123
▁출장	-10.4124
▁빌려줄게	-10.4131
▁차리지	-10.4131
▁얼마있냐	-10.4131
▁안되겠	-10.4132
▁가져와라	-10.4136
독	-10.4137
▁해달라	-10.4138
▁너밖에	-10.414
▁오지마	-10.4141
▁시끄러워서	-10.4141
▁짓이	-10.4141
▁금고	-10.4147
▁생겼다	-10.4147
▁에	-10.4152
▁해드릴	-10.4152
오세요	-10.4153
싸게	-10.4157
▁펜	-10.4157
▁부터	-10.4158
▁힘이	-10.4165
▁약속있어	-10.4176
▁돈주고	-10.4176
▁지키	-10.4179
▁너무하세요	-10.418
▁가시죠	-10.418
쓰면	-10.4184
▁말했는데	-10.4185
아니에요	-10.4186
▁오천원	-10.4186
▁나왔어	-10.4187
▁해야하는	-10.4189
▁해주라	-10.419
▁입어보	-10.4191
▁드린	-10.4195
▁신기	-10.4197
▁어쩌다	-10.4201
▁하하하	-10.4207
▁답답해서	-10.4208
▁최고	-10.4211
▁여자랑	-10.4212
▁협박하는	-10.4219
▁입어	-10.4226
▁서운하	-10.4226
▁증거있어	-10.4229
▁가려	-10.4231
▁치우	-10.4231
▁다니는데	-10.4232
▁차리	-10.4234
쪽이	-10.4236
▁기본	-10.4256
▁여자들	-10.4257
▁번째야	-10.4261
▁삭제해	-10.4263
▁같네요	-10.4264
그래도	-10.4271
▁필요하신	-10.4274
품	-10.4282
▁뺏	-10.4284
▁취소해	-10.4289
▁나오라고	-10.4289
▁예예	-10.429
▁잘하	-10.4291
▁산다고	-10.4293
는것	-10.4297
▁제정신	-10.4298
▁미친새끼	-10.4299
▁능력도	-10.4303
▁걸렸	-10.4311
났어	-10.4311
일에	-10.4313
▁가는거	-10.4313
▁그말	-10.4313
▁아니거든	-10.4317
▁저새끼	-10.4318
▁미팅	-10.4331
▁박스	-10.4337
▁뼈	-10.4344
▁입으로	-10.4355
▁미쳐	-10.4355
▁말대로	-10.4359
▁모시	-10.4372
자식	-10.4377
하긴	-10.4386
왔다고	-10.4395
▁우리팀	-10.4399
▁차로	-10.4401
학교	-10.4401
▁푸	-10.4403
▁멀쩡한	-10.4404
▁몇살이	-10.4407
▁늦었	-10.4414
▁알아야	-10.4414
죽어	-10.4415
▁해보	-10.4422
▁잘할게	-10.4431
▁사주신	-10.4434
▁따라가	-10.4434
▁앉	-10.4439
▁우리집에	-10.4442
▁벌점	-10.4443
▁아깝	-10.4444
▁느끼	-10.4445
죽고	-10.4447
없으면	-10.4448
▁재수	-10.4449
해보겠습니다	-10.4455
▁두개	-10.4458
▁생일이	-10.4459
▁논	-10.446
잡	-10.4472
관리	-10.4475
▁작아	-10.4475
없고	-10.4478
▁목숨만	-10.448
▁김주임	-10.4488
커	-10.4489
▁사진이	-10.4489
▁오라면	-10.4489
▁회사일	-10.4493
▁정해	-10.4496
쇼	-10.4498
▁찐따새끼	-10.4499
과장	-10.4511
▁가져왔어	-10.4514
▁봐주면	-10.4529
하는건	-10.4537
좋다는게	-10.4539
▁경찰서	-10.4546
는거에요	-10.4548
▁싫은	-10.4549
▁나쁘다	-10.4553
▁남아	-10.4563
▁알바생	-10.4564
▁하셨는데	-10.4567
▁못하겠	-10.4572
▁입이	-10.4576
▁오셨	-10.4578
▁후회	-10.4588
▁가정	-10.4603
▁썼어	-10.4604
▁다물	-10.4612
는다고	-10.4636
이란	-10.464
▁봤나	-10.4643
▁관	-10.4643
▁많은거	-10.4647
▁않네	-10.4647
▁보낼	-10.4648
▁넘기	-10.4662
말로	-10.4663
지말라고	-10.4666
▁살았	-10.4669
▁헤어지는	-10.467
▁말한거	-10.4674
▁부족하	-10.4674
▁재미있	-10.4675
▁못하냐	-10.4677
▁끄	-10.4681
▁싶네	-10.4684
▁거짓말이	-10.4689
▁가져간	-10.4689
▁될지	-10.4692
▁경찰서에	-10.4704
▁무섭다	-10.4705
▁계시	-10.4706
▁면상	-10.4707
▁치는	-10.472
▁싫다는	-10.4721
▁모르네	-10.4727
▁무시하는	-10.4738
▁갖고와	-10.4739
▁알아서해	-10.4739
▁장난하는	-10.4743
▁못생기	-10.4745
▁독	-10.4748
▁대단하	-10.4756
▁세상이	-10.4775
볼게요	-10.4776
아아악	-10.478
▁늦은	-10.478
▁나무	-10.4783
▁참여	-10.4783
▁여깄	-10.4796
▁교	-10.4801
하셨	-10.481
▁삼촌	-10.4815
▁싸우	-10.4821
돼지	-10.4822
▁인터넷	-10.483
▁보여줘	-10.4831
▁보내라	-10.4845
돼서	-10.4854
▁생각해보	-10.4859
▁소문났	-10.486
장님	-10.4861
하실	-10.4866
▁처리해	-10.4869
▁들어왔	-10.4872
▁훔쳐	-10.4891
▁부탁한다	-10.4893
합시	-10.4898
▁뺏어	-10.49
▁끝난	-10.4912
▁홀	-10.4917
▁얘기하	-10.4922
되지	-10.4925
▁던져	-10.4925
되어	-10.494
▁불만이	-10.4943
군요	-10.4949
▁그지	-10.4954
받아서	-10.4956
타서	-10.4957
▁사줘	-10.4972
▁대들	-10.4974
▁인사평가	-10.4976
▁매니저	-10.4978
있게	-10.4985
▁유명	-10.4991
▁형아	-10.4992
아요	-10.4998
드리고	-10.5007
같은거	-10.501
▁주시	-10.5014
▁죽여버리겠다	-10.5014
▁아끼는	-10.5015
▁하지마라	-10.5017
▁마찬가지	-10.5018
즈	-10.5018
▁알고있	-10.5033
▁판	-10.5043
이라서	-10.5044
▁당하	-10.5059
라구	-10.5061
▁장난이	-10.5066
▁신체	-10.5069
▁공짜	-10.5069
▁백	-10.5069
▁뿐인	-10.5072
▁곳이	-10.5072
▁내놓을	-10.5078
▁배려	-10.5081
텨	-10.5091
문	-10.5091
뭡	-10.5091
▁땅콩	-10.5091
▁엉덩이	-10.5091
▁아이패드	-10.5091
▁오징어	-10.5091
▁임산부	-10.5091
▁틴트	-10.5091
겐	-10.5091
땜	-10.5091
쩜	-10.5091
톱	-10.5091
단말야	-10.5091
▁오타쿠	-10.5091
▁덩치	-10.5091
▁가만안둬	-10.5091
▁여드름	-10.5091
▁모텔	-10.5091
▁소개팅	-10.5091
▁빠른	-10.5091
▁신규	-10.5092
▁지나치시네요	-10.5092
▁쳐박혀	-10.5092
▁외근	-10.5092
▁채워	-10.5092
▁토요일	-10.5092
▁뜨겁	-10.5092
▁강인턴	-10.5093
▁지연씨	-10.5093
▁살려주십시오	-10.5093
▁결국	-10.5093
▁취미	-10.5095
▁둘째	-10.5096
▁나머지	-10.5096
▁반반	-10.5097
▁가끔	-10.5097
▁까라면	-10.5098
팔	-10.5098
▁성질	-10.5098
▁기획	-10.51
▁퍼	-10.51
▁우리누나	-10.5101
▁들어야	-10.5101
▁그깟	-10.5103
▁요금제	-10.5104
었	-10.5104
▁이러십니까	-10.5104
▁어려우	-10.5105
▁정규직	-10.5106
▁일하러	-10.5106
▁믿어주세요	-10.5107
▁벗어봐	-10.5108
▁미주	-10.5113
▁공짜로	-10.5116
▁생활비	-10.5117
▁우리아빠	-10.5119
▁쌍수	-10.5121
▁말해서	-10.5121
▁바뀌	-10.5121
▁쌍	-10.5121
▁없으세요	-10.5122
▁우습게	-10.5126
▁우리가족	-10.5127
▁지워줘	-10.5127
▁갚을께	-10.5132
▁청소부	-10.5132
껀데	-10.5133
▁부끄럽지	-10.5134
▁끌고	-10.5134
▁침해	-10.5137
▁뺐	-10.5138
▁왜그러는데	-10.5138
▁마약	-10.5141
▁담배피	-10.5142
▁과자	-10.5143
▁과제	-10.5145
빼고	-10.5146
▁쓰겠습니다	-10.5148
▁만화	-10.515
▁셔틀	-10.5152
▁쓰려고	-10.5152
▁대드는	-10.5153
▁잘났	-10.5154
▁가난하	-10.5155
▁학교생활	-10.5156
▁부모한테	-10.5158
▁드라마	-10.5161
▁책임질	-10.5164
▁들어갈	-10.5164
▁정보가	-10.5164
▁아끼	-10.5165
▁지겹다	-10.5166
▁떨어졌	-10.5166
▁국밥	-10.5169
▁권리	-10.5174
▁붙여	-10.5174
▁칠	-10.5178
▁알겠냐	-10.5182
▁기계	-10.5185
▁밀리	-10.5189
▁미안합니다	-10.5194
▁준비하고	-10.5196
▁한쪽	-10.5197
▁이번달에	-10.5198
▁행동하	-10.5198
▁합의금	-10.5202
▁점심시간에	-10.5206
▁억지	-10.521
▁확인해	-10.5213
▁민지	-10.5214
할께	-10.5214
▁편하	-10.5219
▁웅	-10.5224
▁못알아듣	-10.5227
단말이야	-10.5232
▁잘해라	-10.5233
▁죽여버릴꺼야	-10.5234
▁다녀라	-10.5236
▁어쩔래	-10.5237
▁생각하는	-10.5237
▁들으	-10.5243
▁푼	-10.5247
▁찬	-10.5249
▁안줬잖아	-10.525
▁갈아	-10.5254
▁지능	-10.5256
▁안둬	-10.5257
▁유지	-10.5259
▁머리에	-10.5259
▁마시	-10.5263
다는데	-10.5264
▁오늘이	-10.5265
▁섭섭하	-10.5267
▁폭행	-10.5267
▁모가지	-10.527
줘봐	-10.5271
▁마저	-10.5276
▁청	-10.5281
▁있다는	-10.5281
▁어디있어요	-10.5282
쪽에서	-10.529
▁빠진	-10.5292
▁엉망이	-10.5293
▁해주는	-10.5295
▁나이에	-10.5295
▁뵈는	-10.5295
▁이사람이	-10.5296
▁먹여	-10.5297
족	-10.5297
▁안가져오	-10.53
▁윤	-10.5302
▁발전	-10.5304
▁축하해	-10.5305
▁저에게	-10.5305
▁죽어야지	-10.5306
▁초등학교	-10.5308
▁생길	-10.5313
▁됐잖아	-10.5314
▁잡종	-10.5317
▁어울려	-10.5323
물이	-10.5327
▁죄송해	-10.5329
▁해봐라	-10.5331
▁않았는데	-10.5332
못해	-10.5334
▁김대리님	-10.5336
▁아마	-10.5344
▁뜨고	-10.5344
친구	-10.5346
▁상관없어	-10.5349
▁자체가	-10.5353
▁양보	-10.5354
▁안된	-10.5359
▁똑같아	-10.5359
▁멀쩡하	-10.5365
▁폭력	-10.537
▁남편은	-10.5371
▁가야해	-10.5378
으시면	-10.5384
시네	-10.5388
막	-10.5394
▁뚱뚱해	-10.5398
▁모양	-10.5406
▁힘들것	-10.5421
▁실적	-10.5421
▁보기만	-10.5425
▁요번	-10.5426
▁쓰레기야	-10.543
▁지르	-10.5431
▁그럴까	-10.5431
▁남았는데	-10.5431
▁지각	-10.5435
됩니다	-10.5443
▁났	-10.5447
▁무슨말이	-10.5448
▁해결해	-10.5449
▁하고싶은	-10.5452
▁한시간	-10.5452
유가	-10.5453
▁혼자만	-10.5453
영씨	-10.5456
▁40	-10.5463
못	-10.5463
▁안들	-10.5463
을까	-10.5465
▁거리	-10.5466
▁육아휴직	-10.5467
▁만들어서	-10.547
▁태어나	-10.5471
▁구멍	-10.5473
▁잃을	-10.5474
▁잘못이지	-10.5475
▁성공	-10.5476
▁등	-10.5479
▁형님이	-10.5481
▁싫다면	-10.5482
▁편지	-10.5485
▁놀라	-10.5485
▁돌려준다	-10.5487
▁안좋은	-10.5488
▁자전거	-10.549
▁그돈	-10.5492
▁죽이면	-10.5493
▁계산해	-10.5495
▁나에게	-10.5496
▁것들	-10.5499
▁다시한번	-10.5504
▁가주세요	-10.5506
▁퇴사하	-10.5507
▁줬다	-10.5511
▁스타일	-10.5512
주지	-10.5514
▁불가능	-10.5521
사이에	-10.5526
▁윗사람	-10.5527
▁너무하네	-10.5529
겟	-10.5535
남	-10.554
▁고파	-10.554
못했습니다	-10.5542
▁멀쩡	-10.5543
있고	-10.5544
▁술먹	-10.5547
▁먹어요	-10.555
▁곳에서	-10.5558
▁커피를	-10.556
▁일에	-10.5565
▁못봤어	-10.5567
근	-10.557
▁믿지	-10.5574
죄	-10.5575
▁할지	-10.5581
▁훼손	-10.5584
가는	-10.5584
힐	-10.5589
▁다닌	-10.5598
▁밀어	-10.5598
▁잘했다	-10.5609
할수	-10.5613
▁먹어봐	-10.5614
포	-10.5634
듣네	-10.5634
▁놀리는거	-10.5635
▁있겠	-10.5636
이거	-10.5636
끝나고	-10.564
▁배고프다	-10.565
▁쪽팔리	-10.565
▁말씀해	-10.5655
했는지	-10.5658
올	-10.5663
▁전화해	-10.5672
▁아프다	-10.5674
인턴	-10.5675
크	-10.5676
▁바라	-10.5681
왔지	-10.5683
마시면	-10.5697
▁팀에	-10.5698
▁지랄이	-10.5698
5	-10.5701
브	-10.5702
욱	-10.5703
▁일이라	-10.5703
뿐만	-10.5712
말자	-10.5721
▁감시	-10.5721
눈	-10.5722
열	-10.5725
돌	-10.5728
▁나가봐	-10.573
▁소개	-10.5733
채	-10.5736
▁헤	-10.5741
▁배고프	-10.5744
▁신랑	-10.575
▁안한다	-10.5752
▁찍었	-10.5754
잘	-10.5754
▁이러시는	-10.5755
▁걱정되	-10.5757
길동	-10.5765
▁그런지	-10.5766
대신	-10.577
▁다녀왔	-10.5773
해서요	-10.5775
▁만나기	-10.5781
▁죽여봐	-10.5789
대요	-10.5791
▁연예인	-10.5792
▁들어갔	-10.5793
▁빠졌	-10.5794
나오면	-10.5801
▁매장	-10.5806
▁니네집	-10.5806
▁말씀하시	-10.5809
리로	-10.581
무가	-10.5813
▁시작이	-10.5816
▁기절	-10.5821
▁화내	-10.5822
▁해킹	-10.583
하다고	-10.5837
본다	-10.5839
▁자리가	-10.5845
▁뭣	-10.5847
▁됐는데	-10.5859
▁위험하	-10.5859
▁해서요	-10.586
오늘	-10.586
▁친구로	-10.5872
▁생일이라	-10.5872
▁달려	-10.5874
▁물을	-10.5874
▁무시	-10.588
▁못하지	-10.5886
▁굶	-10.5886
겠습니까	-10.5889
▁보자고	-10.589
으러	-10.5891
▁말해주	-10.5893
녀석이	-10.5896
▁변	-10.5898
했네	-10.5901
▁째	-10.5904
느	-10.5911
▁안하지	-10.5912
▁인스타	-10.5912
▁왜그러시	-10.592
▁말해줘야	-10.5925
▁야이	-10.593
▁짜	-10.5931
▁헤어지자는	-10.5932
억이	-10.5932
▁다쳐	-10.5934
오고	-10.5937
▁한대씩	-10.5938
▁확인해보	-10.5939
▁마련해	-10.5947
인가봐	-10.5952
▁수밖에	-10.5952
▁없네요	-10.5952
▁하셔야	-10.5956
▁의지	-10.5967
▁늙어	-10.5968
▁하려	-10.5973
▁죽지	-10.5973
사장님	-10.5974
▁없으시	-10.5975
▁살고싶	-10.5976
됩니까	-10.5981
▁영업	-10.5982
▁똑바로해	-10.5987
▁하게	-10.5989
▁커피가	-10.5993
▁벗	-10.5997
▁싫어서	-10.5999
▁붙어	-10.6
▁불쾌해	-10.6
▁정색	-10.6011
▁하신	-10.6022
할까	-10.6024
친다	-10.6025
▁없거든	-10.6026
▁0	-10.603
▁달렸	-10.6042
▁올리는	-10.605
▁지시	-10.6058
▁손가락이	-10.606
▁왠	-10.6061
하거든	-10.6061
▁죽여버리기	-10.6065
▁답답	-10.6073
▁학생이	-10.6074
버리기전에	-10.609
▁아무말	-10.6092
▁식사	-10.6094
은거	-10.6096
▁숨어	-10.6101
▁질러	-10.6103
▁갈까	-10.6109
▁잘못했나	-10.611
▁직장이	-10.6117
엄마	-10.6127
▁죽여버릴거	-10.6127
▁그렇긴한	-10.6137
▁조용	-10.6137
▁아니고요	-10.6141
▁맞네	-10.6146
운데	-10.615
보이는데	-10.6154
▁12	-10.6157
이상	-10.6158
▁월급이	-10.6161
따라	-10.6167
▁폭탄	-10.6184
기나	-10.6207
▁폐	-10.6213
▁죽으라	-10.6218
▁찌질하	-10.6232
내면	-10.6234
▁바지	-10.6237
▁할테니	-10.6237
▁죽어버릴	-10.6244
▁타는	-10.6248
녀	-10.625
▁그렇다	-10.6255
▁올릴	-10.6256
난다	-10.6258
▁5000	-10.6258
▁기다려주	-10.6261
▁붙	-10.6261
▁따뜻한	-10.6273
▁이러는거	-10.6273
▁부족해	-10.6277
서야	-10.6278
▁웃기지	-10.6278
▁뭘로	-10.6287
알았는데	-10.6295
▁들어온거	-10.6298
▁받아가	-10.6299
▁말아야	-10.63
▁아래	-10.6301
생각하지마	-10.6305
▁닫	-10.6306
해드리겠습니다	-10.6314
▁하라	-10.6314
▁거다	-10.6315
▁하란	-10.6318
▁음료	-10.632
련	-10.6323
▁앞으	-10.6325
▁게이	-10.6329
갔어	-10.6333
▁데리러	-10.6335
▁태	-10.6337
▁녹	-10.6339
▁명심하겠습니다	-10.6341
▁양아치	-10.6341
▁어쨋	-10.6341
▁오토바이	-10.6341
▁카메라	-10.6341
▁벙어리	-10.6341
▁꺄악	-10.6341
▁교통사고	-10.6341
▁인사고과	-10.6341
▁선택권	-10.6342
▁뜨거운	-10.6342
▁겁대가리	-10.6342
▁관련	-10.6342
▁패딩	-10.6342
▁단체	-10.6342
▁은혜	-10.6342
▁기본적인	-10.6342
▁밀린	-10.6343
▁사이즈	-10.6343
▁여러번	-10.6344
뒤집어	-10.6344
▁강제	-10.6346
▁입다물	-10.6346
▁욕심	-10.6346
▁이번주말에	-10.6346
▁선임	-10.6347
▁괴롭히지마	-10.6348
▁조심하겠습니다	-10.6348
▁쳐맞기	-10.6348
▁민철씨	-10.6348
▁맞아볼래	-10.6349
▁보자보자	-10.635
▁감사해요	-10.635
▁돌려줘야해	-10.6352
▁남이	-10.6353
▁아이스크림	-10.6353
▁윗분들	-10.6353
▁알았으니까	-10.6355
▁기어오르네	-10.6356
▁맡긴	-10.6356
▁노인	-10.6358
▁수행	-10.6358
▁아무거나	-10.636
▁세차	-10.6361
▁마련	-10.6362
▁수술비	-10.6367
▁억지로	-10.6369
▁사과해주세요	-10.637
▁인사팀	-10.637
는거잖아	-10.6372
안하고	-10.6372
▁풀어주세요	-10.6375
▁경력	-10.6376
▁괜찮지	-10.6376
▁지쳤어	-10.6376
▁안둘거야	-10.6379
버려야	-10.6381
▁민지씨	-10.6382
▁잊지	-10.6388
▁그따위	-10.6394
▁빌렸	-10.6395
▁예민해	-10.6395
▁따라하지	-10.6396
▁임원	-10.6396
▁내리라고	-10.6397
▁기대해	-10.6399
▁구해볼게	-10.6401
디어	-10.6401
▁빽	-10.6406
▁잤	-10.6406
▁삶	-10.6406
▁탔	-10.6406
▁일해	-10.6406
▁보여줄게	-10.6408
▁위험해	-10.6408
▁담당	-10.6409
▁모금	-10.6409
▁니돈으로	-10.641
▁나빴	-10.6411
▁모자라	-10.6412
▁모임	-10.6415
▁좋았잖아	-10.6416
▁마누라	-10.6417
▁안들려	-10.6423
▁사다줘	-10.6427
▁남자애들	-10.6431
▁따져	-10.6433
▁일러	-10.6435
▁협박이	-10.6438
▁그만하	-10.644
푸	-10.6442
▁김치	-10.6444
▁근거	-10.6444
▁낳	-10.6444
▁죽었어	-10.6447
▁그만좀해	-10.6448
▁오기전에	-10.6449
놈아	-10.645
▁일병	-10.6451
▁나오는데	-10.6459
군데	-10.6459
▁좋아보이	-10.6462
▁근무시간	-10.6464
▁지났는데	-10.6464
▁해줬	-10.6465
▁빈	-10.6467
▁주임님	-10.6468
▁아픈데	-10.6468
▁가리고	-10.6469
▁먼지	-10.6469
낙	-10.647
▁받으려고	-10.6474
▁이래라	-10.6476
▁한대다	-10.6478
▁했네	-10.6478
▁움직여	-10.6481
어머	-10.6484
▁느낌이	-10.6486
▁역겨	-10.6486
▁채용	-10.6487
▁아닐까	-10.6488
▁어디가냐	-10.6488
▁그러지마세요	-10.6493
▁바꿀	-10.6494
▁사준거	-10.6494
다고요	-10.6495
▁뿌린	-10.6496
▁행동으로	-10.6496
▁어쩌냐	-10.6498
했고	-10.65
▁더이상은	-10.6503
▁입는	-10.6507
다니고	-10.6508
▁미스	-10.6512
▁멋있	-10.6513
거라	-10.6514
▁어떤거	-10.6519
▁나가는	-10.6522
▁만점	-10.6524
▁그러는거	-10.6524
▁진행하	-10.6528
▁냄새난다	-10.653
▁그런줄	-10.6532
되는데	-10.6532
▁가족까지	-10.6532
▁누군가	-10.6541
▁판단해	-10.6543
▁퇴근할	-10.6546
▁망하	-10.6547
▁뒤질	-10.6548
저래라	-10.6552
▁기부	-10.6553
▁도망가	-10.6556
▁곳에	-10.6556
▁핫	-10.6558
▁안되나요	-10.6558
▁기다려봐	-10.656
▁나간	-10.6562
길동아	-10.6569
▁불편한	-10.6572
▁그러긴	-10.6578
눈치도	-10.6579
▁다쳤	-10.6581
▁말았어야	-10.6584
하자고	-10.6585
▁뜨	-10.6586
▁집구석에	-10.6587
▁사먹을	-10.6587
▁그만좀	-10.6592
▁결정	-10.6595
▁짖	-10.6602
▁안대리	-10.6602
▁않다	-10.6602
▁범죄자	-10.6606
▁재수없어	-10.6611
▁떨어져서	-10.6617
▁신경써	-10.6623
▁않지	-10.6624
▁알게	-10.663
▁백원	-10.663
▁볼까	-10.663
▁하던지	-10.6644
▁친해	-10.6651
▁이런식이	-10.6654
▁어디까지	-10.6657
▁턱	-10.6658
▁자유	-10.6662
프로	-10.6663
▁안되어	-10.6663
▁이쁘고	-10.6668
▁쑤셔	-10.6668
▁그렇긴	-10.6684
하러	-10.6686
둘	-10.6699
▁말아요	-10.67
▁들어왔어	-10.6715
▁찾아와	-10.6715
▁되기	-10.6716
오겠습니다	-10.6716
퍼	-10.6719
▁출근시간	-10.672
▁맞으	-10.6721
▁부탁인데	-10.6723
▁지냈	-10.6726
▁사귀는	-10.6728
▁성기	-10.6728
▁도망	-10.6729
아니냐	-10.673
▁그랬는데	-10.6738
▁말해줘	-10.6738
▁일이신	-10.674
▁수준이	-10.674
▁니같은	-10.6746
▁생긴거	-10.675
▁드는	-10.6755
돈이	-10.6759
▁일인데	-10.676
버리기	-10.6761
▁있을거야	-10.6762
▁빌려준	-10.6762
정말	-10.6766
▁입었	-10.6766
00	-10.6768
▁확인하	-10.6781
딸한테	-10.6783
레	-10.6784
▁그럴거	-10.6788
▁쓰게	-10.6789
▁자격이	-10.6792
▁불러와	-10.6794
▁꼴을	-10.6808
▁껴	-10.6811
▁친구사이	-10.6813
여자	-10.6818
▁곤란해	-10.6819
▁대단한	-10.682
▁등록금	-10.6821
빌려줘	-10.6824
▁분질러	-10.6825
▁뿌리	-10.6826
▁회식도	-10.6829
▁어머님이	-10.6833
▁띄	-10.6836
▁거절	-10.6849
▁달만	-10.6855
시키	-10.6862
▁없죠	-10.687
▁닦아	-10.6877
봐야지	-10.6878
번호	-10.6882
▁대박이	-10.6883
▁이사	-10.6885
리지	-10.6886
▁소릴	-10.6889
▁거지냐	-10.69
쓰	-10.69
▁같으니	-10.6901
▁거짓말을	-10.6908
▁하늘	-10.6909
가게	-10.6916
▁찾았	-10.6921
하시는	-10.6922
▁사인	-10.6922
그냥	-10.6926
았는데	-10.6931
▁도와줬	-10.6936
▁각	-10.6941
▁가려서	-10.6943
▁부셔	-10.6944
드시	-10.6946
▁사귀	-10.6951
▁립스틱	-10.6956
낸다	-10.6961
▁생리	-10.6963
▁부리	-10.6965
라는거야	-10.6965
버려	-10.697
▁보라고	-10.6973
내놓지	-10.6994
▁돈인데	-10.6995
아악	-10.7002
▁하는지	-10.7004
▁거슬리	-10.7005
▁결혼한	-10.701
▁사준	-10.701
▁적어	-10.7013
▁쌤	-10.7014
잖	-10.7019
▁찾으	-10.7023
▁협박하	-10.7028
▁했나요	-10.7031
만들어와	-10.7034
▁뻔뻔한	-10.7039
▁말할게	-10.7039
된다고	-10.7045
따구로	-10.7057
▁정도가	-10.7059
▁닮	-10.7059
탕	-10.706
▁것보다	-10.706
풀	-10.7067
▁차리겠	-10.7069
루	-10.7073
시기에	-10.7078
갑니다	-10.7084
상태	-10.7085
▁여기있어	-10.7087
▁얘네	-10.7106
▁사람으로	-10.7112
▁용기	-10.7114
▁성형	-10.7119
윽	-10.7122
낼	-10.7135
▁이를	-10.7136
뒀	-10.7146
▁하다	-10.7148
▁조져	-10.715
▁갔는데	-10.7151
야해요	-10.7157
▁너와	-10.7159
리는	-10.7162
강	-10.7164
▁달고	-10.7167
▁보시	-10.7169
▁안되면	-10.7172
혈	-10.7176
있잖아	-10.7177
▁처리하	-10.7179
주는게	-10.7183
▁갚으	-10.719
▁가져갔	-10.7197
끼고	-10.72
말야	-10.7203
▁색	-10.7209
지면	-10.7209
취	-10.7212
▁매점가	-10.7214
▁살빼	-10.7218
해줄테니까	-10.7224
▁개만	-10.7227
▁조건	-10.7227
▁써와	-10.7231
▁깜빡	-10.7235
▁날아	-10.7237
던거	-10.7237
▁정신적	-10.7242
▁발라	-10.7243
주셨	-10.7265
▁제사	-10.7265
▁생겨	-10.7275
▁그런걸	-10.7282
머	-10.7282
▁헛	-10.7287
집에	-10.7288
▁집중	-10.7302
▁구경	-10.7307
▁거짓말하지	-10.7309
▁나갔	-10.7315
▁처방	-10.7321
었지	-10.7323
한건	-10.7323
▁찔리	-10.7326
▁터지	-10.733
▁스타일이	-10.7336
▁드릴께요	-10.7337
▁뭐하자는	-10.7342
없네	-10.7346
▁걔네	-10.7349
한다니까	-10.7356
▁빼라	-10.7369
▁해놔	-10.737
하나요	-10.737
아닌가요	-10.7373
▁줬는데	-10.738
▁안경	-10.7384
▁요구	-10.7385
▁부른	-10.7387
▁대표	-10.7391
▁취직	-10.7392
▁설치	-10.7397
버릴테니까	-10.7398
▁빠	-10.74
▁입에	-10.7403
▁남겨	-10.7405
▁살살	-10.7421
▁있냐고	-10.7421
▁일해야	-10.7422
좋아서	-10.7429
시잖아요	-10.7429
▁우리반	-10.7431
▁체크	-10.7437
으세요	-10.7437
▁고객이	-10.7438
▁차이	-10.744
▁전학	-10.744
기에	-10.7445
▁냄새나는	-10.7451
▁머냐	-10.7456
▁긁	-10.7457
▁생각한	-10.7463
▁한건데	-10.7467
이라는	-10.7469
▁귀엽	-10.7483
▁봤지	-10.749
▁다해	-10.7493
▁가짜	-10.7495
▁죽고싶나	-10.7497
▁협박하시는	-10.7503
애들	-10.7504
▁어디있	-10.7505
봐서	-10.7508
▁안받	-10.7508
▁공장	-10.7509
▁저희집	-10.7514
▁고의	-10.7517
▁따라오	-10.7518
▁어울릴	-10.7535
▁해줘야	-10.7538
▁준거	-10.7542
됐는데	-10.7545
▁니새끼	-10.7553
▁일좀	-10.7555
▁않으	-10.7556
▁얼마가	-10.7557
▁안되잖아	-10.7561
▁크지	-10.7562
▁탕비실	-10.7565
▁말인가	-10.7565
봐봐	-10.7572
▁간이	-10.7574
▁못했어	-10.7578
▁쉬어	-10.7582
▁재형	-10.7584
▁가게에	-10.759
란말이	-10.7591
▁내차	-10.76
▁난다	-10.7602
▁사랑하	-10.7602
▁누워	-10.761
회사	-10.7615
▁올라가	-10.7618
럽게	-10.7622
▁모은	-10.7624
▁비해	-10.7632
있다	-10.7633
오는	-10.7636
책	-10.7643
▁난리	-10.7651
▁따르	-10.7654
▁해준	-10.7656
▁읽	-10.7663
▁오세요	-10.7673
▁오늘만	-10.7673
▁남을	-10.7674
맞	-10.7679
▁끝이	-10.7682
라는거	-10.7686
▁티내	-10.7689
▁윗	-10.769
일도	-10.7694
▁조심할게	-10.77
▁구해올게	-10.7704
보이	-10.7707
▁보겠습니다	-10.7713
▁기준	-10.7714
명이	-10.7715
▁얻	-10.7715
▁취소	-10.7715
▁알려줄	-10.7715
▁직장생활	-10.7722
▁못봤	-10.7728
▁하나가	-10.7736
▁쫄	-10.7739
▁소름	-10.774
▁완료	-10.7756
번째	-10.776
▁기억해	-10.776
쁜데	-10.776
▁전교	-10.7767
▁선생	-10.7767
▁출	-10.7767
딩	-10.7768
▁잡았	-10.7769
▁강냉이	-10.777
▁애플워치	-10.777
▁왤	-10.777
▁컴플레인	-10.777
▁틱장애	-10.777
▁프리셉터	-10.777
뿔	-10.777
쵸	-10.777
킥	-10.777
햐	-10.777
▁괴롭힘	-10.777
▁젓가락	-10.777
▁블로그	-10.777
▁조퇴	-10.777
▁파스타	-10.777
▁희정씨	-10.777
▁귓구멍	-10.777
▁원숭이	-10.777
▁오른쪽	-10.777
▁사은품	-10.777
▁부딪혔	-10.777
▁단무지	-10.777
▁싹싹	-10.777
▁봉투	-10.777
▁고백했다	-10.777
▁설탕	-10.777
▁지하철	-10.777
▁싸이코	-10.777
▁우울증	-10.777
▁치킨	-10.777
▁미리미리	-10.777
▁발가락	-10.777
▁미스김	-10.777
▁학교폭력	-10.777
▁비겁	-10.777
▁학벌	-10.7771
▁교복	-10.7771
▁태어난	-10.7771
▁무슨말씀이	-10.7771
▁24	-10.7771
▁험한	-10.7771
▁직무	-10.7771
▁살려주십쇼	-10.7771
▁대기업	-10.7771
▁바나나	-10.7771
▁버티	-10.7772
▁현재	-10.7772
▁강매	-10.7772
▁더듬	-10.7772
▁저번달에	-10.7772
▁단순	-10.7773
▁말씀드린	-10.7773
▁눈치껏	-10.7774
▁쥐도새	-10.7774
▁점장님	-10.7775
▁한율이	-10.7775
▁유난	-10.7777
▁죽여버릴테니까	-10.7778
▁고치겠습니다	-10.7778
▁시체	-10.7778
▁허구한	-10.7778
▁코끼리	-10.7778
▁지친다	-10.7779
▁영원	-10.778
▁아이폰	-10.7781
시니	-10.7783
▁공사	-10.7783
탱이	-10.7783
▁못헤어져	-10.7784
▁손모가지	-10.7784
▁양해	-10.7785
▁민선씨	-10.7786
▁외국인	-10.7786
지경이	-10.7787
▁언론에	-10.7787
▁챙겨	-10.7788
▁이럴수	-10.7788
▁너무하신거	-10.7788
▁뒷담화	-10.7788
해와	-10.7789
▁안할테니	-10.7789
▁새벽에	-10.7793
▁관두	-10.7793
▁상담원	-10.7794
▁과장이	-10.7794
▁과장님께서	-10.7795
▁친하게	-10.7795
▁보호자	-10.7795
▁지나치신	-10.7797
▁잡일	-10.7798
▁얼만	-10.78
▁많으니까	-10.7801
▁무서우	-10.7805
▁알려주시	-10.7805
▁보낼게요	-10.7806
▁억	-10.7806
▁가질	-10.7808
▁하루종일	-10.781
▁우리오빠	-10.7812
▁진실	-10.7813
▁아깝다	-10.7813
▁여기있습니다	-10.7814
▁싸워	-10.7815
▁그지새끼	-10.7815
▁안들었어	-10.7815
▁만족해	-10.7816
▁개빡치	-10.7819
▁기대할게	-10.782
▁일루와	-10.7823
▁즐기	-10.7823
▁즉	-10.7825
▁취소할게	-10.7828
▁할만큼	-10.7829
▁눌러	-10.7829
▁선약이	-10.7834
▁올려놔	-10.7837
술	-10.7838
▁붙잡	-10.7838
▁어르신	-10.7848
▁그런거아니야	-10.785
▁면접	-10.785
▁챙기	-10.785
업체	-10.7851
▁키웠	-10.7851
▁이어폰	-10.7854
▁괴롭힐	-10.7854
▁장학금	-10.7854
▁번쩍	-10.7854
▁그래픽	-10.7854
▁봅시다	-10.7854
▁허리	-10.7856
하셔	-10.7856
▁없는건가	-10.7856
▁하루이틀	-10.7856
▁나이든	-10.7857
▁콜라	-10.7857
▁지나치십니다	-10.7859
똑똑히	-10.7865
▁쓸데	-10.7867
수밖에	-10.7871
▁이것만	-10.7872
▁신경쓰	-10.7874
▁좋겠냐	-10.7877
▁모른다고	-10.7879
달아	-10.788
▁책임자	-10.7883
▁그림	-10.7883
▁달아	-10.7883
▁피곤해	-10.7884
▁살지마	-10.7885
▁싼	-10.7888
▁오기	-10.7889
▁퍼뜨리	-10.789
▁이기적이네	-10.7891
▁가격이	-10.7893
전까지	-10.7894
시겠다	-10.7895
▁거지같	-10.7896
▁피곤해서	-10.7898
▁미친놈이	-10.7899
▁증	-10.7901
▁온다	-10.7903
▁메뉴	-10.7903
▁첨	-10.7907
소리야	-10.7908
▁소름끼	-10.7909
▁구하기	-10.7911
▁어떤가	-10.7914
▁별일	-10.7917
▁기본이	-10.7919
▁동기들	-10.7921
▁사왔어	-10.7923
▁쓰레기통에	-10.7924
▁같던데	-10.7925
▁가시	-10.7925
▁드리는	-10.7929
▁뻔하	-10.7931
▁필요하다	-10.7932
▁어느정도	-10.7932
교	-10.7936
▁못들어	-10.7939
▁영어	-10.7939
▁가기	-10.7939
▁예진이	-10.794
▁반찬	-10.7942
해줬더니	-10.7943
▁오줌	-10.7945
▁처음에	-10.7946
▁일하기	-10.7948
▁내말에	-10.7949
▁감자	-10.795
된거야	-10.7953
▁쥐도	-10.7953
▁죽이러	-10.7954
▁의식	-10.7954
▁정성	-10.7955
▁죽을거야	-10.7958
됐어	-10.7958
▁죽인다고	-10.7959
▁그만해주세요	-10.7961
진아	-10.7961
▁살인자	-10.7962
▁잡치	-10.7962
▁어렵나	-10.7962
▁병원에서	-10.7963
▁지나치	-10.7965
른다	-10.7967
▁사건	-10.7967
▁가져가세요	-10.797
▁이대리님	-10.7971
▁건너	-10.7972
▁자자	-10.7973
▁전체	-10.7978
▁가능할	-10.7982
▁가던	-10.7986
▁가난	-10.7986
이렇게	-10.7987
층	-10.7996
냈어	-10.8005
▁되어있어	-10.8006
▁쓰라고	-10.8013
▁걸어서	-10.8013
▁급이	-10.8014
▁고기	-10.8015
▁다음달	-10.802
▁재밌게	-10.8021
▁오랜만이네	-10.8022
▁당해봐	-10.8024
▁찍었어	-10.8025
녕	-10.8027
타	-10.803
▁화장도	-10.803
▁알겠네	-10.8031
▁카드로	-10.8033
▁빨라	-10.8033
한지	-10.8033
▁어려워서	-10.8034
그러냐	-10.8034
▁담주	-10.8035
▁나오지마	-10.8038
▁어울리지	-10.8038
▁다니라고	-10.8045
키로	-10.8051
업무	-10.8053
▁주실	-10.8062
▁보는데	-10.8062
▁주워	-10.8064
▁착한	-10.8065
▁외국	-10.8078
등급이	-10.8079
▁선물받은	-10.808
▁걸렸다	-10.8084
▁때려봐	-10.8088
▁안해줘	-10.8092
▁남자랑	-10.8093
▁마셔서	-10.8094
▁못나가	-10.8095
지않나	-10.8096
▁안와	-10.8098
▁알았네	-10.8099
▁지났어	-10.8103
▁돼서	-10.8103
▁소리하	-10.8103
▁닮은	-10.8104
▁얘기했다	-10.8106
▁지내고	-10.8107
▁옮	-10.8108
▁눈도	-10.8109
였는데	-10.8115
▁부르지	-10.8116
▁뭐긴	-10.8122
▁오만원	-10.8146
▁준다니까	-10.8147
▁뭐예요	-10.8148
▁깨지	-10.8154
▁상자	-10.8158
▁삼	-10.8163
▁대표님	-10.8163
▁거지같은	-10.8163
▁정상	-10.8165
보니	-10.8167
▁근	-10.8172
쯤	-10.8174
▁맡아	-10.8178
▁서있어	-10.8179
추	-10.8179
▁이러는거야	-10.8182
▁아무일	-10.8186
신지	-10.8188
너무	-10.8189
▁알아야지	-10.8189
▁심해서	-10.8198
▁뜻이	-10.82
▁봐줄	-10.8204
▁감방	-10.8204
속에	-10.8204
일세	-10.8208
▁골	-10.821
▁내리	-10.821
▁창피하	-10.8213
▁댁	-10.823
▁먹을까	-10.8236
▁뽑았	-10.8241
▁안되는게	-10.8243
▁장애인이라	-10.8244
력	-10.8245
▁비싼거	-10.8246
▁이기적이	-10.8258
▁한국에	-10.826
예의가	-10.8262
▁헛소리하지	-10.8262
번이	-10.8264
▁보태	-10.827
▁한건	-10.8276
▁당할	-10.8278
▁갔어	-10.8281
▁시킨거	-10.8281
▁형들	-10.8286
볼	-10.8286
▁시키지	-10.829
▁얼마전	-10.8291
▁노력해	-10.8293
가져와	-10.8297
▁알기	-10.8297
▁먹기	-10.8297
▁이길	-10.8301
▁드렸는데	-10.8307
로써	-10.8307
▁연가	-10.8309
알	-10.8311
열어봐	-10.8311
▁애한테	-10.8311
▁느껴	-10.8314
▁나오냐	-10.8316
▁라면	-10.832
받아	-10.8323
▁많고	-10.8325
▁감옥에	-10.8327
▁퇴근을	-10.8328
호박	-10.8331
▁다시해	-10.8334
▁끝낼	-10.8335
▁안보내	-10.8341
▁내일이	-10.8342
판에	-10.8347
우리	-10.8347
죽여	-10.8351
▁자연	-10.8355
많아	-10.8356
▁돌아서	-10.8358
▁출근하	-10.8358
▁생각하는데	-10.8364
▁집어	-10.8364
십쇼	-10.8366
▁생각나	-10.837
▁조리	-10.8377
▁허가	-10.8379
▁부탁한	-10.8381
▁고모	-10.8385
▁진지	-10.8385
▁올렸	-10.839
▁섞	-10.8392
주십시오	-10.8394
▁보는거	-10.8394
▁누구냐	-10.8406
▁쉬어야	-10.8411
▁밑	-10.8411
물어	-10.8415
▁뿐이	-10.8423
▁피곤하	-10.8426
릴거야	-10.8427
▁뒤져봐	-10.8427
▁뿌	-10.8428
▁속도	-10.8429
▁데려	-10.8432
▁돌아와	-10.8434
▁뽑아서	-10.8442
셨죠	-10.8444
▁지장	-10.8448
▁약을	-10.8459
▁먹어야	-10.8463
▁인간이	-10.8474
▁끝내야	-10.8475
▁죄송하다면	-10.8477
▁있을지	-10.8479
▁임신이	-10.8479
▁피해가	-10.8481
▁배신	-10.8483
▁양	-10.8483
▁화를	-10.8488
▁살았어	-10.8491
갈게	-10.8494
▁기술	-10.85
▁주셨	-10.85
▁배운	-10.8506
▁말대꾸하	-10.8512
얘기	-10.8516
▁괴롭히지	-10.8527
▁어쩌지	-10.8529
▁보인다	-10.853
▁죽여버리	-10.8536
만에	-10.8544
▁데려오	-10.8545
▁불편하다	-10.8553
▁사유	-10.8553
▁가요	-10.8573
▁타오	-10.8578
▁애비	-10.8587
▁못믿	-10.859
▁치지	-10.8592
▁쓰는데	-10.8592
▁자기들	-10.8595
▁깝치	-10.8596
▁개소리	-10.86
▁착	-10.8613
거같은데	-10.8614
하시네요	-10.8626
▁이거봐	-10.8626
▁먹은거	-10.8635
▁안좋아해	-10.8635
빼	-10.8637
▁가도	-10.8643
▁도장	-10.8649
▁우리애	-10.8655
편	-10.8655
▁거지라	-10.8662
▁지갑이	-10.8663
▁노숙자	-10.8666
말에	-10.8668
▁영지	-10.8672
▁역할	-10.8678
▁비키라	-10.868
▁어쩔수없	-10.8682
▁대출	-10.8689
▁해야해	-10.8691
▁좋겠	-10.8701
▁안나와	-10.8713
넘어가	-10.8713
▁하는건	-10.8713
▁창피해	-10.8714
진씨	-10.8714
▁빌리는	-10.8715
▁자살했	-10.8717
▁출발	-10.8717
▁중국	-10.8719
▁있다가	-10.8719
말만	-10.8722
듭니다	-10.8727
▁않는다	-10.8731
▁찍을	-10.8732
▁계산하	-10.8734
▁썼다	-10.8735
▁규칙	-10.8738
쌤	-10.8746
▁넣었	-10.8749
뜨	-10.8763
▁옮기	-10.8765
▁맡기	-10.8768
라면서	-10.8774
▁새끼를	-10.8775
▁그야	-10.8782
골	-10.8792
돈이에요	-10.8793
검사	-10.8793
▁말이라고	-10.8794
시킨	-10.8797
학과	-10.88
▁들어가는	-10.8806
행	-10.8808
명씩	-10.8814
▁맞냐	-10.8821
▁마치	-10.8821
▁때가	-10.8825
였잖아	-10.8829
▁할인	-10.883
▁됬	-10.8836
뼈	-10.8838
계세요	-10.8843
텅	-10.8844
없구나	-10.8849
드린	-10.8851
▁쓰는건	-10.8859
불	-10.8859
놓으	-10.8859
▁꺼지	-10.886
앞에서	-10.8861
▁보태주	-10.8863
▁등산	-10.8867
들에게	-10.8867
▁만나러	-10.8868
▁음식에	-10.8871
▁지인	-10.8871
▁경고	-10.8873
점이	-10.8879
하시는거	-10.888
있니	-10.8887
이름	-10.889
▁못들었	-10.8891
▁백만원	-10.8897
▁퇴근해	-10.8897
운다	-10.89
▁멍청해	-10.8904
▁죽어버려	-10.8912
빌려주면	-10.8919
▁연락하지	-10.8928
▁알고있어	-10.8929
었다고	-10.893
▁나오시	-10.8939
▁않아서	-10.8941
▁배웠	-10.8949
질이	-10.8956
께요	-10.8958
▁프로젝트에	-10.8961
치기	-10.8964
학	-10.8968
주의	-10.8983
▁들어오지	-10.8984
▁돌아다니	-10.8987
▁이상하다	-10.8988
▁내야	-10.8991
▁줬으면	-10.8994
▁잊	-10.8997
심한	-10.9003
▁했으니	-10.9004
▁입맛	-10.9004
▁뿌릴	-10.9004
▁위치	-10.9006
▁투	-10.9012
▁묻는	-10.9016
셨는데	-10.9019
▁워	-10.9021
▁어쩐	-10.9022
▁중이	-10.9026
셨다면	-10.9033
▁기대	-10.9033
▁안됐	-10.9033
탄	-10.904
되잖아	-10.9041
잡아	-10.9041
었나	-10.9044
했나봐	-10.9046
알고	-10.9046
▁신청	-10.905
▁할것	-10.9054
▁폼	-10.9074
▁상대	-10.9079
라는데	-10.9081
놨	-10.9091
원씩	-10.9097
안했어	-10.9097
▁여동생	-10.9099
락	-10.9099
▁손님들	-10.91
▁끌어	-10.9107
▁하겠어	-10.9107
▁쳐먹	-10.911
▁갖	-10.911
렸잖아	-10.9114
▁안전	-10.9121
▁닦	-10.9125
▁신입들	-10.9129
▁입사하	-10.9129
▁걸릴	-10.9133
▁안갚았잖	-10.9138
▁유출되	-10.9149
▁내눈	-10.9154
살이	-10.9161
죽겠	-10.9166
▁베	-10.9168
▁월	-10.9174
▁유출	-10.9176
▁두달	-10.9177
▁이해해	-10.9182
달라	-10.9187
▁별이	-10.9194
온거	-10.9202
▁말랬	-10.9211
▁기억하	-10.9218
나는	-10.9227
썼어	-10.9231
▁내에	-10.9233
▁재수없는	-10.9235
▁하느라	-10.9242
▁여친이	-10.9243
▁놀러가	-10.9251
갈거야	-10.9253
▁쓸모	-10.9257
▁돈없는	-10.9258
닌	-10.926
▁용서해	-10.926
▁기스	-10.9263
▁자살	-10.9266
욕은	-10.9273
없	-10.9281
나가	-10.9282
실거에요	-10.9294
▁나오라	-10.9305
▁없으	-10.9316
▁보여줄	-10.9318
▁일하는거	-10.9322
▁늦으	-10.9322
▁않겠	-10.9329
하시	-10.9336
던데요	-10.9336
▁보내는	-10.9338
▁의	-10.9338
▁들어주	-10.9342
었잖아	-10.9343
▁민우	-10.9353
▁흉내	-10.9356
▁상품	-10.9357
▁옥상에	-10.9359
션	-10.9363
없지	-10.9367
▁이미지	-10.9367
죽	-10.9369
분들	-10.9372
으로도	-10.9373
▁알았다	-10.9382
▁계셔	-10.9383
지않아	-10.9391
▁아닌것	-10.9402
오든	-10.9409
▁박과장	-10.9409
드리는	-10.9411
▁꽂	-10.942
졌	-10.942
▁질질	-10.9423
해주	-10.9423
린다고	-10.9424
▁선생님께	-10.9425
▁큰돈	-10.9427
쩍	-10.943
콘	-10.9431
▁삐	-10.9432
▁빡	-10.9434
▁영희	-10.9435
▁개그우먼	-10.9437
▁교무실	-10.9437
▁귀머거리	-10.9437
▁김마리씨	-10.9437
▁몽둥이	-10.9437
▁바이러스	-10.9437
▁버틸	-10.9437
▁비트코인	-10.9437
▁샌드위치	-10.9437
▁쐬	-10.9437
▁앵무새	-10.9437
▁원피스	-10.9437
▁웬	-10.9437
▁자격지심	-10.9437
젤	-10.9437
컥	-10.9437
▁사귈	-10.9437
▁호텔	-10.9437
▁리뷰이벤트	-10.9437
▁조부장	-10.9437
▁창문	-10.9437
▁염산	-10.9437
▁자격증	-10.9437
▁민희씨	-10.9437
▁환영	-10.9437
▁김팀장	-10.9437
▁보험	-10.9437
▁송금	-10.9437
▁실례	-10.9437
▁바쁠	-10.9437
▁80	-10.9437
▁47	-10.9437
▁술한잔	-10.9437
▁논문	-10.9437
▁박주임	-10.9438
▁자신감	-10.9438
▁저승길	-10.9438
▁추천	-10.9438
▁상대방	-10.9438
▁새치기	-10.9438
▁노력해볼게	-10.9438
▁훔치	-10.9438
▁운동화	-10.9438
▁찬호	-10.9438
▁으윽	-10.9438
▁우수워	-10.9438
▁천국	-10.9439
▁꼰대	-10.9439
▁설거지	-10.9439
▁개웃기네	-10.9439
▁욕하지	-10.9439
▁시력	-10.9439
▁택시비	-10.9439
▁모레	-10.9439
▁민규씨	-10.9439
▁정한씨	-10.944
▁잘못된	-10.944
▁순진한	-10.944
▁교장	-10.944
▁시어머니	-10.944
▁보미씨	-10.944
▁상실했	-10.9441
▁지희씨	-10.9441
▁치매	-10.9441
▁새론	-10.9442
▁휴거지	-10.9442
▁정과장	-10.9442
▁곤란한데	-10.9443
▁노동	-10.9443
▁2000	-10.9443
▁맛집	-10.9444
▁벌금	-10.9444
▁공유	-10.9444
▁밥값	-10.9445
▁권한	-10.9445
▁신고할겁니다	-10.9446
▁담당자	-10.9446
▁기초	-10.9447
▁부담스럽	-10.9447
▁대머리	-10.9447
▁얼룩	-10.9447
▁고통받	-10.9447
▁그만두던가	-10.9448
▁하나쯤	-10.9448
▁이후로	-10.9448
▁연구	-10.9449
▁적금	-10.945
▁이야기하자	-10.9451
한가봐	-10.9451
▁경우	-10.9451
▁맞고줄래	-10.9452
▁맞고싶	-10.9452
▁민서씨	-10.9453
▁신어보자	-10.9453
▁여편네	-10.9454
▁빠져가지고	-10.9455
▁건들기만	-10.9455
▁책임감	-10.9456
▁오후까지	-10.9456
청에	-10.9457
▁무릎꿇고	-10.9458
▁고소할거야	-10.9459
▁넘어갈	-10.9459
▁처리하겠습니다	-10.9459
▁가볼게요	-10.946
▁국물	-10.9461
▁고장나	-10.9461
▁증인	-10.9461
▁안그러겠습니다	-10.9462
▁장난같아	-10.9462
▁죽여버릴까	-10.9463
▁전부에요	-10.9464
▁어림도	-10.9468
▁던진	-10.9468
▁얘기하자	-10.9469
▁외상	-10.9472
▁저러고	-10.9472
▁선택해	-10.9472
같	-10.9473
▁그런것	-10.9475
▁조심히	-10.9476
▁검토	-10.9476
▁결혼하	-10.9477
▁사먹어	-10.9479
할걸	-10.948
▁반영	-10.948
▁기다려줘	-10.948
▁틀려	-10.9483
▁골목	-10.9483
▁멋지	-10.9484
▁지쳐	-10.9485
▁침	-10.9486
▁그랬어야지	-10.9487
▁한번씩	-10.9487
▁드려야	-10.9488
▁유도리	-10.9488
▁손주	-10.9489
악	-10.9489
▁통하네	-10.9491
▁끈	-10.9492
▁쫄았	-10.9494
▁오해입니다	-10.9495
안하면	-10.9496
▁눈빛	-10.9496
하겠다	-10.9496
▁인력	-10.9496
▁처자식	-10.9497
▁고마	-10.9498
▁십원	-10.9498
▁선생님께서	-10.9499
▁넘기면	-10.9501
▁쓰자	-10.9502
▁망신	-10.9504
▁좋겠습니다	-10.9506
▁사무실에서	-10.9506
주냐	-10.9507
▁가만있어	-10.9508
▁복수	-10.9508
▁뛰어내릴	-10.951
▁연습해	-10.9513
▁들어올	-10.9513
▁그런소리	-10.9513
▁친구냐	-10.9514
▁낳은	-10.9515
▁그럴일	-10.9519
▁빵좀	-10.9519
▁쳤으면	-10.952
▁삥	-10.952
▁추워	-10.9522
▁뿐입니다	-10.9523
▁한두번	-10.9524
▁했다는	-10.9525
▁방학	-10.9526
▁다녔어	-10.9527
▁밀려서	-10.9527
▁심각하	-10.9527
▁완벽	-10.9528
▁못하는거	-10.9528
▁단단	-10.9529
▁매달	-10.953
▁약국	-10.953
▁총각	-10.9531
버리	-10.9531
▁공연	-10.9532
▁가난한	-10.9532
▁스컹크	-10.9532
▁아드님이	-10.9534
▁안그럴게요	-10.9534
▁오전에	-10.9534
▁이웃	-10.9534
▁쇼핑	-10.9536
▁갚았	-10.9537
▁여름	-10.9538
▁셔츠	-10.9538
▁유세	-10.9538
▁때려쳐	-10.9539
▁않을거야	-10.954
▁부서에	-10.954
▁꼬리치	-10.9543
차근	-10.9544
▁드려	-10.9546
▁맞으신	-10.9547
기고	-10.9548
어떻게	-10.9549
▁팀원들	-10.955
▁빨리해	-10.9556
▁김선생님	-10.9556
▁일한지	-10.9557
된다	-10.9558
▁했었어	-10.956
▁손병신	-10.9561
▁알려줘야	-10.9565
▁바꾸자	-10.9567
▁기다린	-10.9567
▁앞뒤	-10.957
상하게	-10.9572
▁센	-10.9572
▁다냐	-10.9572
▁받은건데	-10.9577
▁거참	-10.9581
▁잘생겼	-10.9584
▁공부해서	-10.9584
▁구라치	-10.9586
▁죽여버리는	-10.9591
▁혼났	-10.9591
▁만원짜리	-10.9592
▁차렸	-10.9593
기간이	-10.9594
▁챙겨줬	-10.9595
거랑	-10.9596
▁와보게	-10.9597
▁진정하게	-10.9601
▁있었던	-10.9602
▁이러기	-10.9603
▁빠져나가	-10.9604
▁친구들한테	-10.961
▁촉박해	-10.9614
▁너네집에	-10.9616
▁부럽	-10.9617
문제	-10.9621
▁눈앞에	-10.9623
▁계셔서	-10.9623
왜그렇게	-10.9625
▁실력이	-10.9628
▁담당이	-10.9628
▁힘들거같	-10.9629
▁못들었어	-10.9631
▁걸어가면	-10.9634
▁싫다니까	-10.9636
▁수원	-10.9636
▁기업	-10.9636
▁쏠	-10.9642
▁안하는	-10.9649
▁부부	-10.9649
▁주십시요	-10.9649
▁식구들	-10.965
▁늙은이	-10.9653
▁주방	-10.9656
셨어	-10.966
▁맘이	-10.9661
▁그런말이	-10.9665
▁할일	-10.9668
▁해볼게	-10.9669
▁알았으면	-10.9674
신다면	-10.9675
놨어	-10.9676
▁나타나	-10.9676
▁부담	-10.9681
▁가고싶	-10.9681
▁아시지	-10.9681
▁형수	-10.9682
▁안맞아	-10.9683
▁노인네	-10.9684
▁이만큼	-10.9685
▁유리	-10.9688
뻔했어	-10.9693
운전을	-10.9694
▁정신차리겠	-10.9694
▁법이	-10.9696
▁붙이	-10.9697
▁말던	-10.9697
▁죽이기	-10.9698
차리고	-10.9699
▁잃어버리	-10.97
▁입술	-10.9701
▁엄연	-10.9702
▁엇	-10.9702
뭐냐	-10.9703
▁못참	-10.9709
▁민호	-10.9709
▁이제와	-10.971
▁바람피	-10.9714
집에서	-10.9715
▁또라이	-10.9718
▁피자	-10.9719
▁거짓말하지마	-10.9725
▁심심해	-10.9726
▁살만	-10.9727
▁수작	-10.9727
▁왔으면	-10.9729
▁예쁘네	-10.9729
▁셋	-10.9736
▁앱	-10.974
▁들은	-10.9742
▁아깝지	-10.9743
신분	-10.9745
▁심지	-10.9748
▁학원비야	-10.9748
▁오신	-10.9752
▁잃었	-10.9753
▁사이트	-10.9759
야겠네	-10.9763
▁이유로	-10.9764
▁탓이	-10.9766
▁학	-10.977
▁키가	-10.9771
▁강도	-10.9772
▁안되나	-10.9772
▁신기하다	-10.9776
을걸	-10.9779
▁잡은	-10.9781
▁뚝	-10.9788
하네요	-10.9789
▁해보세요	-10.9792
▁해보자고	-10.9792
▁내맘이	-10.9794
▁놀이터	-10.9794
먼저	-10.9798
치지마	-10.9799
▁상대해	-10.9802
▁듣겠어	-10.9805
▁돌아오	-10.9805
▁빌어	-10.9811
▁피워	-10.9811
▁해주실	-10.9813
▁듣자	-10.9814
▁생사람	-10.9817
▁하십니다	-10.9817
▁지키면	-10.9821
▁소용없	-10.9823
▁아빠한테	-10.9824
▁새거	-10.9828
▁찌	-10.983
▁맛있어	-10.9832
▁결재	-10.9835
▁만들고	-10.9838
▁걸어다니	-10.9842
▁모른다	-10.9845
나쁘면	-10.9851
▁들어간거	-10.9854
▁카드를	-10.9857
▁내눈에	-10.9857
▁봤자	-10.9857
▁괴롭히면	-10.9863
▁포	-10.9864
▁생각좀	-10.987
타고	-10.987
▁낸다	-10.9871
났는데	-10.9872
▁나가세요	-10.9877
▁아니였어	-10.9878
판	-10.9883
▁황	-10.9884
▁업무에	-10.989
▁장애인이냐	-10.9892
▁내는	-10.9892
▁연락을	-10.9893
▁싸가지없	-10.9897
▁결혼할	-10.9898
▁대답안하	-10.9901
▁큰일나	-10.9903
▁착각하	-10.9907
▁애새끼	-10.9908
▁배고	-10.9912
▁피우	-10.9913
▁쎄	-10.9917
▁해야되	-10.9921
▁불려가	-10.9921
시기	-10.9923
▁대해서	-10.9927
화해	-10.9927
난다고	-10.9929
▁안갚았	-10.9933
▁해주지	-10.9941
▁오케	-10.9944
▁데려가	-10.9946
▁할수있	-10.9946
기다려	-10.9947
▁큰소리	-10.9947
▁봤거든	-10.9948
▁만드는	-10.9949
색이	-10.9953
▁놓을	-10.9953
갔는데	-10.9955
▁맞고싶어	-10.9957
▁넣으	-10.996
없잖아	-10.9963
▁일이잖아	-10.9965
▁말씀드릴	-10.997
▁모르겠다	-10.9971
같지	-10.9972
▁아놔	-10.9978
자꾸	-10.9979
▁갔다오면	-10.9985
▁말이면	-10.9986
▁억울해	-10.9987
▁쉬지	-10.9987
사가	-10.9987
▁보려고	-10.9988
▁등급	-10.9989
▁이쁘지	-10.9989
▁깍아	-10.9995
▁민아	-11
▁간호사	-11.0001
▁풀리	-11.0002
▁들지	-11.0005
▁뭐라했	-11.0005
란말야	-11.001
었네	-11.0011
▁뽑히	-11.0013
위로	-11.0017
▁깨끗하	-11.0018
▁안지키	-11.0019
▁틀리	-11.0021
▁울어	-11.0027
드라	-11.0029
▁힘들었어	-11.0029
당해	-11.0031
▁서류들	-11.0033
▁장난치는	-11.0044
▁주던	-11.0049
▁텅	-11.0053
▁정색하	-11.0054
▁사는거	-11.0054
▁되어	-11.0056
▁잡아봐	-11.0058
▁고발	-11.007
▁못먹	-11.0072
덕	-11.0073
▁말지	-11.0074
▁가져와야	-11.0074
▁흑인	-11.0075
좋아	-11.0078
시는거	-11.0088
▁결정하	-11.0092
▁준비하라	-11.0097
해주셔야	-11.0099
▁않으시	-11.0101
▁앉으	-11.0104
▁맛없	-11.0104
▁안되겠구	-11.0105
▁수정하	-11.0112
▁주사	-11.0113
▁말씀하	-11.0115
사에	-11.0118
공	-11.0118
▁약이	-11.0122
▁약속은	-11.0128
▁없나요	-11.0131
▁올래	-11.0136
▁재밌는	-11.014
▁말씀드리	-11.0145
▁내려와	-11.0151
▁죄송한	-11.0153
▁무식	-11.016
을수도	-11.0161
▁놀이	-11.0161
속	-11.0168
▁불질러	-11.0179
▁매점에	-11.018
입고	-11.0185
▁궁금한	-11.0186
▁비싼건	-11.0191
큰	-11.0202
▁느리	-11.0208
▁정신병	-11.021
▁부인이	-11.0222
▁구질구질하	-11.0222
▁우리학교	-11.0222
냄새	-11.0224
▁판단	-11.0227
▁챙겨주	-11.0227
▁장님이	-11.0232
제가	-11.0237
▁프로	-11.0238
▁바르	-11.024
▁운영	-11.024
▁죽고싶다	-11.0245
▁시키시는	-11.0257
▁다니던	-11.0258
싶어	-11.0259
▁당신네	-11.0259
▁설	-11.0264
▁완성	-11.0265
▁찌질	-11.0268
▁구역	-11.0268
▁괜찮으	-11.0269
▁정시	-11.0271
갔다	-11.0272
▁반말이	-11.0274
▁말씀하시는	-11.0276
▁해보라고	-11.0277
짜고	-11.0278
▁훔쳤	-11.0289
▁때렸	-11.0292
▁때문이	-11.0294
▁때리기	-11.0296
▁부려	-11.0298
▁안해봤	-11.0309
력이	-11.0309
▁드럽	-11.0313
층에	-11.0316
▁제출해야	-11.032
▁따라오라	-11.0325
▁잘해주	-11.0326
없긴	-11.0333
▁구해오	-11.0342
▁다예요	-11.0343
뭔데	-11.0345
▁약점	-11.0348
▁아까운	-11.0348
▁초대	-11.0349
▁대회에	-11.035
▁용건	-11.0352
▁안다고	-11.0353
▁클럽	-11.0355
않냐	-11.0358
주셔야	-11.036
생	-11.0368
▁역	-11.0369
▁점이	-11.037
▁안쓰	-11.0371
▁지났	-11.0376
▁만나지	-11.0377
▁낳으	-11.0377
지마라	-11.0377
▁바닥	-11.0378
▁도와주라	-11.0382
시고요	-11.0386
▁올게	-11.0388
▁지켜야	-11.0388
팅	-11.0398
이니까	-11.0402
▁거였	-11.0407
이따가	-11.0409
했을텐데	-11.041
손이	-11.0417
▁너네들	-11.0427
▁안될거	-11.0427
▁올릴거	-11.0428
▁사는지	-11.0431
아파	-11.0432
▁가져오라	-11.0432
▁바꿔주	-11.0435
▁잘지내	-11.0437
시든가	-11.0439
▁싸오	-11.044
▁잘났다	-11.0441
해놨어	-11.0441
▁너희들	-11.0442
▁밥을	-11.0444
▁닮아	-11.0445
▁초대해	-11.0445
▁안시키	-11.0446
▁최민	-11.0447
▁이년이	-11.0457
▁없을거	-11.0458
준거	-11.0463
▁뽑을	-11.0463
▁갔잖아	-11.0464
▁감옥	-11.0465
▁범죄에	-11.0467
그때	-11.048
장에서	-11.0485
불러	-11.0486
▁왜이러	-11.0486
▁아니라서	-11.0487
다닐	-11.0491
▁말들	-11.0493
갈게요	-11.0495
▁더럽다	-11.0499
▁꼬맹이	-11.0503
거슬리게	-11.0505
▁똑똑하	-11.0516
▁대가	-11.0517
▁씻	-11.0518
가족	-11.052
▁전염	-11.0522
▁누군줄	-11.0522
스럽	-11.0532
움	-11.0538
▁그러고보니	-11.0541
▁않은가	-11.0542
살아	-11.0545
▁태워	-11.0548
어머니	-11.0561
▁한다니까	-11.0562
세상	-11.0563
오도록	-11.0565
▁사적	-11.0568
▁그러셔	-11.0578
▁걸어가	-11.0579
▁오게	-11.0579
▁그만둬야	-11.0581
▁못내	-11.0582
것만	-11.0588
▁날로	-11.059
▁부르는	-11.0599
▁선택하	-11.0603
▁당연한거	-11.0609
뒤에	-11.0612
▁고등학생	-11.0612
▁안할게	-11.0616
▁있더라	-11.0621
갚아	-11.0628
▁껌	-11.0629
자식아	-11.0633
▁밥먹으	-11.0633
갖고	-11.0633
결	-11.0634
주십쇼	-11.0635
▁잇	-11.0637
▁갑	-11.0646
햇	-11.0647
익	-11.0647
만원밖에	-11.0649
정보	-11.0655
써서	-11.0656
▁무식하	-11.0657
나오고	-11.066
▁흥분	-11.0662
▁싫냐	-11.0664
▁저작권	-11.0665
▁토달지	-11.0672
▁괜찮다	-11.0675
▁반차	-11.0676
▁요즘에	-11.0678
▁소리로	-11.0679
▁차단	-11.068
▁쉽	-11.0681
▁뉴스	-11.0685
좋은데	-11.0686
▁돌려줄	-11.069
▁나가게	-11.0693
해주십시오	-11.0694
▁내거	-11.0698
폰	-11.0701
▁신기하	-11.0703
달째	-11.0705
양	-11.0709
졌다	-11.0721
▁안사	-11.0727
어져	-11.074
된다니까	-11.0741
듣고	-11.0743
후에	-11.0746
▁관심이	-11.0749
감이	-11.075
실장	-11.0753
구멍	-11.0755
▁노력하	-11.0755
▁막아	-11.0756
▁왕인	-11.0757
▁꼬라	-11.0757
쥐	-11.076
▁입지	-11.0761
하는지	-11.0764
근무	-11.0769
▁요청	-11.0772
▁아우	-11.0773
▁해결할	-11.0774
주시지	-11.0774
찌	-11.0778
지켜	-11.078
▁어린애	-11.0781
탈	-11.0783
▁확인되	-11.0789
간호사	-11.0791
먹으려고	-11.0799
▁뚫	-11.0799
새꺄	-11.0801
효	-11.0802
▁튕기	-11.0805
▁생각안하	-11.0807
헌	-11.0809
와바	-11.0812
샌	-11.0816
님께서	-11.0822
길에	-11.0827
▁해야되는	-11.0828
흠	-11.083
▁유전	-11.0832
▁시켰다	-11.0837
▁대답해	-11.0839
보던지	-11.0843
해보라고	-11.0845
했나요	-11.0845
▁감방에	-11.0845
▁열받아	-11.085
버렸	-11.085
하려	-11.0851
했으니	-11.0852
메	-11.0855
추가	-11.0859
▁박사원이	-11.0859
깨	-11.0861
납	-11.0866
▁이기	-11.0869
맞고	-11.0872
로만	-11.0875
▁연습	-11.0877
▁팀원	-11.0879
▁선배들	-11.0879
▁마시는	-11.088
▁걱정말	-11.0882
▁없다는	-11.0885
받	-11.0887
검	-11.0892
분인데	-11.0895
▁안줘	-11.0902
사는	-11.0903
▁좆	-11.0906
게나	-11.0911
▁쳐맞을	-11.0916
▁이곳	-11.0917
▁아프시	-11.0917
▁죽어봐	-11.0922
카	-11.0922
▁제출한	-11.0935
▁지켜보	-11.0939
신다는	-11.0956
창	-11.0959
고싶어서	-11.0961
▁행복하	-11.0969
▁성인	-11.0982
가방	-11.0983
▁시작하	-11.0984
누	-11.0987
▁외국에	-11.0987
주에	-11.0991
▁똑같네	-11.0995
본적	-11.0995
▁대접	-11.1029
▁성희롱이	-11.1031
▁등신	-11.1045
▁납치해	-11.1045
붙이	-11.1049
▁때려치	-11.1052
▁그지같	-11.1056
사람들	-11.1057
▁이주임	-11.1059
▁방침	-11.1063
았다고	-11.1066
▁못하는데	-11.1067
▁미쳤다	-11.107
▁장담	-11.107
거려	-11.1071
▁역겹	-11.1072
가는데	-11.1073
▁기자	-11.1075
▁잘못들	-11.1077
▁벽	-11.1077
▁원장	-11.1079
▁싶다는	-11.1081
▁잘해야	-11.1084
▁써보	-11.1089
뿐인	-11.1092
애는	-11.1094
▁공부해	-11.1096
한적	-11.1098
▁구분	-11.1099
▁닮았	-11.1099
▁올려야	-11.1105
▁차였	-11.1106
▁일인가	-11.1111
▁엎	-11.1116
전이	-11.1117
▁행동해	-11.1119
▁집도	-11.112
▁김부장	-11.1121
받았	-11.1129
▁사지	-11.1133
▁떠는	-11.1137
버릴거니까	-11.1139
보러	-11.1143
▁새끼들	-11.1144
▁도둑이	-11.1153
자리	-11.1156
▁사다주	-11.1158
▁개념	-11.116
샀어	-11.117
▁그렇게해	-11.1174
바라	-11.1174
▁남자에	-11.1175
▁퇴근하	-11.1176
▁헤어진	-11.1178
▁일하면	-11.1179
▁빌려갔	-11.119
▁발언	-11.1191
▁살수	-11.1197
▁참았	-11.1198
다했어	-11.1208
▁나이먹	-11.1209
둥	-11.1215
▁내가왜	-11.1218
▁구석	-11.1224
▁줘야해	-11.1227
딱	-11.1229
▁뻥	-11.1229
아래로	-11.1236
목	-11.1236
넘기	-11.1241
▁가져갈	-11.1241
▁시킬	-11.1242
▁잠이	-11.1244
▁현실이	-11.1251
차려	-11.1252
싶냐	-11.1255
짐	-11.1258
▁이년	-11.1264
웃겨	-11.1265
▁이러지말	-11.1267
▁으이	-11.1274
▁줄여	-11.1274
▁연기	-11.1276
사오고	-11.128
▁못알아먹	-11.1282
▁뒤지고싶	-11.1286
▁참석하	-11.1289
▁애자	-11.1302
아닙니다	-11.1305
▁쌤이	-11.1316
어울려	-11.1318
▁가르쳤	-11.1319
원만	-11.1324
▁쳐보	-11.1325
생이	-11.1326
▁않았습니	-11.1326
▁여자로	-11.1327
▁깐	-11.1329
▁닥치	-11.133
▁늙	-11.1336
▁참여하	-11.1345
▁유포하	-11.1348
현씨	-11.1362
▁안통	-11.1363
▁맞으시	-11.1364
▁드릴테니	-11.1369
줬	-11.1374
▁경쟁	-11.1376
▁넘길	-11.1378
▁젊	-11.1381
▁갔다오	-11.1386
▁안시켜	-11.1388
▁출장가	-11.139
▁아이구	-11.1392
▁떨어질	-11.1392
▁노는	-11.1394
랬어	-11.1395
되나요	-11.1398
▁보내야	-11.1399
는거예요	-11.14
▁약속이라	-11.1404
▁새벽	-11.1405
▁당직	-11.1405
보죠	-11.1408
례	-11.141
▁마주	-11.1412
▁문열	-11.1413
▁테니	-11.1413
쭈	-11.1413
▁사소한	-11.1414
▁그새끼	-11.1414
▁입냄새	-11.1416
▁전달하	-11.1417
▁광	-11.1417
▁사기꾼	-11.1419
▁장난치	-11.1423
▁대단	-11.1423
▁안해주	-11.1424
같아요	-11.1426
▁쿵쿵	-11.1427
▁솔직	-11.1427
▁도착	-11.1427
▁찍혔	-11.1429
▁보러	-11.143
▁뵙	-11.1433
▁편해	-11.1433
▁깜	-11.1434
▁맥	-11.1437
증후군	-11.1437
▁계획	-11.1437
▁고분고분	-11.1437
▁깊	-11.1437
▁냉장고	-11.1437
▁넥타이	-11.1437
▁동문회	-11.1437
▁리모델링	-11.1437
▁버르장머리	-11.1437
▁수치스러워	-11.1437
▁썸	-11.1437
▁씨씨티비	-11.1437
▁아스팔트	-11.1437
▁애미애비	-11.1437
▁여쭤	-11.1437
▁움찔	-11.1437
▁인내심	-11.1437
▁자존심	-11.1437
▁젖	-11.1437
▁초등학생	-11.1437
▁헬멧	-11.1437
렴	-11.1437
룹	-11.1437
슉	-11.1437
앙	-11.1437
쟨	-11.1437
쭉	-11.1437
▁댓글	-11.1437
▁뒤통수	-11.1437
▁워크샵	-11.1437
▁짝꿍	-11.1437
▁쿨	-11.1437
▁흔들	-11.1437
덩어리	-11.1437
▁음주운전	-11.1437
▁짜장면	-11.1437
▁핵	-11.1437
▁모자랄	-11.1437
▁소방관	-11.1437
▁승연씨	-11.1437
▁멈추	-11.1437
▁작년에	-11.1437
▁프린터	-11.1437
▁외삼촌	-11.1437
▁상품권	-11.1437
▁임주임	-11.1437
▁피시방	-11.1437
▁야유회	-11.1437
▁출산휴가	-11.1437
▁징계	-11.1437
▁국어쌤	-11.1437
▁바퀴	-11.1437
▁중위권	-11.1437
▁기억안나	-11.1437
▁책상위에	-11.1437
▁학생회비	-11.1437
▁수학여행	-11.1437
▁따돌리	-11.1437
▁빵좀사와	-11.1437
▁악플	-11.1437
▁골프채	-11.1437
▁450	-11.1437
▁버러지	-11.1437
▁출산	-11.1437
랜드	-11.1437
▁실행	-11.1437
▁진희씨	-11.1437
▁끓여	-11.1438
▁몰카	-11.1438
▁비교	-11.1438
▁사라질	-11.1438
▁올캐	-11.1438
▁소문낼거	-11.1438
▁세탁비	-11.1438
▁친한척	-11.1438
▁반가워	-11.1438
▁공책	-11.1438
▁처벌	-11.1438
▁혈액형	-11.1438
▁뒤뚱거리	-11.1438
▁크윽	-11.1438
▁가던길	-11.1439
▁승급	-11.1439
▁벗으라고	-11.1439
▁부당합니다	-11.1439
▁면담	-11.1439
▁어린이	-11.1439
▁관둬	-11.1439
▁신문	-11.1439
▁꼬박	-11.1439
▁조상님	-11.1439
▁살찐	-11.1439
▁알앗어	-11.1439
▁사례금	-11.1439
▁감독	-11.144
▁퉁	-11.144
▁정신차릴래	-11.144
▁갔다온	-11.144
▁꾸지마	-11.144
▁바쁜척	-11.144
▁어쩔껀데	-11.144
▁명예	-11.1441
▁암호	-11.1441
▁카드값	-11.1441
▁지난주에	-11.1441
▁총알	-11.1441
▁인재	-11.1442
▁절반	-11.1442
▁담달에	-11.1442
▁찾아보겠습니다	-11.1442
▁에잇	-11.1442
▁우영씨	-11.1442
▁밥맛	-11.1442
▁오해십니다	-11.1442
▁아이돌	-11.1442
안둔다	-11.1442
▁찌그러져	-11.1443
▁구해오겠습니다	-11.1443
▁최소한	-11.1443
▁인심	-11.1443
라마라	-11.1443
일기장	-11.1444
▁환불해드리겠습니다	-11.1444
▁김길동	-11.1445
▁제출하겠습니다	-11.1445
▁알빠	-11.1445
▁진입	-11.1445
▁부산	-11.1445
▁자빠졌	-11.1445
▁실제	-11.1445
▁여태	-11.1446
▁팔다리	-11.1446
▁거짓	-11.1446
▁접수	-11.1446
▁끝장	-11.1447
▁해줄수	-11.1447
▁어쩌자는	-11.1447
▁구두	-11.1447
▁이모양이	-11.1447
▁주위	-11.1447
가보지	-11.1447
▁지난달에	-11.1447
▁절단	-11.1448
▁며칠째	-11.1448
▁뚫린	-11.1448
▁정글	-11.1449
▁우연히	-11.1449
▁미안미안	-11.145
▁받는다	-11.145
▁없으려니	-11.145
▁모자란	-11.1451
▁비상	-11.1451
▁갑질	-11.1452
▁법대로	-11.1453
▁오프	-11.1453
▁지울	-11.1453
▁허구	-11.1453
▁지영씨	-11.1453
▁오류	-11.1453
▁승민씨	-11.1454
▁멍청아	-11.1455
▁남겨와	-11.1455
▁불편합니다	-11.1456
▁펴	-11.1456
▁낳아서	-11.1457
▁연봉	-11.1457
▁교정	-11.1457
▁국어	-11.1457
있었나	-11.1458
▁간절	-11.1458
▁채우	-11.1459
▁잘어울리	-11.146
▁모으	-11.1461
▁사소한거	-11.1461
▁병신같은	-11.1461
▁부러져	-11.1462
▁못참아	-11.1462
▁계시는	-11.1462
▁이럴때	-11.1463
▁갈길	-11.1464
▁누구신지	-11.1465
▁생선	-11.1465
▁거슬려	-11.1466
▁해드렸	-11.1467
▁계신데	-11.1467
▁여기저기	-11.1468
▁뒤졌다	-11.1468
▁지워줄게	-11.1469
▁상관할	-11.1469
▁우동	-11.1469
▁한푼	-11.1472
▁지랄하네	-11.1473
더러우니	-11.1473
▁그랬나	-11.1474
▁회식때	-11.1475
힌	-11.1476
▁알려준	-11.1476
▁기다리세요	-11.1477
▁만년	-11.1477
▁가만안둘	-11.1478
▁골로	-11.1478
▁찾아갈	-11.1478
▁짜져	-11.1479
▁반려	-11.1479
▁마지막이다	-11.1479
▁커피타는	-11.148
▁애미	-11.1481
▁하하하하	-11.1481
▁분발	-11.1482
▁유전자	-11.1483
▁좋아하시	-11.1484
▁불쌍해라	-11.1485
겟네	-11.1489
▁어딨는지	-11.1489
▁일끝나고	-11.149
▁낙하산이	-11.1493
▁달달한거	-11.1493
▁형제	-11.1495
▁교육시	-11.1495
▁고정	-11.1496
▁안보	-11.1498
▁땡	-11.1498
▁배고파	-11.1499
▁피곤하게	-11.15
▁경고했다	-11.1502
▁아기	-11.1502
▁엿먹이	-11.1504
▁하핳	-11.1504
▁좋을거	-11.1505
▁민재	-11.1507
▁상담	-11.1507
▁봐주십시오	-11.1507
▁못받아	-11.1507
▁좋은말	-11.1509
▁감사하	-11.1509
▁이번달까지	-11.1511
▁고마운	-11.1511
▁안내려	-11.1512
▁정신병자	-11.1512
▁시작한	-11.1513
▁통장에	-11.1514
▁쓴거	-11.1515
▁축구	-11.1516
봤다	-11.1518
▁개발	-11.1519
▁옛날에	-11.152
▁누구인지	-11.152
▁비슷한	-11.1521
▁놀자	-11.1521
▁혼난	-11.1521
▁필요하거든	-11.1522
▁사과하세요	-11.1522
▁어린이집	-11.1522
▁박혀	-11.1523
▁좁아	-11.1523
▁놀자고	-11.1524
▁까발리	-11.1525
▁민주	-11.1526
▁약자	-11.1526
▁미팅이	-11.1527
▁고과	-11.1528
▁억울해요	-11.1529
▁가족여행	-11.153
맘대로	-11.153
▁기운	-11.1531
겨서	-11.1531
치워	-11.1531
▁굼벵이	-11.1534
▁빡치게	-11.1534
연히	-11.1534
▁싸인	-11.1535
▁썻	-11.1536
▁롤	-11.1536
▁강간	-11.1536
▁못움직이	-11.1537
▁고생하	-11.1537
▁커피좀	-11.1539
▁간단	-11.154
▁안끝났	-11.1542
▁술마시	-11.1542
▁짱깨	-11.1545
그거	-11.1547
▁부서에서	-11.1547
▁형편	-11.1548
하더라	-11.1548
▁여편내	-11.1549
▁커뮤니	-11.155
▁당뇨병	-11.155
▁똑같은거	-11.155
마십시오	-11.1551
▁노예	-11.1552
▁초과	-11.1552
▁달라질	-11.1552
▁신장이	-11.1553
▁커피한잔	-11.1554
▁구해올게요	-11.1558
▁도망갔	-11.1558
▁틀렸잖아	-11.1559
▁따뜻한거	-11.156
▁꿀	-11.156
▁한달만	-11.1562
▁도와드리겠습니다	-11.1563
▁유튜브	-11.1564
▁망치로	-11.1564
▁기다리게	-11.1565
▁다니니	-11.1565
▁십	-11.1565
▁색깔	-11.1567
▁부러워	-11.1568
어버린다	-11.1568
▁흘려	-11.1568
▁띄지마	-11.1571
▁임신한	-11.1572
▁말대꾸까지	-11.1572
▁동업	-11.1576
▁대우	-11.1576
▁모르시나	-11.1577
▁들고다녀	-11.1577
▁곤란해요	-11.1579
▁시집	-11.158
▁사귀어	-11.1582
▁초면	-11.1582
혜주	-11.1584
▁오호	-11.1585
▁만났지	-11.1589
▁월급받	-11.1591
▁다꺼내	-11.1591
▁사다줄	-11.1592
▁사라져라	-11.1594
▁재미로	-11.1596
떄문	-11.1596
▁주셨는데	-11.16
▁졸	-11.16
▁지적	-11.1605
▁뚱땡이	-11.1608
▁괴롭히	-11.1608
▁말한건	-11.161
▁망쳤	-11.1611
▁현금이	-11.1614
돌려	-11.1615
▁빠를	-11.1615
▁없어지는	-11.1616
코야	-11.1617
▁당연한	-11.1618
▁윤아	-11.1621
▁하기싫어	-11.1623
▁줄테니	-11.1628
▁못알아먹어	-11.1628
였다고	-11.1628
▁돈벌	-11.1629
다른	-11.1631
▁버렸	-11.1632
▁그랬다	-11.1637
▁심장	-11.1638
▁사과하지	-11.1644
버렸어	-11.1644
▁은행에	-11.1644
▁얘들	-11.1645
▁장식이	-11.1645
▁위생	-11.1646
▁이거놔	-11.1647
▁서방	-11.1649
▁쉬운	-11.1651
▁통하는	-11.1652
▁썩은	-11.1655
데가	-11.1656
▁어떡하지	-11.1656
▁소주	-11.1656
▁가보겠습니다	-11.1658
되고	-11.1659
▁동료들	-11.166
▁사람에게	-11.166
▁기스나	-11.1661
▁어려서	-11.1662
▁빌려주는거	-11.1667
▁있었다고	-11.1671
▁뻗	-11.1672
▁사주라고	-11.1672
▁찌르기	-11.1673
▁카페는	-11.1675
▁지나갈	-11.1678
▁욕하지마	-11.1679
▁외에	-11.1679
▁놀랐	-11.168
▁생각했	-11.1681
▁배정	-11.1681
▁편해서	-11.1682
▁좋겠는데	-11.1682
▁해놓	-11.1684
▁이사장	-11.1685
▁하겠다는	-11.1686
▁재료	-11.1687
▁정의	-11.1687
었던	-11.1688
영아	-11.1688
▁무엇이	-11.169
같냐	-11.1692
▁들렸다	-11.1692
▁알거	-11.1699
▁따지	-11.1701
▁늦을	-11.1705
▁입시	-11.1705
분까지	-11.1705
▁생각했는데	-11.1705
▁내비	-11.1709
▁현수	-11.1709
▁알아내	-11.1712
▁잘못해	-11.1712
▁제보	-11.1713
▁언제부터	-11.1715
▁버릇이	-11.1716
수를	-11.1717
▁제출하	-11.1717
▁살아라	-11.172
▁철	-11.172
▁아니었어	-11.172
▁이득	-11.1724
▁날아가	-11.1724
▁키워주	-11.1727
▁나간다	-11.1728
▁비용	-11.1728
간에	-11.1729
▁힘들지	-11.1734
서로	-11.1735
▁여전	-11.1736
▁진정하시	-11.1737
▁배에	-11.1741
▁결정해	-11.1741
▁걸려서	-11.1745
▁쉬는시간	-11.1745
곳	-11.1747
하든	-11.1747
그런것도	-11.1748
주씨	-11.175
했잖아요	-11.1755
▁바른거	-11.1756
▁하겠지	-11.1757
방에	-11.1758
▁못가게	-11.1759
▁짓거리	-11.1759
보냐	-11.1761
▁예상	-11.1763
▁본다	-11.1764
▁저번이	-11.1766
▁까불고	-11.177
▁굴려	-11.1771
▁추운	-11.1771
▁베풀	-11.1772
▁아니었어요	-11.1773
들면	-11.1774
물을	-11.1775
것들	-11.1776
자네	-11.1776
▁인턴이	-11.1776
▁위험한	-11.1776
▁헤어졌어	-11.1777
칼	-11.1777
▁아프게	-11.1778
▁사려고	-11.1779
▁가치	-11.178
▁노력했어	-11.178
아이에게	-11.1781
▁짖어	-11.1782
▁싶었	-11.1784
▁씹냐	-11.1787
▁안해서	-11.1788
▁건드린다	-11.179
▁피하는	-11.1796
▁개새끼가	-11.1797
▁집착이	-11.1797
▁안맞	-11.1797
▁다녀올	-11.18
▁당당하	-11.1804
▁가도록	-11.1808
▁야근해서	-11.181
싸	-11.181
▁역겹다	-11.1814
▁발설하	-11.1815
▁안그랬어	-11.1826
▁조언	-11.1829
▁찍는	-11.183
▁긋	-11.1832
▁돼지새끼	-11.1832
▁안먹어	-11.1833
▁이겨	-11.1836
▁이를거	-11.1841
▁숙	-11.1841
▁있다면	-11.1844
▁창피하지	-11.1846
▁보내세요	-11.1847
▁어디있나	-11.1847
▁있을게	-11.1847
▁민정	-11.1849
▁보기에	-11.185
없습니다	-11.1851
맞아	-11.1854
▁재밌겠	-11.1855
▁아가야	-11.1857
들여	-11.1858
사람한테	-11.1859
▁들을게	-11.1872
▁김대리한테	-11.1873
▁어쨌는데	-11.1874
▁부수	-11.1875
▁가기로	-11.1877
않아요	-11.1878
▁귀에	-11.1878
▁안나는데	-11.1881
▁단정하	-11.1882
▁도와드리	-11.1883
▁은지	-11.1883
▁술만	-11.1885
▁준비나	-11.1889
▁머리통	-11.1896
▁건드리	-11.1896
시오	-11.1902
▁떄	-11.1907
▁팔이	-11.1908
▁다른사람들	-11.1912
▁시원하	-11.1915
▁간지	-11.1916
▁복사기	-11.1917
▁때우	-11.1919
▁다가오	-11.192
▁다운	-11.1925
▁말거야	-11.1931
▁죽인	-11.1932
▁선에서	-11.1932
수는	-11.1933
셔야	-11.1938
같길래	-11.1939
▁모를수	-11.194
▁남자한테	-11.194
▁카	-11.1942
▁컨	-11.1943
▁실망이	-11.1945
▁구석에	-11.1958
▁자신이	-11.1961
▁감아	-11.1961
▁거리는	-11.1967
▁빌려달라는거	-11.1967
보던가	-11.1968
▁시간인데	-11.197
▁찍은거	-11.1975
▁차례	-11.1975
▁안주고	-11.1975
안하네	-11.1977
▁가져가지	-11.1986
▁아니라는	-11.1992
▁일이라서	-11.1993
▁생신이라	-11.1994
▁없어지	-11.1997
▁이기적	-11.1999
▁오는거	-11.1999
▁잘들어	-11.2
쓰고	-11.2
▁사먹	-11.2009
▁받았는데	-11.2011
▁바에	-11.2012
▁나는거	-11.2012
▁차질	-11.2012
▁아니라니까요	-11.2014
줬으니	-11.2014
▁따라다니	-11.2028
▁원장님	-11.2032
▁잠깐만요	-11.2036
모가	-11.2038
▁살인	-11.204
▁위치에	-11.2043
▁사용하	-11.2044
하고다녀	-11.2045
▁소설	-11.2047
▁그니깐	-11.2051
▁그랬다는	-11.2053
▁자랑하	-11.2053
죄송해요	-11.2055
린데	-11.2059
▁뒤졌	-11.2059
▁들렸	-11.2067
▁깔끔	-11.2069
▁저걸	-11.207
▁이과장	-11.2073
▁이익	-11.2074
했	-11.2075
싶	-11.2077
▁장난같	-11.2084
▁상의	-11.2085
▁후회하지	-11.2085
합니	-11.2094
▁싶은거	-11.2098
▁덕	-11.2098
까진	-11.2105
▁헌	-11.2105
▁수진이	-11.2106
▁나갔어	-11.2107
러시면	-11.2116
▁못한다고	-11.2117
손에	-11.212
▁다음번	-11.2128
어딨어	-11.2128
▁부장님한테	-11.2134
▁불법이	-11.2136
▁때문인	-11.2136
▁괜찮을	-11.2138
운이	-11.2139
놔야	-11.2139
▁끝나서	-11.214
▁안타깝지	-11.214
▁사고싶은	-11.2142
▁자랑이라	-11.2142
▁잃어버렸다	-11.2145
나온	-11.2145
▁신청했	-11.2145
▁대답할	-11.2146
▁신고할거	-11.2146
▁익	-11.2147
버리는	-11.215
▁괴	-11.2152
▁못알아들	-11.2152
▁운전하	-11.2153
▁직장에	-11.2155
▁들어보	-11.2156
▁갔을	-11.2157
▁차도	-11.2157
▁오냐	-11.216
▁감고	-11.2163
▁죽음	-11.2165
▁해봐야	-11.2165
▁하시네	-11.2167
▁시간내	-11.2172
▁까칠하	-11.2174
▁먹던	-11.2175
▁잡아서	-11.2175
▁시험이	-11.2176
▁낮은	-11.2187
한대	-11.2189
인건	-11.2191
▁인스타에	-11.2194
▁밝히	-11.2196
▁시키는거	-11.2196
▁인원	-11.2197
▁글씨	-11.2201
▁대수	-11.2208
▁급식	-11.2209
▁핑계대지	-11.2216
키라고	-11.2219
통이	-11.222
함	-11.222
▁굶어	-11.2222
▁나왔네	-11.2223
▁수진	-11.2227
▁서울대	-11.2234
▁가입	-11.2237
▁도둑질	-11.224
▁받을게	-11.2245
▁한다면	-11.2246
▁시비걸	-11.225
▁올게요	-11.2251
▁신발이	-11.2255
장도	-11.2257
▁보나	-11.2267
▁많았	-11.2272
▁학과	-11.2273
▁갈기	-11.2279
▁개판	-11.2281
주는데	-11.2283
▁개기	-11.2284
▁나갈게	-11.2286
▁이세상에	-11.2289
빠지	-11.23
▁기사님	-11.23
▁한국대	-11.2301
오빠	-11.2305
▁안된다는	-11.2308
되는거	-11.2309
▁국가	-11.2311
▁야근하	-11.2315
가야지	-11.2315
▁소중	-11.2316
▁야간	-11.2318
▁청소기	-11.2318
▁약해	-11.232
▁가져와봐	-11.2321
▁않을거	-11.2324
잖어	-11.2326
▁과정	-11.2327
▁딸만	-11.233
약속	-11.2331
▁대꾸	-11.2338
▁꼴이	-11.2339
수야	-11.2339
▁끼치지	-11.2348
▁맞은	-11.235
띄면	-11.2359
▁출근해	-11.2364
▁찌질이	-11.2369
▁이르	-11.2377
▁차릴	-11.2377
▁본가	-11.2379
▁대기	-11.2381
▁학교가	-11.2389
것보다	-11.239
아아	-11.2393
▁중지	-11.2396
▁내놓으라	-11.2397
손님	-11.2399
▁피하	-11.24
▁불쌍	-11.2402
그러겠습니다	-11.2408
▁나온거	-11.2408
▁결혼도	-11.2408
▁등교	-11.2413
▁면상이	-11.2417
왜그래	-11.2417
▁걸리는	-11.2432
▁아끼는거	-11.2432
주겠다	-11.2433
▁승인	-11.2437
맘	-11.2439
▁깨끗한	-11.244
놓	-11.2453
▁놔요	-11.2459
▁경고했	-11.2459
르게	-11.2461
▁그만두고	-11.2464
가라	-11.2465
▁굴지	-11.2466
▁건물이	-11.2468
왜요	-11.247
▁이상하잖아	-11.247
▁쓰려	-11.2471
하겠네	-11.2475
▁위험할	-11.2477
꾸	-11.2478
▁비서	-11.2484
▁만들었어	-11.2484
▁왜이러는	-11.2485
▁연락해	-11.2487
▁삼촌이	-11.2494
받은거	-11.2494
▁작성했	-11.2495
▁가나	-11.2498
▁잘라버릴	-11.2509
▁쓰라	-11.251
▁갑니다	-11.2511
▁하자는	-11.2512
▁명령하	-11.2515
해야할	-11.2519
해놓	-11.2524
▁현과장	-11.2534
얘	-11.2542
▁상황에	-11.2545
▁세우	-11.2547
▁안했냐	-11.255
▁팔면	-11.257
▁보내준	-11.2571
시는데	-11.2571
▁질리	-11.2572
▁망한	-11.2573
▁아니었	-11.2574
▁실수한거	-11.2578
는거니	-11.258
▁치냐	-11.2587
이상은	-11.2589
▁신상이	-11.2592
▁브	-11.2598
스터	-11.2604
할건데	-11.2606
▁꿇	-11.2611
▁부르셨어	-11.2612
각	-11.262
등급	-11.2622
▁피해주	-11.2624
깔	-11.2632
낀	-11.2639
▁따라하	-11.2639
▁부르면	-11.264
겠	-11.2641
▁신랑이	-11.2642
▁고생한	-11.2645
▁좋다는	-11.2647
▁뿐만	-11.2652
▁가난해	-11.2657
▁좋더라	-11.2658
▁못해주	-11.266
▁없다구	-11.266
▁소리내	-11.2661
▁해야하는데	-11.2663
▁조용히해	-11.267
▁눈치없	-11.2675
쳐먹어	-11.2679
▁구역이	-11.268
▁운동할	-11.268
는다	-11.2683
▁잡아먹	-11.2687
빨리	-11.2692
말도	-11.2696
▁어딜가	-11.2699
▁궁금하다	-11.27
▁아플	-11.2701
▁요금	-11.2708
▁좋았	-11.2708
▁병신이라	-11.2713
패	-11.2713
▁보내드리	-11.2714
▁왜들	-11.2714
아들이랑	-11.2715
혼자	-11.2715
▁넣을	-11.2715
▁입금이	-11.2716
이니	-11.2721
할수있	-11.2722
▁끌	-11.2723
▁움직이지	-11.2723
학년이	-11.2726
▁의원님이	-11.2727
형사	-11.2728
▁안되는거	-11.273
할때까지	-11.2738
▁하는건가	-11.2738
꺼져	-11.2743
▁넉넉	-11.2745
▁쳐다봤	-11.2749
▁돌아갈	-11.2751
▁혹시나	-11.2751
병님	-11.2752
무슨	-11.2753
밖에없어	-11.2758
걸지마	-11.2759
▁완성해	-11.2764
▁부장님께	-11.2766
▁팔았	-11.2768
▁되네	-11.2769
▁들은거	-11.2772
▁빨대	-11.2773
맨	-11.2777
▁깎아	-11.2781
▁원만	-11.2783
양이	-11.2787
▁생각없어	-11.2789
▁갈취	-11.2791
놔라	-11.2795
▁생색	-11.2795
▁지켜볼	-11.28
가려고	-11.2815
다리	-11.2815
▁공부한다	-11.2822
▁붙어있	-11.2825
▁공부안하	-11.2827
▁곤란할	-11.283
권	-11.2835
▁실수한	-11.2837
▁버스에	-11.2837
▁사주신거	-11.284
▁차릴거	-11.2841
▁유포	-11.2842
꺼니까	-11.2842
▁삭발	-11.285
▁너희가	-11.2851
▁달라는거	-11.2851
▁이거라도	-11.2853
▁애인이	-11.2854
▁안가	-11.2859
▁논다	-11.2867
▁안들어서	-11.2869
는거라	-11.2872
▁드셔	-11.2875
쪽	-11.2876
언	-11.2881
롱	-11.2886
▁못한거	-11.2887
▁부장이	-11.2898
휴	-11.2898
▁산에	-11.2901
▁각오하	-11.2903
▁얘기하면	-11.291
▁없어져	-11.2913
▁개판이	-11.2919
시가	-11.2928
▁친절	-11.2929
▁이런것	-11.2929
▁보고싶	-11.2932
▁안주	-11.2933
▁시간되	-11.2936
▁갈라	-11.294
▁입장	-11.2948
▁말이라도	-11.2949
낸	-11.296
▁인정하	-11.2961
▁승진하	-11.2961
▁경찰부를	-11.2962
▁알아보	-11.2966
▁너무한	-11.297
떠	-11.2972
▁하늘에	-11.2973
▁기획안	-11.2975
▁빌린다	-11.2982
▁혼	-11.2983
버릴	-11.2984
▁그모양이	-11.2985
모르겠습니다	-11.2986
시간을	-11.2989
▁주는거	-11.299
사와	-11.2996
바닥이	-11.2996
▁제출해	-11.2996
겠나	-11.2998
▁보내지	-11.2999
됐	-11.3002
▁가야하	-11.3002
그럴게요	-11.3003
▁들고다니	-11.3004
▁캡쳐	-11.3005
▁좋아졌	-11.3006
▁너때문	-11.3006
주시죠	-11.3006
할머니	-11.3011
굴	-11.3013
▁이러니	-11.3013
팀장님	-11.302
곳에서	-11.3021
▁먹을게	-11.3026
▁나눠주	-11.3027
▁수업시간	-11.3027
▁마지막이	-11.3029
▁시켜줘	-11.3032
좋지	-11.3036
름	-11.3038
▁저기서	-11.3039
▁켜	-11.3039
▁이렇	-11.3048
구야	-11.305
파서	-11.3052
▁김사장님	-11.3052
▁급한일	-11.3052
되요	-11.3053
▁쳐맞	-11.3054
개만	-11.3054
질러	-11.3056
▁물었	-11.3064
▁찾아보	-11.3066
▁눈썹	-11.3066
그러는거지	-11.307
▁하시는거	-11.3071
▁대회	-11.3075
▁계좌에	-11.3078
▁책임져	-11.3081
▁산거	-11.3083
▁칼들	-11.3087
▁지나가다	-11.3089
신건가요	-11.309
대가리	-11.3092
▁스토킹이	-11.3093
별	-11.3093
주임	-11.3094
범	-11.3096
▁푸하하하	-11.3097
▁한달이	-11.3104
거리는	-11.3111
댔	-11.3114
▁바보아니	-11.3115
상황	-11.3115
그제	-11.3115
▁만만하니	-11.3118
먹었다	-11.3118
떼	-11.3122
▁힘들다	-11.3125
▁껄	-11.3128
▁달린	-11.3129
▁하지말	-11.3133
▁구걸	-11.3139
▁갚는	-11.3142
북	-11.3142
는대로	-11.3142
▁친구인데	-11.3143
럽	-11.3147
▁먹고싶	-11.315
기전까지	-11.315
▁욕이	-11.315
▁루	-11.3151
▁아니구	-11.3155
기면	-11.3155
▁이용	-11.3158
봅니	-11.316
▁하시던	-11.3162
만하면	-11.3166
▁쓸거	-11.3168
▁배달이	-11.3175
▁삭제	-11.3178
방법	-11.3179
맛	-11.318
▁굴러	-11.318
택	-11.3181
처먹	-11.3181
밤	-11.3188
▁떠나	-11.319
▁안한	-11.3193
현	-11.3196
병신	-11.3198
탓	-11.3199
댄	-11.3201
▁싫었	-11.3202
떄	-11.321
풍	-11.321
법이	-11.3212
▁상당	-11.3215
좀봐	-11.3216
뒀어	-11.3221
격	-11.3222
▁잃	-11.3231
▁김수	-11.3231
▁아니네	-11.3233
▁내년	-11.3236
갈거니까	-11.3237
▁반대	-11.3238
는건가	-11.3241
▁죽은거	-11.3242
일수	-11.3247
▁안좋았	-11.3248
승	-11.3254
땅	-11.3255
▁못했다	-11.3257
밖	-11.3262
▁어른들	-11.3266
▁말대꾸하는	-11.3267
뜻이	-11.3268
많이	-11.327
여기	-11.327
▁가셔야	-11.3272
수급자	-11.3275
▁꼬이	-11.328
▁버텨	-11.328
타령	-11.3281
▁거란	-11.3286
았습니다	-11.3287
있는돈	-11.3289
썼다	-11.3291
턱	-11.3291
박스	-11.3293
차례	-11.3295
계정	-11.3297
이익	-11.3298
▁잘못되	-11.3299
윤	-11.3302
▁하거든	-11.3309
왔잖아	-11.3312
드리면	-11.3313
절뚝	-11.3318
컵	-11.3319
▁취소하	-11.3321
▁일할	-11.3322
▁쪼	-11.3322
컨	-11.3323
군다	-11.3327
번에	-11.3327
▁훔쳐서	-11.3328
▁흐리	-11.3329
갈기	-11.3333
▁농담이	-11.3335
▁궁금	-11.3339
치는	-11.3341
▁있는거고	-11.3342
시던가	-11.3347
한것	-11.3348
▁한것	-11.3351
박하	-11.3353
▁벗겨	-11.3355
▁나쁜사람	-11.3355
벌리	-11.3357
▁시기	-11.3357
▁없단	-11.3359
하기전에	-11.336
▁승진이	-11.3373
▁드는거	-11.3376
▁잃어	-11.3386
거란	-11.3389
▁그런거잖아	-11.3389
▁씻어	-11.3397
식이	-11.3401
받을	-11.3409
나갈거야	-11.3411
▁부탁하는	-11.3419
▁이모	-11.342
▁놀리지	-11.3421
귀	-11.3423
▁출신	-11.3424
▁창피	-11.3426
▁드리	-11.3437
봤지	-11.3444
▁단정	-11.3446
▁맞나	-11.3449
▁밥먹을	-11.345
▁중요하다	-11.3452
▁자금	-11.3453
▁미친년	-11.3454
싫어	-11.3459
▁포장	-11.3461
▁작성하	-11.3462
▁다르다	-11.3464
민	-11.3465
▁나가라	-11.3469
▁아는거	-11.3474
▁팀이	-11.3477
일이라	-11.3479
▁측	-11.3479
▁얻어	-11.3485
▁뺏는	-11.3488
아파트	-11.349
▁협박하시	-11.3496
하시지	-11.35
문서	-11.3501
사이	-11.3509
▁이러시	-11.3513
애들한테	-11.3519
▁못들	-11.3519
더러	-11.3526
▁짐승	-11.3529
▁놀러오	-11.3536
발병	-11.3542
착	-11.3546
▁잘리	-11.3548
끌	-11.3565
▁쳐맞아	-11.3565
▁하고싶	-11.3568
▁어딘	-11.357
▁신고는	-11.3571
거는	-11.3576
▁그러기	-11.3582
▁몇일	-11.3583
치게	-11.3583
그려	-11.3586
보시지	-11.3589
▁분들이	-11.3589
이든	-11.359
▁커피맛	-11.3596
들아	-11.3604
▁기생충	-11.3604
▁망해	-11.3608
▁안하	-11.3612
▁물어봐야	-11.3624
▁도둑놈	-11.3625
▁기다리는	-11.3627
▁김지	-11.3628
이구나	-11.3637
▁맞든	-11.3638
▁이랬	-11.3639
이를	-11.3643
시킬	-11.3644
▁비행	-11.365
하나도	-11.3653
▁뽑는	-11.366
▁만들었	-11.366
▁안드는	-11.3663
▁사진들	-11.3669
는가	-11.3669
▁내용이	-11.3669
▁그런다	-11.3681
석아	-11.3683
▁입금하지	-11.3685
▁죽일꺼	-11.3688
▁간거	-11.369
▁고생했	-11.369
▁고생시키	-11.369
개나	-11.3691
부시	-11.3699
▁늙은	-11.3699
대답을	-11.3699
있	-11.3706
오라면	-11.3718
▁사진찍	-11.3719
▁기다렸	-11.3724
▁핸드폰에	-11.3724
▁문제인가	-11.3724
약한	-11.3725
봐야해	-11.3726
▁쉬고싶어	-11.3726
▁불량	-11.3728
▁시험지	-11.3731
마세요	-11.3731
▁해봤	-11.3733
▁아프지	-11.3734
이는	-11.3736
▁무사	-11.3739
▁제안	-11.3739
가며	-11.3742
▁내려놓	-11.3745
일이나	-11.3747
은데	-11.3754
▁있을테니	-11.3756
▁지킬	-11.3756
▁납치	-11.3761
나게	-11.3767
▁업체에	-11.3772
▁있던거	-11.3773
▁유튜브에	-11.3776
▁욕하	-11.3777
▁못하니	-11.3778
커피	-11.3778
▁주문하	-11.3783
▁신뢰	-11.3787
막힌	-11.3787
▁이럴거	-11.3788
▁오전	-11.3794
습	-11.3795
나온다	-11.38
▁갈비	-11.3812
▁굼벵	-11.3813
▁뜯어	-11.3814
▁싶은가	-11.3814
▁표	-11.3816
▁떠들	-11.3819
▁무슨짓	-11.3822
▁버릴	-11.3825
▁소리에	-11.3827
길이	-11.3827
▁알아와	-11.3827
▁아랫	-11.3831
▁쓰러	-11.384
▁노력할게	-11.3847
▁자체	-11.3847
▁소식	-11.3856
▁라떼	-11.3857
▁열정	-11.3862
읍	-11.3862
키겠습니다	-11.3868
▁쓰래기	-11.3869
춘	-11.3869
주시	-11.3869
▁안그럴게	-11.3871
는줄	-11.3874
▁백화점	-11.388
해왔어	-11.3888
려는데	-11.3894
▁가시는	-11.3894
한테만	-11.3895
▁부탁드려	-11.3896
▁폭발	-11.3899
▁갚겠다	-11.39
▁잘릴	-11.3903
▁가야되	-11.3905
▁주민번호	-11.3906
▁언론	-11.3908
▁교재	-11.391
▁거절해	-11.3911
▁기어오르	-11.3911
▁놈들	-11.3913
▁거니	-11.3915
인이	-11.3917
촌	-11.3919
끔	-11.392
릿	-11.3921
▁복잡	-11.3921
년전	-11.3922
▁퇴근했	-11.3923
▁베트남	-11.3923
▁안받아	-11.3924
랜	-11.3927
▁뭐했어	-11.3928
▁변경	-11.3929
루와	-11.3929
▁부실	-11.3929
▁고발하	-11.3931
대씩이다	-11.3931
하지마세요	-11.3933
▁흥	-11.3933
랍	-11.3934
슨	-11.3934
▁들어줘	-11.3935
▁찍으	-11.3936
▁퇴직	-11.3936
롸	-11.3936
▁따돌림	-11.3936
멸	-11.3936
킄	-11.3936
▁쌓	-11.3936
▁틈	-11.3936
▁햄	-11.3936
▁맞춤	-11.3937
▁낡	-11.3937
▁가위바위보	-11.3937
▁거스름돈	-11.3937
▁과잉진료	-11.3937
▁그릇	-11.3937
▁극혐이	-11.3937
▁김디귿	-11.3937
▁깁스	-11.3937
▁깽판	-11.3937
▁끔찍	-11.3937
▁노약자석	-11.3937
▁눈웃음	-11.3937
▁다이어트	-11.3937
▁닭	-11.3937
▁닳	-11.3937
▁댓가	-11.3937
▁두껍	-11.3937
▁뚱떙이	-11.3937
▁리프트	-11.3937
▁먹읍시다	-11.3937
▁바꿨	-11.3937
▁빵셔틀	-11.3937
▁뻘	-11.3937
▁사표	-11.3937
▁성적표	-11.3937
▁스마트폰	-11.3937
▁스타킹	-11.3937
▁슬리퍼	-11.3937
▁시늉	-11.3937
▁시스템	-11.3937
▁싯팔	-11.3937
▁썅	-11.3937
▁에스프레소	-11.3937
▁엮	-11.3937
▁옙	-11.3937
▁워크숍	-11.3937
▁인맥	-11.3937
▁인테리어	-11.3937
▁자존감	-11.3937
▁짠	-11.3937
▁층간소음	-11.3937
▁퀄리티	-11.3937
▁테이프	-11.3937
▁팥빙수	-11.3937
▁패드립	-11.3937
▁푹	-11.3937
▁풍비박산	-11.3937
▁프라이버시	-11.3937
▁프로그래머	-11.3937
▁한율씨	-11.3937
▁행보관님	-11.3937
▁허드렛일	-11.3937
▁혼잣말	-11.3937
녜	-11.3937
띵가	-11.3937
랗게	-11.3937
랴	-11.3937
률	-11.3937
릐	-11.3937
및	-11.3937
볍	-11.3937
쁩	-11.3937
엊	-11.3937
잣	-11.3937
좔	-11.3937
퉤	-11.3937
헝	-11.3937
▁고도비만	-11.3937
▁꼼꼼	-11.3937
▁당분간	-11.3937
▁블랙	-11.3937
▁뺄	-11.3937
▁아르바이트	-11.3937
▁우체국	-11.3937
▁윤경씨	-11.3937
▁인부들	-11.3937
▁장인어른	-11.3937
▁축의금	-11.3937
▁테스트	-11.3937
몬	-11.3937
▁명예훼손	-11.3937
▁정글차이	-11.3937
▁피피티	-11.3937
▁비틀어	-11.3937
▁며느리	-11.3937
▁인터폰	-11.3937
▁혜택	-11.3937
▁소속사	-11.3937
▁사생활침해	-11.3937
▁사시미	-11.3937
▁외로워서	-11.3937
▁걸음걸이	-11.3937
▁두들겨	-11.3937
▁다혜씨	-11.3937
▁성폭행	-11.3937
▁평상시	-11.3937
▁거꾸로	-11.3937
▁체육대회	-11.3937
▁골때리	-11.3937
▁과체중	-11.3937
▁샤인머스켓	-11.3937
▁전무님	-11.3937
▁환멸	-11.3937
떄려봐	-11.3937
▁바코드	-11.3937
▁고마웠어	-11.3937
▁교도소	-11.3937
▁세리씨	-11.3937
▁꼼짝	-11.3937
▁경험	-11.3937
▁표현	-11.3937
▁생일파티	-11.3937
▁위치추적	-11.3937
▁벼슬이	-11.3937
▁스토	-11.3937
▁잔뜩	-11.3937
▁불행하	-11.3937
▁속바지	-11.3937
▁응원해	-11.3937
▁강남역	-11.3937
▁학폭위	-11.3937
▁협조	-11.3937
▁경찰부릅니다	-11.3937
▁어두워	-11.3937
▁위생관리	-11.3937
▁감봉	-11.3937
▁태어날때	-11.3937
▁쿠팡	-11.3937
▁모조리	-11.3937
▁기왕	-11.3937
▁존제	-11.3937
▁충전	-11.3937
▁순찰	-11.3937
▁울보래요	-11.3937
▁예쁨	-11.3937
▁스케줄	-11.3937
▁권사님	-11.3937
▁기달려	-11.3937
▁양다리	-11.3937
▁패션	-11.3937
▁정신나간	-11.3937
▁깜빵	-11.3937
▁조폭	-11.3937
▁합격	-11.3938
▁우진이	-11.3938
▁머저리	-11.3938
▁반려견	-11.3938
▁위자료	-11.3938
▁열쇠	-11.3938
▁어두운	-11.3938
▁변태	-11.3938
▁글씨체	-11.3938
▁깜박	-11.3938
▁생각해볼께요	-11.3938
▁거짓말쟁이	-11.3938
▁금품	-11.3938
▁환갑	-11.3938
▁송대리님	-11.3938
▁첫째	-11.3938
▁공공장소	-11.3938
▁심심한데	-11.3938
▁1200	-11.3938
▁화장품	-11.3938
▁병인이	-11.3938
▁가만안둔다	-11.3938
▁건들지말아줘	-11.3938
포트	-11.3938
▁소비자	-11.3938
▁18	-11.3938
▁60	-11.3938
▁최인턴	-11.3938
▁전단지	-11.3939
▁영업방해	-11.3939
▁연휴	-11.3939
치렁	-11.3939
▁속옷	-11.3939
▁모지리	-11.3939
▁최근	-11.3939
▁어렸을때	-11.3939
▁얼어죽	-11.3939
▁빠듯할	-11.3939
▁꾸며	-11.3939
▁패스	-11.3939
▁김책임	-11.3939
▁최종	-11.3939
▁코딩	-11.3939
▁윤이씨	-11.3939
▁맘카페	-11.3939
▁불이익	-11.3939
▁소연아	-11.394
▁국밥집	-11.394
▁연탄	-11.394
▁오른팔	-11.394
▁반지하	-11.394
▁무서울	-11.394
▁남길씨	-11.394
▁죄송합	-11.394
▁쉬워	-11.394
▁찔려	-11.3941
▁한국인이	-11.3941
▁정직원	-11.3941
▁멋진	-11.3941
▁죄송할짓	-11.3941
▁제주도	-11.3941
▁가해자	-11.3941
▁잘들을게	-11.3942
▁핫바	-11.3942
▁검은색	-11.3942
▁보충	-11.3942
▁새파	-11.3942
▁꺼지라니까	-11.3942
▁정수기	-11.3942
▁흘렸	-11.3943
▁뱃살	-11.3943
▁승호씨	-11.3943
▁목숨값	-11.3943
▁뭐하는짓이	-11.3943
▁제수씨	-11.3944
▁물어본	-11.3944
▁연락드렸	-11.3944
▁가지가지	-11.3944
▁글렀	-11.3944
▁좋은말할	-11.3944
▁이지랄	-11.3944
▁기껏	-11.3945
국에	-11.3945
▁보육원	-11.3945
▁약물	-11.3945
▁다리병신	-11.3945
▁니네아빠	-11.3945
▁관종	-11.3946
▁게이새끼야	-11.3946
▁조작	-11.3946
▁그만두던지	-11.3946
▁미영	-11.3946
▁박인턴	-11.3946
▁알려달라고	-11.3946
▁묶고	-11.3946
▁백수	-11.3946
▁이물질	-11.3946
▁일방적	-11.3946
▁무슨말씀	-11.3947
▁반지하에서	-11.3947
▁긴말	-11.3947
▁재용	-11.3947
▁말조심해	-11.3947
▁두손으로	-11.3947
▁25	-11.3948
▁별점	-11.3948
▁못배운	-11.3948
▁조대리	-11.3949
▁김철수	-11.3949
▁케어	-11.3949
▁월차	-11.3949
▁일주일동안	-11.395
▁마취	-11.395
▁무겁	-11.395
▁않으셨	-11.395
▁간단히	-11.395
▁기록	-11.3951
란다	-11.3951
▁신고할거예요	-11.3951
▁윤대리	-11.3951
▁비대리	-11.3952
▁동작	-11.3952
▁무서웠	-11.3953
▁착용해보	-11.3953
▁수민씨	-11.3953
▁예민한거	-11.3953
▁빼앗	-11.3953
▁건들이지마	-11.3953
▁급해	-11.3953
▁환자들	-11.3953
▁울겠다	-11.3954
▁한갑	-11.3954
▁쪼잔한	-11.3954
▁이새키	-11.3954
번주에	-11.3954
▁유포해	-11.3955
▁털릴	-11.3955
▁고졸이라	-11.3956
▁웃음	-11.3957
▁날뛰	-11.3958
▁꿇어	-11.3958
▁필요할때	-11.3958
▁실시	-11.3958
▁참아주세요	-11.3959
▁쪄서	-11.3959
▁조과장	-11.3959
▁옮길	-11.3959
▁구역질	-11.396
▁혼좀	-11.396
▁뽑아버릴	-11.396
▁손대지마	-11.3961
▁유전인	-11.3961
▁든건	-11.3962
▁예민한	-11.3962
▁부르겠습니다	-11.3962
▁꽂아	-11.3963
▁물어볼게	-11.3963
▁아프겠다	-11.3963
▁발끈해	-11.3963
▁어플	-11.3963
▁소음	-11.3964
▁앉아있어	-11.3964
▁까불어	-11.3965
▁도와줄수	-11.3965
▁신을게	-11.3965
▁좋으면서	-11.3965
▁이것봐라	-11.3965
▁가지고와라	-11.3966
▁오죽	-11.3966
▁한창	-11.3966
▁맹	-11.3966
▁맞을려고	-11.3967
▁싫거든	-11.3967
▁해치지	-11.3967
▁사직서	-11.3967
▁멈춰줘	-11.3967
▁몇명	-11.3968
▁크다	-11.3968
▁싫었어	-11.3968
▁메기	-11.3968
▁기대해라	-11.3968
미씨	-11.3968
▁연장	-11.3968
▁음식값	-11.3968
▁갚아줘	-11.3969
▁양반이	-11.397
▁라인	-11.397
▁휴직	-11.3971
▁요즘애들	-11.3972
▁잼있	-11.3972
▁너네학교	-11.3973
12	-11.3973
▁정시퇴근	-11.3974
▁대선	-11.3974
▁말아주	-11.3974
▁말씀드렸어	-11.3974
쳤냐	-11.3974
▁가르치	-11.3974
▁가야할	-11.3975
▁구라까	-11.3975
▁지어낸	-11.3976
▁받아들이	-11.3976
▁지체	-11.3977
▁가능성	-11.3977
▁통할	-11.3977
▁고장났	-11.3978
▁뭐라구	-11.3978
▁강의	-11.398
▁간수	-11.398
▁이동네	-11.3981
▁충고	-11.3981
▁직급	-11.3982
▁무슨상관이야	-11.3982
▁바꿔줘	-11.3982
토리	-11.3983
▁사위	-11.3983
▁내년에	-11.3983
몸이	-11.3983
▁치러	-11.3985
▁세탁기	-11.3985
▁짜식	-11.3987
▁아니꼬	-11.3987
▁없다니깐	-11.3987
크림	-11.3987
▁가품	-11.3988
▁이성	-11.3988
▁호의	-11.3989
▁잡쳤	-11.399
▁나쁘네요	-11.399
▁이상태로	-11.3991
▁원하는대로	-11.3991
▁위주	-11.3991
▁박과장님	-11.3993
▁니딸	-11.3993
▁떼우	-11.3996
송	-11.3997
▁중학생	-11.3998
▁빠듯해서	-11.3998
▁놀아주는	-11.3999
▁귀찮아	-11.3999
▁멋있다	-11.4
▁박살	-11.4001
▁민우오빠	-11.4001
▁맞아야겠다	-11.4001
▁두고보자	-11.4002
▁데리고있다	-11.4004
끝냈는데	-11.4004
하기로	-11.4005
▁아내한테	-11.4005
▁신고할게요	-11.4005
▁없었잖아	-11.4007
▁졸업한	-11.4008
▁봐서라도	-11.4008
▁안보내드렸	-11.4009
▁아니잖	-11.4009
매매	-11.401
▁맞는거	-11.4011
▁잘하겠다	-11.4011
▁얘기해줘	-11.4012
함을	-11.4015
▁아주그냥	-11.4017
▁튀어와	-11.4017
넌	-11.4018
▁들어왔나	-11.4018
▁나갔나	-11.4019
▁교회	-11.402
▁후보	-11.4021
▁하려는	-11.4021
▁조져버리	-11.4022
▁장난치지마	-11.4022
▁무능한	-11.4023
▁괜찮겠	-11.4023
돌려줬잖아	-11.4024
쳐먹	-11.4024
▁갚겠다고	-11.4025
▁고프	-11.4025
▁되도록	-11.4027
▁기념	-11.4027
▁싸운	-11.4028
▁재워주	-11.4028
▁올라오	-11.4028
▁업소	-11.4029
▁드셨는데	-11.4031
▁말씀드리는	-11.4032
▁망가졌	-11.4034
▁해줄께	-11.4037
▁영감	-11.4037
웠어	-11.4039
▁니형	-11.4041
▁민기	-11.4042
줬던	-11.4042
▁타격	-11.4042
▁해주겠어	-11.4043
▁밤까지	-11.4044
▁숨겨놓은	-11.4044
▁피면	-11.4044
▁멍청이	-11.4046
을게	-11.4046
오르네	-11.4046
▁육	-11.4046
▁디지	-11.4047
▁그런짓	-11.4047
▁갔는지	-11.4049
▁정리좀	-11.4049
▁맙	-11.4051
▁청구	-11.4054
▁속에	-11.4054
▁작성한	-11.4055
겟어	-11.4055
▁그녀	-11.4055
▁생각하니	-11.4055
▁안드니까	-11.4056
▁비위	-11.4056
▁19	-11.4058
▁태어나게	-11.4059
▁깍	-11.4059
▁말씀하시지	-11.4059
▁과거	-11.4061
▁속으로	-11.4062
▁띨	-11.4062
▁흙	-11.4062
▁켁	-11.4062
▁똘	-11.4062
▁꼽	-11.4062
▁죽어버리자	-11.4063
▁구라치고	-11.4064
이유	-11.4065
▁고구마	-11.4065
▁부딪	-11.4065
▁인증	-11.4066
▁주겠다	-11.4066
▁내려두	-11.4066
▁드린건데	-11.4067
▁밀었	-11.4069
▁견	-11.4069
▁우리형	-11.4069
▁제꺼	-11.4069
▁팍	-11.407
▁두명	-11.4071
▁눌렀	-11.4071
▁불려	-11.4071
▁사귀자	-11.4072
▁벨트	-11.4073
▁화상	-11.4073
막이	-11.4074
▁못받	-11.4074
▁희망	-11.4075
▁환경	-11.4076
▁쌀	-11.4077
▁부러지	-11.4077
▁개그맨	-11.4078
▁성추행	-11.4078
▁깔아	-11.4079
▁미연씨	-11.4079
▁반짝	-11.4081
▁엉망이야	-11.4081
▁경로	-11.4081
▁놔둬	-11.4081
▁부러뜨릴	-11.4081
▁타줘	-11.4082
▁죽이겠다	-11.4083
▁짤릴	-11.4084
▁여자친구한테	-11.4085
▁회식에서	-11.4085
▁버튼	-11.4086
▁나가겠습니다	-11.4087
▁퍼트리	-11.4088
▁오라	-11.409
갈때	-11.409
▁부탁입니다	-11.4091
▁가줄	-11.4091
▁고맙게	-11.4092
▁이번주까지	-11.4092
▁씻고다녀	-11.4092
▁겁먹	-11.4092
▁이것부터	-11.4093
▁뻔뻔하네	-11.4094
▁고아인	-11.4094
▁작품	-11.4094
▁까라고	-11.4094
▁설치하	-11.4097
▁말씀드리기	-11.41
▁있기	-11.4101
▁거절할	-11.4101
▁그것만	-11.4101
▁참고서	-11.4102
▁때리지만	-11.4103
▁낮에	-11.4104
▁예산	-11.4106
▁별명	-11.4107
볼테니	-11.4107
▁법적	-11.4107
▁이칼	-11.4108
▁버렸어요	-11.4108
▁주신거	-11.4108
▁쉽지	-11.4112
▁티어	-11.4113
딱지	-11.4115
안으로	-11.4116
오물	-11.4118
▁젊은것들	-11.4122
▁누구하나	-11.4124
▁덕분이	-11.4124
▁내릴	-11.4126
▁전재산	-11.4126
곳에	-11.4126
▁알것	-11.4127
▁돌려받	-11.4127
▁사야된다	-11.4129
햇어	-11.4129
▁사먹고	-11.4129
▁죽여줄	-11.4129
▁살만한가	-11.4131
▁놀면	-11.4132
▁서운한	-11.4132
▁차릴래	-11.4134
▁놈이랑	-11.4136
▁혼수	-11.4137
피를	-11.4137
▁읽어	-11.4138
▁먹다가	-11.414
▁일당	-11.4143
나도	-11.4145
▁불편하신	-11.4146
▁세일	-11.4147
▁원해	-11.4147
▁갈았	-11.4148
▁이새	-11.4151
▁가스	-11.4151
▁해주시	-11.4152
▁이장	-11.4153
▁믿겠	-11.4153
▁안들리	-11.4154
▁노는데	-11.4157
▁기다려라	-11.4158
▁들어가세요	-11.4158
▁살겠습니다	-11.4159
▁위험해질	-11.416
▁비슷하	-11.4161
▁끊기	-11.4164
하셨네	-11.4164
▁문화	-11.4167
랐어	-11.4169
두깡	-11.417
▁만든거	-11.4171
▁해온	-11.4172
사야되	-11.4172
▁축	-11.4172
▁불참	-11.4173
▁소금이	-11.4173
해줘야	-11.4174
▁사무실에	-11.4176
▁다른남자	-11.4176
▁가지마	-11.418
▁패버리	-11.4183
▁탈출	-11.4184
▁미치는	-11.4184
▁주문한	-11.4185
▁막히	-11.4186
▁하랬지	-11.4187
▁사회성	-11.4189
▁그럴리가요	-11.4192
나보	-11.4192
▁태어났	-11.4193
▁드러워	-11.4193
▁생각해보고	-11.4193
▁뽑자	-11.4195
▁터져서	-11.4195
▁보내겠습니다	-11.4198
올것이지	-11.42
▁하고싶지	-11.42
란거	-11.4202
▁나죽고	-11.4202
모았어	-11.4205
▁찾아오지마	-11.4208
▁썼지	-11.4209
▁만만해보이	-11.4212
▁출근한	-11.4214
털	-11.4215
대지마	-11.4216
▁업계	-11.4216
▁봅	-11.4217
▁이혼하	-11.4218
▁먹여주	-11.4228
▁무슨말을	-11.423
▁병신새끼	-11.4231
왔어야지	-11.4231
▁미안할	-11.4233
▁지분	-11.4233
▁커졌	-11.4234
▁걸어다니지	-11.4234
▁쳤다	-11.4235
이왕	-11.4235
▁나오기	-11.4237
▁어쩐일이	-11.4238
▁들었지	-11.4239
워서	-11.4241
▁안하셨	-11.4241
▁쌔	-11.4241
▁흰	-11.4241
▁지내자	-11.4242
▁저주	-11.4242
보자고	-11.4248
겼어	-11.4251
▁말던지	-11.4253
했니	-11.4256
▁만들라고	-11.4256
▁생겼잖아	-11.4258
▁끝냈어	-11.4262
▁사물함	-11.4265
▁일병이	-11.4267
▁참견	-11.4268
▁나왔다	-11.4268
되냐	-11.4269
▁연락이	-11.4269
▁사주라	-11.4271
▁썩을	-11.4272
▁치아	-11.4272
▁딸이랑	-11.4274
▁안갚	-11.4275
▁지역	-11.4275
▁샵	-11.4277
▁들었으면	-11.4279
▁줘야돼	-11.4281
▁니까짓	-11.4284
▁주임	-11.4284
▁앉게	-11.4284
받으러	-11.4288
▁화장해	-11.4289
▁부탁할	-11.429
▁홍길동	-11.429
▁먹는다	-11.4291
▁규정이	-11.4292
▁않았다	-11.4292
▁어려울것	-11.4295
부로	-11.4295
▁벗어나	-11.4296
주라고	-11.4302
▁보답	-11.4302
▁지구	-11.4302
또	-11.4305
▁환	-11.4308
▁우리나라	-11.4308
▁터져	-11.4312
▁잘못한게	-11.4313
▁볼때	-11.4318
바닥	-11.4322
▁집회	-11.4325
▁불쌍하	-11.4325
▁돌아가셨	-11.4326
▁폰에	-11.4335
▁발급	-11.4337
▁이벤트	-11.4337
오기나	-11.4338
▁불러주	-11.4339
▁곳인데	-11.434
▁도맡	-11.4342
▁같더라	-11.4342
▁살려내라	-11.4347
▁죽인거	-11.4349
이러는거야	-11.4349
▁박아	-11.4355
▁나갔는데	-11.4357
▁말든지	-11.4358
▁바다에	-11.4363
▁일자리	-11.4363
▁엎어	-11.4363
▁아니라구	-11.4375
▁담배좀	-11.4376
▁욕하는	-11.4376
▁없더라	-11.4377
▁신경쓰이	-11.4377
▁말세	-11.4378
들었어	-11.438
탕이	-11.4381
▁쓸모없	-11.4382
▁못하나요	-11.4382
▁안써	-11.4382
▁본거	-11.4383
▁권	-11.4385
▁중요	-11.4386
▁시간이라	-11.4386
▁돌렸어	-11.4386
▁젊은이들	-11.4388
▁당당한	-11.439
▁상품이	-11.4391
▁토나올거	-11.4392
▁화가나	-11.4399
▁이체해	-11.4399
▁군대에	-11.44
▁콜	-11.4403
▁뚫리	-11.4403
실까봐	-11.4403
▁학부모님	-11.4409
리기	-11.441
▁사왔	-11.4411
▁안오는	-11.4413
▁잡네	-11.442
▁도와달라	-11.442
▁뽑아야	-11.4423
▁쯔	-11.4424
▁안들고	-11.443
▁된거	-11.4434
▁했자나	-11.4435
▁될것	-11.4438
▁방침이	-11.4442
▁있겠다	-11.4446
▁상식적	-11.4448
님한테	-11.4448
▁천만	-11.4448
▁고졸이	-11.4451
갔	-11.446
▁마시게	-11.446
▁한장	-11.4461
실에	-11.4461
▁지나갔	-11.4464
▁짜리	-11.4465
▁믿어보	-11.4468
▁쓰냐	-11.4473
▁새끼랑	-11.4473
▁바꿔봐	-11.4475
▁알아먹	-11.4476
▁키우는	-11.4478
▁가르쳐주	-11.4481
▁처음이	-11.4486
▁이정도면	-11.4486
▁하셔	-11.4489
▁귀엽다	-11.449
▁몰랐다	-11.4494
▁옆집	-11.4494
▁남은거	-11.4496
▁드릴게	-11.4498
진데	-11.4502
방향	-11.4502
▁계시는데	-11.4504
거니	-11.4505
▁정우	-11.4507
▁먹을래	-11.4507
▁기대하	-11.4515
▁비어	-11.4516
▁사와야	-11.4517
▁하다니	-11.4518
▁배우님	-11.4529
부분	-11.453
▁아니거든요	-11.4533
▁씨발새끼	-11.4537
▁분이시	-11.4538
▁어린놈	-11.4538
▁하시라고	-11.4539
▁가망	-11.454
천원밖에	-11.4541
바닥에	-11.4544
차렸네	-11.4546
팟	-11.4548
▁뭐하고	-11.4548
▁아작	-11.4549
▁빌리겠다	-11.4549
▁대답하	-11.4551
켜	-11.4553
▁닮았다	-11.4554
▁또래	-11.4557
▁해드릴게요	-11.4565
▁오실	-11.457
▁잘하잖아	-11.4571
▁끄면	-11.4572
▁살살해	-11.4575
▁연습하	-11.4577
▁유서	-11.4582
▁중이라	-11.4586
▁다르잖아	-11.4588
▁그런식이	-11.4589
▁뚱뚱한거	-11.459
▁하겠어요	-11.4591
▁주인	-11.4592
▁컵	-11.4593
▁한가한	-11.4596
벽에	-11.4597
▁애좀	-11.4601
▁늙었	-11.4603
▁숨겨	-11.4606
▁되겠냐	-11.4612
▁먹냐	-11.4614
▁잘라버리	-11.4615
▁결혼식이라	-11.4616
▁놀러왔	-11.4633
▁모욕적	-11.4635
▁타령	-11.4638
▁알려주는거	-11.4639
▁기다릴	-11.4639
▁재고	-11.4639
▁싫어하는	-11.4642
▁민망하	-11.4642
▁올라왔	-11.4644
와중에	-11.4644
▁오는거야	-11.4652
▁포기하	-11.4652
▁주무	-11.4654
▁정말이	-11.4658
▁바뀌었	-11.4661
쉬고	-11.4662
▁입히	-11.4664
해야돼	-11.467
는거냐	-11.4672
플	-11.4672
▁쏴버리	-11.4675
▁키도	-11.4676
▁하겠네	-11.468
은건데	-11.4683
▁수고해	-11.4685
▁개봉	-11.4687
▁길게	-11.4687
▁들리겠	-11.4687
행사	-11.4688
▁이야기하	-11.469
▁안그러	-11.4691
▁알릴	-11.4692
▁쥐어	-11.4695
▁잘못한건	-11.4695
▁방향이	-11.4698
▁납	-11.4699
▁처맞고	-11.47
▁체육시간	-11.4701
▁뽑아와	-11.4702
▁갚을거	-11.4702
▁사올게	-11.4708
거라도	-11.471
▁만났어	-11.4711
▁그럼그럼	-11.4711
▁못치	-11.4715
▁한다니	-11.4715
▁해주신다	-11.4717
다구	-11.4719
▁갔다올	-11.472
▁타이	-11.4721
▁모욕	-11.4721
▁인터넷이라	-11.4722
▁먹어주	-11.4723
▁기르	-11.4724
▁약속한	-11.473
▁나오는거	-11.4731
▁지랄하	-11.4735
▁맞추	-11.4736
▁어리버리하	-11.4736
▁일한	-11.4739
▁까먹었	-11.474
교시	-11.4751
▁돈주면	-11.4753
▁참는다	-11.4755
좋아졌다	-11.4756
▁않겠다	-11.4762
버리고	-11.4762
주기로	-11.4763
병원	-11.4771
▁죽자는거	-11.4771
해보시던가	-11.4772
수있어	-11.4774
▁쏴버릴	-11.4776
▁마셔야	-11.4778
▁사기치	-11.478
▁싸가지없는	-11.4781
▁찢어버리	-11.4782
▁그런가봐	-11.4782
▁옳지	-11.4782
▁잃어버	-11.4783
▁자식새끼	-11.4785
함에	-11.4789
지야	-11.4791
▁뻔뻔	-11.4792
▁주말이라	-11.4794
▁전날	-11.4808
▁물은	-11.4809
셔야해요	-11.4811
▁야비	-11.4813
▁생겨가지	-11.4814
▁해줄래	-11.4814
아들을	-11.4815
▁쪼잔	-11.4816
▁죽일거	-11.4818
먹을	-11.482
▁담요	-11.4823
편하잖아	-11.4828
백	-11.4828
▁구리	-11.4828
▁할줄	-11.4829
똥이	-11.483
▁뭐하자는거	-11.4831
▁쓰레기가	-11.4838
한다는	-11.4844
▁쉽다	-11.485
나가서	-11.4851
▁푸하하	-11.4853
▁너야	-11.4854
▁사내	-11.4854
부장님	-11.4855
▁낙하산이라	-11.4863
하는건가	-11.4866
▁찾으면	-11.4866
▁칭찬이	-11.4876
더군	-11.4876
▁사람이네	-11.4877
치자	-11.4877
되었	-11.4878
▁너무들	-11.4879
다면서	-11.4881
일이잖아	-11.4886
▁해줄수있	-11.4886
▁어려	-11.4888
▁개인사정이	-11.4889
▁석탄이	-11.4889
▁실험	-11.4891
▁입상	-11.4895
▁국	-11.4898
▁발뺌하	-11.4898
▁팀장이	-11.49
▁탕	-11.4902
▁아니겠지	-11.4904
▁맛보	-11.4905
서는	-11.4905
심하네	-11.4908
▁남았어	-11.491
하기도	-11.4913
▁놈이야	-11.4914
▁들어줄	-11.492
▁갈수	-11.4921
주는건데	-11.4922
▁배웠어	-11.4928
▁확인했	-11.4928
▁속상하	-11.4929
봐줘	-11.4931
마비	-11.4943
▁공원	-11.4944
▁꼬시	-11.4946
▁잘나가	-11.495
중이라	-11.4951
▁먹으려고	-11.4954
▁날려	-11.4957
▁급한일이	-11.4961
▁당당	-11.4967
▁반에	-11.4967
▁사람인	-11.497
▁직전	-11.4971
▁뽕	-11.4979
▁잘라줄	-11.4979
시킬게	-11.4981
▁개같	-11.4982
▁생각해볼게	-11.4983
할것같아	-11.4985
보는	-11.4987
▁없나보	-11.4987
못하는	-11.4991
▁건강한	-11.4992
준대	-11.4993
딸	-11.4993
신고	-11.4994
▁내줘야	-11.4999
겠군	-11.5
저래	-11.5
값을	-11.5007
▁사랑했	-11.5008
▁단지	-11.5011
▁뭐라고했어	-11.5012
▁퇴	-11.5018
▁보낼테니	-11.5019
▁하시려	-11.5025
▁코도	-11.5025
자란	-11.5026
▁그럴께	-11.5027
▁현지	-11.5032
▁열심히해	-11.5032
차가	-11.5036
▁늘었	-11.5037
얼굴	-11.5043
새끼들	-11.5046
어디서	-11.5056
▁그거까지	-11.5056
▁알려지	-11.5057
학생이라	-11.5066
▁아닌가보	-11.5069
▁해드려	-11.5069
▁고소할	-11.507
드시고	-11.507
▁못먹는	-11.5073
▁까부	-11.5074
▁필	-11.5076
▁물건들	-11.5076
▁공장에	-11.5089
▁부를	-11.509
▁큰일이	-11.5091
▁토달	-11.5098
받으면	-11.5098
▁밀어버리	-11.5102
▁까먹	-11.5104
▁병원이	-11.5104
▁고객센터에	-11.5111
▁혐오스러	-11.5118
▁화장실에	-11.5121
▁이것들	-11.5127
▁간병	-11.5129
▁교실에	-11.5129
▁우리회사	-11.5135
▁편한	-11.5135
▁팔자	-11.5137
▁상한	-11.5138
번째야	-11.5138
오지	-11.5139
▁안아프	-11.5141
▁탄	-11.5144
▁내줘	-11.5148
▁해야하나	-11.515
하기에	-11.515
걸었으면	-11.5151
▁타자	-11.5151
살아요	-11.5154
▁데이트하	-11.5156
사님	-11.5163
▁차별하	-11.5164
상태로	-11.5168
▁걷어	-11.5174
▁윗사람이	-11.5176
▁성사	-11.5179
▁아니라면	-11.5182
▁무료	-11.5182
▁시작했어	-11.5196
그런가	-11.5203
▁아시나	-11.5206
▁장모님	-11.5215
자기	-11.5218
▁발라보	-11.522
대가	-11.5221
▁되었나	-11.5222
▁생일인	-11.5228
아빠	-11.5228
▁계정이	-11.5234
장난	-11.5236
▁후배들	-11.5239
되서	-11.5248
말했다	-11.5253
▁어긋나	-11.5258
말아주세요	-11.5261
▁행복	-11.5262
▁밤이	-11.5264
▁사야되	-11.5268
말한것	-11.5272
아는데	-11.5275
고객님	-11.5277
▁바닥에	-11.528
▁미치겠	-11.5281
▁넉넉하	-11.5288
▁지금이	-11.5299
▁때릴	-11.5301
▁여성	-11.5301
▁불쾌하	-11.5304
▁왔나	-11.5309
▁생명이	-11.531
진다고	-11.5315
▁해오라	-11.5323
▁까불지	-11.5329
셨네	-11.533
줄수있	-11.5339
▁정확하	-11.5341
▁때린	-11.5344
▁나원	-11.5344
▁거기로	-11.5344
▁차가운	-11.5345
▁수입	-11.5346
▁지옥이	-11.5348
▁먹었나	-11.535
▁닫아	-11.5352
▁울려	-11.5352
▁꾸	-11.5354
▁되는걸	-11.5356
▁댁이	-11.5358
시키지	-11.5363
▁드세	-11.537
▁퇴근하는	-11.5371
▁차장	-11.5375
▁몰아가	-11.5376
▁이것보	-11.5378
▁거면서	-11.538
하란말야	-11.538
▁넘었	-11.5381
▁이새끼는	-11.5385
달에	-11.539
▁회사일이	-11.5392
▁사줄	-11.5393
▁부정	-11.5396
▁놓아	-11.54
똑바로	-11.5404
가려면	-11.5404
▁애니	-11.5405
▁너희집	-11.5412
▁학원가	-11.5416
▁토할	-11.5422
떨어져	-11.5433
▁마무리되	-11.5438
▁고마워요	-11.5441
▁개인사	-11.5446
▁봉	-11.5447
▁미친거	-11.5451
▁숨기	-11.5455
▁소개해	-11.5466
▁말라	-11.5471
▁남았다	-11.5473
좀하자	-11.5475
▁모를거	-11.5476
부를	-11.5476
▁같으	-11.5482
쁘네	-11.5486
▁뽑아버리	-11.5492
▁죽여버리겠	-11.5494
▁해준다는	-11.5495
▁멀었	-11.5498
▁부족한거	-11.55
▁요	-11.5505
심한데	-11.5505
▁삼만원	-11.5506
료	-11.5507
줄꺼면	-11.5507
▁따라한다	-11.5509
▁에어팟	-11.5509
어도	-11.551
▁값을	-11.5512
렸	-11.5514
▁어디갔	-11.5517
대학	-11.5518
개소리야	-11.552
▁사람이라	-11.5524
십시요	-11.5528
▁안나왔	-11.5528
▁잘못해서	-11.5529
위반	-11.5532
▁되어야	-11.5532
▁0000	-11.5533
▁얼마인데	-11.5535
하셔야	-11.5538
10	-11.554
▁어울리는거	-11.554
▁된다면	-11.5544
학원	-11.5544
▁들어봐	-11.5545
푸는	-11.5552
드리죠	-11.5557
▁통금시간	-11.5562
▁벌어오	-11.5572
▁지켜봐	-11.5584
▁털려	-11.5585
보려고	-11.5588
지기	-11.5594
이봐	-11.5597
▁준비됐	-11.5599
돈을	-11.56
▁나가기	-11.5608
▁돈줘	-11.5609
니요	-11.561
▁지정	-11.5615
▁않겠지	-11.5616
고등학교	-11.5617
기까지	-11.5619
버릴꺼야	-11.562
▁해보시	-11.5624
▁된다는	-11.5637
▁벌려	-11.564
초안	-11.5645
▁영수증이	-11.5652
올게요	-11.5653
▁여자애	-11.5653
와요	-11.5654
봤잖아	-11.566
하나만	-11.566
▁술집에	-11.5662
▁남아있	-11.5662
▁소리지르	-11.5668
태도	-11.5669
▁일머리	-11.5676
그랬어	-11.5681
▁나한	-11.5684
학생	-11.5684
믿고	-11.5685
▁반복	-11.5685
안돼요	-11.5689
▁다가오지	-11.5694
▁귀여운	-11.5699
▁보죠	-11.5699
▁죽어서	-11.5699
▁무슨일인가	-11.5706
출	-11.5708
▁입어야	-11.5714
니께	-11.5715
▁믿는	-11.5717
▁안오	-11.5717
▁혼날	-11.5719
마음	-11.572
아저씨	-11.5721
▁게임이	-11.5723
▁샤워	-11.5725
▁생명	-11.5726
▁희생	-11.5733
▁빡치	-11.574
야하는거	-11.574
▁구질구질	-11.5745
▁당한	-11.5751
▁두분	-11.5756
▁참을	-11.576
민아	-11.576
▁맛있다	-11.5763
▁말해주는	-11.5764
▁지은	-11.5772
▁아프신	-11.5776
놓던가	-11.5781
▁괴롭히다	-11.5783
▁거짓말치	-11.5786
손	-11.5788
호에	-11.5791
▁행복한	-11.5791
▁고생이	-11.5793
▁달래	-11.5794
망	-11.5803
보시	-11.5804
▁착해	-11.5813
▁인생에	-11.5814
▁넘기는	-11.5819
돈인데	-11.5821
▁위험	-11.5822
바꿔	-11.5823
▁안할	-11.5826
▁못하겠네	-11.5826
▁삼백충	-11.5826
▁벌어야	-11.5828
있어야	-11.5833
수술	-11.5835
▁다닌거	-11.5842
▁길이었	-11.5843
사용	-11.5844
▁빨아	-11.5847
▁섞어	-11.5848
▁살다	-11.5859
▁똑	-11.5861
하실거	-11.5863
넘	-11.5863
기네	-11.5877
교육	-11.5879
▁보냈어	-11.5881
▁어림없	-11.5885
따위	-11.5888
하는걸	-11.589
▁안준	-11.5895
▁지워주	-11.5899
이래	-11.59
▁봐주는	-11.5906
할겁니다	-11.5906
▁봐주라	-11.5909
▁교실	-11.5915
▁이러시는거	-11.5923
▁보내드릴	-11.5924
먹었잖아	-11.5928
▁막으	-11.5931
아버지	-11.5935
▁시골	-11.5935
밝히지	-11.594
▁미치	-11.5952
자는	-11.5954
▁글러먹었	-11.5956
▁망가	-11.5967
하시네	-11.5973
▁수영	-11.5977
▁낙태	-11.5984
▁떼워	-11.5986
▁없는놈	-11.5987
▁보낸다	-11.5989
▁올려놓	-11.599
▁고객센터	-11.5991
너는	-11.5992
▁한가하	-11.5999
알바	-11.6002
친거	-11.601
▁부족	-11.6013
못했는데	-11.6017
▁낙하산	-11.6017
▁미진	-11.6023
이제	-11.6034
올래	-11.6034
▁원칙	-11.6039
▁무시한	-11.604
하는것	-11.6043
영상	-11.6044
▁대출이	-11.6048
▁받아주	-11.6051
▁뽑은	-11.6052
▁존중	-11.6062
가시면	-11.6064
많네	-11.6066
심사	-11.6067
▁치면	-11.6068
▁크기	-11.6069
▁찾는	-11.6081
▁시작해	-11.6083
고마워	-11.6097
먹게	-11.6097
나오	-11.6097
▁놀리는	-11.6105
▁놔두	-11.6111
▁생각하는거	-11.6112
▁공기	-11.6119
▁걷는거	-11.6119
향	-11.612
▁능력있	-11.6125
전화	-11.6126
▁드는데	-11.6127
▁오신다	-11.6127
하던	-11.6133
인생	-11.6135
▁팔로	-11.6139
▁이해해주	-11.6142
공부	-11.6142
▁전세	-11.6145
부분이	-11.6157
흘	-11.6158
가져가	-11.6166
▁왜그래야	-11.617
나왔	-11.6177
나마	-11.618
▁연락드리	-11.6181
사항	-11.6185
신이	-11.6187
화가	-11.6188
▁알아듣는	-11.619
▁세명	-11.6191
▁모르니	-11.6195
카드	-11.6197
▁끊을	-11.6198
애들이	-11.6201
앞에	-11.6203
▁죽을지	-11.6213
▁못봐	-11.6214
받아야	-11.6219
▁돌봐	-11.622
언니	-11.6221
대학교	-11.6221
▁죽일수	-11.6221
▁결혼해야	-11.6224
물건	-11.6224
뒤	-11.6229
짜증나	-11.6231
시게	-11.6234
으려고	-11.6235
▁남에	-11.6241
▁신고한	-11.6246
끝	-11.625
찍	-11.6251
▁똑똑	-11.6253
아침	-11.6255
내려	-11.6259
을거	-11.626
프로젝트	-11.6266
▁거절하	-11.6268
능	-11.6268
▁소설이	-11.627
▁안전하	-11.627
▁안주시	-11.6275
▁17	-11.6276
▁돌려줘야	-11.6282
▁욕먹는거	-11.6285
자료	-11.6289
▁눈깔이	-11.6289
남편	-11.6291
▁탁	-11.6291
쎄	-11.6295
▁내맘	-11.6296
▁괴롭히고	-11.6299
▁너같	-11.6302
▁못차리	-11.6307
▁개봉하	-11.6311
▁만만	-11.6316
소문	-11.632
오래	-11.6324
▁피드	-11.6326
▁무릎이라	-11.6328
▁한심해	-11.6328
들어오라고	-11.6337
▁사람아	-11.6339
▁졌	-11.6351
▁속상	-11.636
▁짬	-11.636
욕	-11.6362
▁가능하다	-11.6362
▁해봐도	-11.6368
▁내놓는	-11.6369
▁제삿날	-11.6372
안하	-11.6376
▁칼이	-11.6378
꺼면	-11.6378
▁불가능해	-11.638
블	-11.6382
▁못나오	-11.6382
담	-11.6384
해드릴	-11.6385
▁때리는	-11.6387
▁시킨다	-11.6388
▁가르쳐	-11.6389
았	-11.6395
6	-11.6404
총	-11.6406
▁비우	-11.6411
▁때문	-11.6412
▁파는	-11.6413
▁모를줄	-11.6414
▁어리	-11.6414
줘야해	-11.6417
▁바른	-11.6419
뜻	-11.643
▁안하겠다	-11.6433
▁놈이라	-11.6434
▁서두르	-11.6436
아이가	-11.6437
쿠	-11.6439
▁안돌아가	-11.6439
흐	-11.6439
쉽게	-11.6442
분위기	-11.6446
가져왔어	-11.645
그리	-11.6451
뚱	-11.6454
닥쳐	-11.6457
▁먹일	-11.6459
▁먹어봤	-11.646
▁무슨소리인	-11.6464
▁무섭네	-11.6464
제품	-11.6464
▁입으	-11.6465
▁출신이	-11.6471
▁숨막	-11.6472
핑계	-11.6473
7	-11.6476
서비스	-11.6482
점수	-11.6482
▁안씻	-11.6483
진거	-11.6485
해야하는데	-11.6487
▁니네가	-11.6488
▁보내줬	-11.6489
젓	-11.649
모르	-11.649
목에	-11.6492
▁오백만	-11.6493
▁픽업	-11.6502
▁시정	-11.6505
▁이런식	-11.6506
▁잘하네	-11.6507
게임	-11.6507
▁민망	-11.6512
▁못들은	-11.6516
인것	-11.6516
▁독이	-11.6516
▁쳐봐	-11.6519
자금	-11.6522
빗	-11.6524
거고	-11.6527
▁식	-11.6528
려드릴게요	-11.6528
▁안될것	-11.6529
▁허튼짓	-11.6529
죽이고	-11.6532
▁썰어	-11.6533
녀석	-11.6534
벌레	-11.6535
버스	-11.6535
▁볼일	-11.6536
▁어떡하라	-11.6537
그게	-11.6538
뚝	-11.6543
조사	-11.6544
명을	-11.6547
▁공부하는	-11.6548
해볼게요	-11.6548
관계	-11.6549
결과	-11.6549
능력이	-11.6552
말든	-11.6556
둘이	-11.6558
백원	-11.6562
섬	-11.6563
▁죽겠다	-11.6564
갑시다	-11.6565
하셨다면	-11.6565
평	-11.6569
길거야	-11.6569
죄송하다면	-11.6572
벼	-11.6572
가세요	-11.6573
초등학교	-11.6574
▁심하십	-11.6577
▁집구석	-11.6578
안할게	-11.6579
▁떨어진다	-11.6582
자체가	-11.6584
욕하고	-11.6585
해주라	-11.6585
▁원하는거	-11.6591
파악	-11.6593
있었어	-11.6593
센	-11.6593
그러냐고	-11.6594
▁환불해드	-11.6598
먹었어	-11.6601
▁점심먹	-11.6601
▁집에갈	-11.6601
▁그러면서	-11.6602
▁돌리	-11.6602
보는데	-11.6604
실력	-11.6607
암	-11.6609
꽁	-11.661
룸	-11.661
됏	-11.661
▁농구	-11.6612
캐	-11.6614
▁보내드릴게	-11.6614
겸	-11.6614
콜	-11.6615
▁엉망이라	-11.6615
▁멋	-11.6615
▁체	-11.6616
▁나가지	-11.6616
▁찾아올	-11.662
썼는데	-11.662
▁죽여야	-11.6621
닮은	-11.6621
▁겪	-11.6622
삼	-11.6622
▁괜찮으시	-11.6624
일병	-11.6627
붙었	-11.6627
쯔	-11.6628
하라	-11.6628
관이	-11.6631
펜	-11.6632
자리에	-11.6633
환	-11.6635
▁끝나는	-11.6635
앱	-11.6639
괴	-11.6639
시려고	-11.6641
▁사귄	-11.6641
▁용서해주	-11.6642
▁올린건	-11.6643
▁써주	-11.6643
사이트	-11.6646
셋	-11.6646
핫	-11.6647
▁찢	-11.665
▁뽑아오	-11.6653
▁구매해	-11.6654
났다	-11.666
▁딸리	-11.6661
규	-11.6663
▁원하시	-11.6663
▁주인이	-11.6664
맞냐	-11.6665
▁쫓아갈거	-11.6665
지게	-11.6665
▁집착	-11.6666
얼	-11.6667
클	-11.6673
▁공부하	-11.6673
주는거	-11.6675
▁두고왔	-11.6675
▁자격	-11.6675
▁상식	-11.6678
해야하는	-11.6679
사인	-11.668
하고있어	-11.669
▁막혔	-11.6691
▁물려	-11.6695
된거	-11.6698
▁말이니	-11.6699
▁지나치다	-11.6699
정리	-11.6704
▁안되네	-11.6708
▁알겠으니	-11.6709
듣겠다	-11.671
향이	-11.6711
▁만지지	-11.6713
해놔	-11.6714
▁숨쉬	-11.6714
다녀오	-11.6718
릴까	-11.6723
렸어	-11.6724
▁이직	-11.6734
축	-11.6734
▁인사해	-11.6743
맞자	-11.6746
▁독약이	-11.6747
▁구할	-11.6748
런	-11.6755
▁장애인들	-11.6756
▁일일	-11.6758
뜨고	-11.6759
주나	-11.676
▁짤라	-11.6764
준다니까	-11.6764
▁의심하	-11.6765
선배들	-11.6779
▁출근하지	-11.6782
▁쳐맞는	-11.6783
▁뭐하시는거	-11.6786
사정	-11.6788
▁다른걸	-11.679
▁출근하는	-11.679
▁욕한	-11.6796
해줄수	-11.6796
▁승진하고	-11.6797
▁납품	-11.6797
▁홍길동이	-11.6798
좌	-11.68
▁아니였	-11.6801
▁자퇴	-11.6801
▁놔주	-11.6805
마셔	-11.6806
▁알려줬	-11.6807
▁없으셨	-11.681
▁구입	-11.6811
▁장가	-11.6812
▁잊었나	-11.6819
울래	-11.6819
▁야근하면	-11.682
▁재능	-11.6822
냔	-11.6823
비가	-11.684
▁냈다	-11.6842
셨던데	-11.6844
아야지	-11.6848
▁수사	-11.685
봤	-11.6852
▁밝은	-11.6852
▁심부름이	-11.6856
▁마주치	-11.6861
털려	-11.6862
닮아	-11.6864
빠져	-11.6865
다리로	-11.6869
랄	-11.6872
▁늘어	-11.6872
▁죄인	-11.6878
▁물어보시	-11.6889
▁볼게	-11.6891
있다가	-11.69
▁가셨	-11.6901
▁단골	-11.6902
▁지출	-11.6905
비서	-11.6912
까짓게	-11.6914
▁준비할게	-11.6924
버리자	-11.6925
▁결혼식이	-11.6925
▁태어났으	-11.6928
을테니까	-11.6931
쥐마	-11.6934
든거	-11.6939
▁달라구	-11.694
▁학원다니	-11.694
▁메이	-11.6953
▁기다려야	-11.6962
▁건드	-11.6962
▁나오셨	-11.6966
점에서	-11.6967
▁없는것	-11.6969
버려서	-11.697
▁장어	-11.6977
▁잃고	-11.698
▁닿	-11.6984
버리겠어	-11.6984
이쁘다	-11.6988
백만원	-11.6988
갈까요	-11.699
었나봐	-11.6992
틀리	-11.6995
▁흥분해	-11.6997
주게	-11.7001
하는건데	-11.7005
져요	-11.7015
▁뒤쳐지	-11.702
▁사나	-11.7025
▁말하네	-11.7029
▁게시	-11.703
어보자	-11.7033
▁못보	-11.7033
▁최신	-11.7033
▁힘들것같	-11.7034
버릴거라고	-11.7035
해가지고	-11.7036
뻔했	-11.7036
▁못찾	-11.7036
▁꼬맹	-11.7039
자를	-11.7042
▁색깔이	-11.7042
▁그놈	-11.7044
▁선물이	-11.7044
▁바람피는	-11.7045
▁방해하	-11.705
고만	-11.7053
▁살아있	-11.7056
▁다섯	-11.7057
▁진지충	-11.706
했을	-11.7063
이죠	-11.7065
▁못받았	-11.7066
▁쓰레기통	-11.707
갔잖아	-11.7076
▁줍	-11.7077
않아	-11.7077
▁방향	-11.7078
▁장사하면	-11.7078
▁고용	-11.7081
▁챙길	-11.7082
▁환불해달라	-11.7083
다니네	-11.7085
▁다니시	-11.7092
▁정선생	-11.7093
▁나가야	-11.7093
껀	-11.7094
▁낫겠	-11.71
▁커플	-11.7103
▁동창	-11.7103
▁저봐	-11.7103
했다니까	-11.7106
사냐	-11.7108
▁포함	-11.7111
▁시간있어	-11.7116
흐흑	-11.7117
슴	-11.7118
▁빨개	-11.712
▁빠져나	-11.7121
▁신어	-11.7122
거같습니다	-11.7124
맞아야	-11.7127
▁시일	-11.713
▁만져	-11.7133
인줄알았	-11.7133
실텐데	-11.7138
▁같잖아	-11.714
▁자위	-11.7142
▁틀렸다	-11.7143
▁진짠	-11.7144
▁고려해	-11.7148
했거든	-11.715
▁물고	-11.7154
가는건	-11.7159
▁재워	-11.7159
▁패고	-11.7168
▁너같으	-11.717
▁골목에	-11.7171
▁전공	-11.7172
▁맘충	-11.7175
▁틀렸	-11.7182
청	-11.7183
▁없는걸	-11.7183
▁안갚으	-11.7186
꾼	-11.7186
갖고와	-11.7192
▁쓰는거	-11.7194
라니까요	-11.7194
등이	-11.7195
▁하민씨	-11.7197
▁잘생각하	-11.7197
▁잘했어	-11.7197
▁주시는	-11.7198
부탁	-11.7199
▁뜨는	-11.7202
▁끼어	-11.7203
눠	-11.7205
드려야	-11.7205
▁어울리는	-11.7206
▁느려터져	-11.7206
▁직	-11.7208
▁와요	-11.7211
▁청소하	-11.7211
들게	-11.7213
열어	-11.7215
어지는	-11.7217
▁휴가도	-11.7218
▁사도	-11.7218
숭	-11.7218
▁커피타	-11.722
잼	-11.7221
▁핀	-11.7221
▁신고할꺼	-11.7226
▁뭐하게	-11.7226
혔	-11.7227
▁송대리	-11.7228
▁밤새	-11.7229
깟	-11.7231
겄	-11.7233
▁궁	-11.7233
마른	-11.7235
▁호주머니	-11.7236
려구	-11.7236
▁민선	-11.7237
▁괴롭혔	-11.7237
▁망했	-11.7239
▁변명이	-11.724
▁취소할	-11.7242
▁누락	-11.7244
량	-11.7246
▁썰	-11.7247
있다고	-11.7247
▁바꿔와	-11.725
▁학폭	-11.725
▁마약하	-11.7255
▁따뜻	-11.7257
▁물품	-11.7258
▁땡땡	-11.7259
금이	-11.7266
▁미뤄	-11.7266
▁아이디	-11.7266
폭	-11.7266
▁어렸을	-11.7267
궈	-11.7268
▁쏟아	-11.7268
찰	-11.7268
▁밝혀	-11.7269
▁최소	-11.7269
샘	-11.727
링	-11.727
▁엉망진창	-11.727
▁뒤치다꺼리	-11.727
▁바뀐	-11.727
▁쌌	-11.727
▁주민센터	-11.727
꾹	-11.727
▁간섭	-11.727
▁견과류	-11.727
▁곰	-11.727
▁구구절절	-11.727
▁구체적으로	-11.727
▁금칠이라도	-11.727
▁기획표	-11.727
▁낯	-11.727
▁내쫓	-11.727
▁노처녀	-11.727
▁덧	-11.727
▁동그랗게	-11.727
▁두둑	-11.727
▁디자인	-11.727
▁랭킹	-11.727
▁몫	-11.727
▁뭍	-11.727
▁미룰	-11.727
▁배달어플	-11.727
▁봣	-11.727
▁불륜	-11.727
▁붉	-11.727
▁붕어빵	-11.727
▁블라우스	-11.727
▁비타음료	-11.727
▁비호감	-11.727
▁뺑소니	-11.727
▁뽀	-11.727
▁삐뚤어	-11.727
▁삿	-11.727
▁상무님	-11.727
▁손찌검	-11.727
▁스탑	-11.727
▁신사임당	-11.727
▁쏜다	-11.727
▁아티스트	-11.727
▁안쪽팔리	-11.727
▁앓	-11.727
▁애니메이션	-11.727
▁얹	-11.727
▁엘레베이터	-11.727
▁열애설	-11.727
▁오지랖	-11.727
▁와이파이	-11.727
▁왼쪽	-11.727
▁유부남	-11.727
▁유심칩	-11.727
▁이니셜	-11.727
▁이여편네	-11.727
▁인스타그램	-11.727
▁재평아	-11.727
▁적반하장이	-11.727
▁지긋지긋해	-11.727
▁쫓겨나	-11.727
▁큭큭	-11.727
▁토스트기	-11.727
▁통행료	-11.727
▁튕겨	-11.727
▁하청업체	-11.727
▁황천길	-11.727
갸	-11.727
곡	-11.727
괘	-11.727
굉	-11.727
균	-11.727
꼈	-11.727
넓	-11.727
노릇	-11.727
늠	-11.727
댈	-11.727
럐	-11.727
만훼	-11.727
밭	-11.727
밴	-11.727
봄	-11.727
셧는데	-11.727
씸	-11.727
왓	-11.727
이큐	-11.727
쟈	-11.727
▁가맹점	-11.727
▁겉	-11.727
▁근질근질	-11.727
▁내부고발	-11.727
▁얼버무	-11.727
▁오탈자	-11.727
▁쪘	-11.727
▁참다참다	-11.727
▁치뤄야	-11.727
▁캐주얼	-11.727
▁쿵쾅	-11.727
▁피씨방	-11.727
▁해독제	-11.727
▁후줄근	-11.727
▁낄낄	-11.727
▁보이스피싱	-11.727
▁뺨	-11.727
▁수수료	-11.727
▁시치미	-11.727
기저귀	-11.727
▁묻느냐	-11.727
▁인권침해	-11.727
▁지렁이	-11.727
▁째려봤	-11.727
▁폭언	-11.727
▁160	-11.727
▁눈동자	-11.727
▁뒷감당	-11.727
▁수포자	-11.727
▁앨범	-11.727
▁찔렀	-11.727
▁팍팍	-11.727
▁미술학원	-11.727
▁베란다에	-11.727
▁샌드백	-11.727
▁김치찌개	-11.727
▁익숙	-11.727
▁하느님	-11.727
▁뜨거웠	-11.727
▁기절놀이	-11.727
▁신체포기각서	-11.727
▁저능아	-11.727
▁집합시켜	-11.727
▁커플링	-11.727
렌즈	-11.727
282	-11.727
▁탑승	-11.727
▁허위사실	-11.727
▁교통카드	-11.727
▁연가썼	-11.727
▁얼마짜린	-11.727
▁짭새	-11.727
▁특성화	-11.727
▁티켓팅	-11.727
▁리스트	-11.727
▁주민등록증	-11.727
▁나체사진	-11.727
▁몽골	-11.727
▁껌값이	-11.727
▁동태탕	-11.727
▁왔다갔다	-11.727
렉스	-11.727
▁댄스	-11.727
▁믹스커피	-11.727
▁셀카	-11.727
▁지적장애	-11.727
▁덜렁거리	-11.727
▁빨간색이	-11.727
▁수고하셨습니다	-11.727
▁우스운	-11.727
▁창녀	-11.727
▁헛수고	-11.727
▁견학	-11.727
▁퇴출	-11.727
▁쓸어담	-11.727
▁직장동료	-11.727
▁쪼끄	-11.727
▁행패	-11.727
▁시말서	-11.727
▁찐빵	-11.727
▁공개수업	-11.727
▁자녀분	-11.727
▁구더기	-11.727
▁배달시켰	-11.727
▁쉬쟁이	-11.727
▁홍보	-11.727
▁도둑취급	-11.727
▁폭파시킬	-11.727
▁안될꺼같	-11.727
▁스킬	-11.727
▁공기밥	-11.727
▁괴로워	-11.727
▁얼레리	-11.727
▁쳐다볼	-11.727
▁귀여워	-11.727
▁전자기기	-11.727
▁정신못차렸네	-11.727
▁두렵	-11.727
▁무시당할	-11.727
▁부숴버린다	-11.727
▁청결	-11.727
▁강희씨	-11.727
▁길동샐러드	-11.727
▁리포트	-11.7271
▁여럿	-11.7271
▁유미엄마	-11.7271
▁맞선임	-11.7271
▁이래라저래라	-11.7271
▁토쏠	-11.7271
▁배부르	-11.7271
▁평범	-11.7271
▁농약	-11.7271
▁털끝	-11.7271
▁느낀	-11.7271
▁잘못건들	-11.7271
▁강원도	-11.7271
▁탈탈	-11.7271
▁독단적	-11.7271
▁절도죄	-11.7271
▁배때기	-11.7271
▁바람폈	-11.7271
▁배짱	-11.7271
▁적합하	-11.7271
▁국회	-11.7271
▁깜짝	-11.7271
▁며늘	-11.7271
▁호랑이	-11.7271
▁저금통	-11.7271
▁몇갠데	-11.7271
▁버스카드	-11.7271
▁슬퍼	-11.7271
랍니다	-11.7271
▁흑흑흑	-11.7271
▁미제출	-11.7271
▁서둘러	-11.7271
▁올라갔	-11.7271
▁겸손	-11.7271
▁깨졌다	-11.7271
▁의료	-11.7271
▁임원직	-11.7271
▁투성이	-11.7271
▁법카	-11.7271
▁퇴직금	-11.7271
▁넘어뜨	-11.7271
▁험한꼴	-11.7271
▁보험회사	-11.7271
▁경찰부르	-11.7271
▁사마귀	-11.7271
▁외할머니	-11.7271
▁좁	-11.7271
▁미혼	-11.7271
▁미흡	-11.7272
▁물품보관소	-11.7272
▁부딪혀	-11.7272
▁부킹	-11.7272
▁오랫	-11.7272
▁우울	-11.7272
▁게을러	-11.7272
▁팀플	-11.7272
▁문란하	-11.7272
▁결혼반지	-11.7272
▁상환	-11.7272
▁따끔	-11.7272
▁소고기	-11.7272
▁강남	-11.7272
▁학급	-11.7272
▁임금	-11.7272
▁불리할	-11.7272
▁바랍니다	-11.7272
▁매일매일	-11.7272
▁세치기	-11.7272
▁용서해주십시오	-11.7272
▁편해졌	-11.7272
▁화학	-11.7272
▁깐부	-11.7272
▁피해보상	-11.7272
▁직원교육	-11.7272
▁벅차	-11.7272
▁종교	-11.7272
▁받아들여	-11.7273
▁유언	-11.7273
▁집주소	-11.7273
▁과민	-11.7273
▁돌대가리	-11.7273
▁던질	-11.7273
180	-11.7273
▁루머	-11.7273
▁세팅	-11.7273
▁연락안했	-11.7273
▁심부름값	-11.7273
▁권력	-11.7273
▁양선생	-11.7273
▁지각비	-11.7273
▁어지간	-11.7273
▁불가합니다	-11.7273
▁언제갚	-11.7273
▁토나오	-11.7273
▁학점	-11.7273
▁탈모	-11.7274
▁빵꾸	-11.7274
▁노가다	-11.7274
▁금연	-11.7274
▁시청	-11.7274
▁단계	-11.7274
▁환불안해주	-11.7274
▁경고장	-11.7274
▁커피심부름	-11.7274
블러	-11.7274
▁없으신가	-11.7274
▁실체	-11.7274
▁14	-11.7274
▁잘난척	-11.7274
▁못알아쳐먹	-11.7274
▁여러가지	-11.7274
▁지잡대	-11.7274
▁골랐어	-11.7274
▁뛰어내려	-11.7274
▁쫄기는	-11.7274
▁소각	-11.7274
▁마련해보겠습니다	-11.7274
▁치즈	-11.7274
▁차량	-11.7274
▁신용불량자	-11.7274
▁알짱	-11.7274
▁남탓	-11.7275
▁발목	-11.7275
▁피자빵	-11.7275
▁방문	-11.7275
▁꼴보기싫어	-11.7275
▁살벌하	-11.7275
▁보신탕	-11.7275
▁싸우자는	-11.7275
▁알러지	-11.7275
▁찌그러져있어	-11.7275
▁죽게될거야	-11.7275
도장찍	-11.7275
▁피해보	-11.7275
▁이번년도	-11.7276
▁조절	-11.7276
▁요구사항	-11.7276
지뫄	-11.7276
▁많으시	-11.7277
▁생김	-11.7277
▁교통비	-11.7277
▁1500	-11.7277
▁예정이라	-11.7277
▁비열	-11.7277
▁단합	-11.7277
▁끝날때까지	-11.7277
▁김지수	-11.7277
▁달리기	-11.7277
일까	-11.7277
스비	-11.7277
▁사장나오라	-11.7278
▁눈치채	-11.7278
▁소화	-11.7278
▁청년	-11.7278
▁설사	-11.7278
▁시영씨	-11.7278
▁등골	-11.7278
▁카톡방	-11.7278
▁편들어	-11.7278
▁감당해야	-11.7278
▁엘사	-11.7278
리얼	-11.7279
▁까매	-11.7279
▁뽑혀	-11.7279
▁업장	-11.7279
▁안어울린다	-11.7279
▁다리아파	-11.7279
▁당근	-11.7279
▁커버	-11.728
▁할망구	-11.728
▁동동	-11.728
▁말버릇이	-11.728
▁마련하겠습니다	-11.728
▁원영	-11.728
▁길거리	-11.728
▁어린아이	-11.728
▁모여	-11.728
▁시끄러운	-11.728
▁그랫	-11.728
▁교과	-11.7281
▁적당한	-11.7281
▁공중	-11.7281
▁공동	-11.7281
▁다녀준거	-11.7281
▁북한	-11.7281
▁은근	-11.7281
▁회의록	-11.7282
▁넘기겠다	-11.7282
▁마땅	-11.7282
▁믿을수가	-11.7282
▁좋았던	-11.7282
▁밟아	-11.7282
▁쫓아가서	-11.7282
▁가르	-11.7282
▁뛰어놀	-11.7282
▁빚진	-11.7282
자정까지	-11.7283
▁자율	-11.7283
▁안중요하다는	-11.7283
▁입학	-11.7283
▁인턴때	-11.7283
▁이쁨	-11.7283
▁사회적으로	-11.7283
▁입금할게	-11.7283
▁느그	-11.7283
▁계발	-11.7283
견디	-11.7284
▁드러내	-11.7284
▁찍혀	-11.7284
▁메주	-11.7284
▁이팀장	-11.7284
▁분배	-11.7285
▁삼일	-11.7285
▁치사하게	-11.7285
▁우울해	-11.7285
▁담배값	-11.7285
▁한순간	-11.7285
▁빨아입	-11.7285
희씨	-11.7285
▁알몸	-11.7285
▁자기관리	-11.7285
▁그럴것이지	-11.7286
▁주말마다	-11.7286
▁유치	-11.7286
▁정신상태	-11.7286
▁어디사냐	-11.7286
▁화질	-11.7286
▁몸캠이	-11.7286
▁금주	-11.7287
▁소중하다고	-11.7287
▁못쉬	-11.7287
▁생겼나	-11.7287
▁아토피	-11.7287
효과	-11.7287
▁내보내줘	-11.7287
▁쿵쿵거리	-11.7287
▁속아주	-11.7287
▁고추	-11.7287
▁귀찮으니까	-11.7287
▁몇년째	-11.7288
레리	-11.7288
▁필통	-11.7288
▁손잡	-11.7288
▁조선생	-11.7288
▁음침	-11.7288
▁안끝	-11.7288
▁아무런	-11.7289
▁정산	-11.7289
▁신중	-11.7289
▁가벼	-11.7289
▁장난아니네	-11.7289
둘테니	-11.729
공손	-11.729
▁건설	-11.729
털리기	-11.729
▁기안서	-11.729
▁그런거아니에요	-11.7291
▁유미	-11.7291
▁제외	-11.7291
▁나이트	-11.7291
▁마시던가	-11.7291
▁다음달부터	-11.7291
▁가져온	-11.7292
▁잘못되었	-11.7292
▁빨간	-11.7292
웠다고	-11.7292
▁고소하겠습니다	-11.7292
▁아프셔서	-11.7293
▁헤어지잔	-11.7293
▁소문냈	-11.7293
▁청소년	-11.7293
▁당일에	-11.7293
▁상호	-11.7293
▁거짓말한다는	-11.7294
▁잘라버린다	-11.7294
▁환불좀	-11.7294
막내	-11.7294
▁22	-11.7295
▁창자	-11.7295
▁기합	-11.7295
▁잘살았	-11.7295
▁타이어	-11.7295
▁지키겠습니다	-11.7295
▁김사원님	-11.7295
▁공과	-11.7295
▁미워	-11.7295
▁티오	-11.7295
분담	-11.7296
▁채영이	-11.7296
▁멍청해가지고	-11.7296
▁연락하지마	-11.7296
▁차감	-11.7297
▁수박되	-11.7297
▁꽉막혔	-11.7297
▁빌려줄께	-11.7297
▁시대에	-11.7297
▁있느	-11.7297
▁들먹이	-11.7297
▁안쓸	-11.7297
▁같잖	-11.7298
조각	-11.7298
드렸	-11.7298
방울	-11.7299
▁입김	-11.7299
▁땡겨	-11.73
▁솔로	-11.73
▁퇴근할때	-11.73
▁거두는	-11.73
▁전교생	-11.73
▁업무처리	-11.7301
▁실수했나봐	-11.7301
▁샀다며	-11.7302
▁죽을거니까	-11.7302
▁가고싶은데	-11.7302
▁받아들이냐	-11.7302
▁궁해서	-11.7302
▁초보	-11.7303
신건지	-11.7303
▁그랬던	-11.7304
▁인간들	-11.7304
▁소유	-11.7304
▁걸어다녀	-11.7304
▁시선	-11.7304
▁성실	-11.7305
▁온전	-11.7305
▁미친년아	-11.7305
▁호주머니에	-11.7305
▁안나타날게	-11.7305
▁환불해줄	-11.7305
▁육아	-11.7305
▁건방지게	-11.7305
▁우리부서	-11.7305
▁진상	-11.7306
▁가정사	-11.7306
▁망가뜨릴	-11.7306
▁해결하겠습니다	-11.7307
▁무시하지	-11.7307
▁정중	-11.7307
▁안비싸	-11.7307
▁남편에게	-11.7308
▁한주임	-11.7309
▁옳은	-11.7309
▁공감	-11.7309
▁입장에서	-11.7309
▁약먹고	-11.7309
▁킬	-11.731
▁주웠는	-11.731
▁들고온	-11.7311
▁아니라는거	-11.7312
▁도망치	-11.7313
▁세워주	-11.7313
▁지시한	-11.7313
▁싫음	-11.7314
▁다이아	-11.7314
▁입생	-11.7315
▁징징거리	-11.7315
▁안틀	-11.7315
▁망했어	-11.7315
▁소원이	-11.7316
▁절차	-11.7316
▁씻는데	-11.7316
▁이해해줘	-11.7316
▁출근할	-11.7316
▁한대씩이다	-11.7316
▁오백만원	-11.7316
▁찌질아	-11.7317
▁찢어버려야겠	-11.7317
팰거야	-11.7317
▁밤새서	-11.7318
▁화장실이	-11.7318
땡이	-11.7318
▁분실	-11.7318
▁없다면	-11.7318
▁도울	-11.7318
▁진단	-11.7319
▁죽을거라고	-11.7319
▁긴머리	-11.7319
동철	-11.7319
▁죽을거같아	-11.7321
▁사오신거	-11.7321
▁우정이	-11.7321
▁모자르	-11.7321
▁쓰던거	-11.7322
▁앉아있는	-11.7322
▁폭발물	-11.7322
▁한판	-11.7322
전환	-11.7322
▁다시해와	-11.7323
▁취향	-11.7323
▁만져보	-11.7324
▁잊어	-11.7325
▁민석씨	-11.7326
▁장사한지	-11.7326
▁뇌물	-11.7326
▁수습	-11.7326
▁피치	-11.7327
깔깔	-11.7328
▁짤리	-11.7328
▁믿음	-11.7328
▁임	-11.733
농장	-11.733
▁입냄새나	-11.733
▁도끼	-11.733
▁모여서	-11.7331
세포	-11.7331
▁끝내겠습니다	-11.7332
▁알겠다고요	-11.7332
▁돌아올	-11.7332
▁니맘대로	-11.7333
▁수현씨	-11.7333
▁불안해	-11.7333
▁교양	-11.7333
▁세탁	-11.7334
▁모자	-11.7334
▁누락된	-11.7334
▁배달비	-11.7334
▁느려터져서	-11.7334
치지	-11.7335
▁귀신	-11.7335
▁뭐어때	-11.7335
▁생각이란	-11.7335
▁경비	-11.7336
▁알리는	-11.7336
▁살림	-11.7337
▁바보같은	-11.7337
▁한강	-11.7337
▁만든건	-11.7338
▁위치로	-11.7339
▁조금씩	-11.7339
▁뛰어내리	-11.7339
▁최사원	-11.7339
▁해왔다고	-11.7339
▁물러	-11.734
▁찾아내	-11.7341
▁오늘안으로	-11.7342
▁월급받아	-11.7342
▁후회하	-11.7343
▁기세	-11.7343
▁학원비에요	-11.7343
▁오버	-11.7343
▁비켜주세요	-11.7344
▁타겠다	-11.7344
빻았	-11.7345
▁농	-11.7346
▁치르	-11.7346
▁까야지	-11.7346
▁감염시켜	-11.7346
▁실장님	-11.7347
▁주변사람들	-11.7347
▁죽이려고	-11.7348
▁싸왔	-11.7348
▁잡았다고	-11.7349
▁수족	-11.735
▁사라지	-11.735
▁사본	-11.735
방석	-11.7351
▁다른팀	-11.7351
대학이	-11.7352
▁오지마세요	-11.7352
▁안돌려줬잖아	-11.7353
걸어줬더니	-11.7353
▁가만안있어	-11.7353
▁망하는거야	-11.7353
▁새우	-11.7353
▁바지에	-11.7354
▁디질	-11.7354
▁알꺼	-11.7355
▁멀어서	-11.7355
▁나타	-11.7355
▁인연	-11.7355
▁잘지냈	-11.7356
깔이	-11.7356
▁잘되	-11.7356
▁찍어놨	-11.7356
▁나오느라	-11.7356
▁산사람	-11.7357
▁못나갔	-11.7357
▁살려주라	-11.7359
▁사장이랑	-11.7359
▁따른	-11.736
은망	-11.736
▁답장	-11.736
잘못	-11.7361
▁말시키지	-11.7361
▁해당	-11.7362
▁70	-11.7363
▁일주일째	-11.7366
드리지	-11.7366
▁식판	-11.7367
▁비린내	-11.7367
▁가만히있어	-11.7367
▁사연	-11.7367
▁일어났	-11.7367
▁만나지마	-11.7368
▁보이니	-11.737
▁까발릴	-11.7371
▁단정하게	-11.7371
▁타왔	-11.7372
▁보내드렸는데	-11.7372
▁승진에	-11.7372
▁신장하나	-11.7372
▁못볼꺼	-11.7375
▁낮게	-11.7375
▁소리지를	-11.7375
▁싸인을	-11.7375
렀냐	-11.7376
▁단맛	-11.7376
▁얼굴보기	-11.7376
▁걱정되네	-11.7377
▁선물받은거라	-11.7377
▁티켓이	-11.7378
▁안꺼내	-11.7378
▁단톡방	-11.7378
▁반품	-11.7379
▁쪽팔렸	-11.7379
▁경쟁사	-11.7379
▁안들리는	-11.7379
▁폭로한다	-11.7379
▁효도	-11.738
▁현장	-11.7382
▁대는	-11.7382
▁모욕해	-11.7382
▁잠자	-11.7383
▁차렸나	-11.7383
▁주말까지	-11.7384
▁퍼뜨려	-11.7384
▁안떠	-11.7385
▁전공이라	-11.7386
▁추억	-11.7386
▁걱정하	-11.7388
▁살았나	-11.739
▁칼빵	-11.739
▁자격도	-11.7392
▁동의한	-11.7392
▁일급	-11.7393
▁가만두	-11.7393
▁잘보여야	-11.7393
▁가능한	-11.7394
▁내주셔야	-11.7394
▁기능	-11.7394
▁내버려	-11.7394
▁먹으려	-11.7395
▁앞길	-11.7396
▁진짠데	-11.7397
▁터질	-11.7398
▁배우라고	-11.74
▁갈때	-11.7401
분석	-11.7401
▁살던	-11.7402
▁빌려간돈	-11.7402
▁길에	-11.7402
▁깡	-11.7403
▁건드렸	-11.7403
쯧	-11.7403
▁두란	-11.7405
▁딴데	-11.7405
▁잘산다	-11.7407
▁팔아버릴	-11.7407
▁나쁜놈	-11.7407
▁넘어가는	-11.7407
▁확진	-11.7407
▁없어보여	-11.7415
▁나왔어야지	-11.7415
▁먹겠다	-11.7418
▁덮	-11.7418
▁각오해라	-11.7418
▁엄살	-11.7418
이었잖아	-11.7419
거래	-11.742
▁안당해	-11.742
▁많나	-11.742
▁턴다	-11.742
▁근처	-11.742
▁음식점	-11.7422
▁묻히	-11.7422
▁이기는	-11.7424
▁일반	-11.7424
▁토다는거	-11.7425
▁씩	-11.7425
▁보고싶지	-11.7426
성적이	-11.7426
▁기다릴게	-11.7427
▁내딸한테	-11.7427
▁트	-11.7427
▁숙여	-11.7428
▁안가져	-11.7428
▁도망쳐	-11.7429
회사에	-11.7429
▁맡겨두	-11.7429
▁찍히	-11.7431
▁안좋아하는	-11.7432
영이	-11.7432
▁금니	-11.7432
▁월급날	-11.7433
▁횡	-11.7435
▁팩	-11.7436
아하니	-11.7436
▁멍청	-11.7437
▁만나는거	-11.7438
▁휴가쓴다	-11.7438
▁덤	-11.7439
실거	-11.744
▁셀	-11.7441
▁동창이	-11.7441
▁발견했	-11.7442
▁이쁜줄	-11.7443
착오	-11.7443
▁안될것같아	-11.7444
▁안쓰럽지	-11.7444
▁이번만이야	-11.7445
▁모아오라	-11.7445
▁손님보고	-11.7445
▁이쯤	-11.7445
▁뭘했다고	-11.7445
▁발음	-11.7446
▁갱	-11.7446
▁쉴	-11.7446
▁솥	-11.7446
▁항	-11.7447
▁남편이랑	-11.7448
▁징	-11.7449
▁합성	-11.7449
다야	-11.7449
▁혹	-11.7449
▁갈께요	-11.745
▁설명해	-11.745
▁상상	-11.745
▁핑계대는거	-11.745
▁퉁치	-11.7451
▁다음날	-11.7451
▁국밥이	-11.7452
▁멍	-11.7452
▁인계	-11.7454
▁전화할	-11.7454
▁놀까	-11.7456
▁잘해줄게	-11.7456
▁빵사	-11.7456
▁피해준	-11.7457
▁뽀뽀	-11.7457
다니깐	-11.7457
▁증거있나	-11.7457
▁패버리고	-11.7457
빵이	-11.7457
▁연체	-11.7458
▁영역	-11.7458
▁흔적	-11.7458
정품	-11.7459
▁설렁	-11.7459
▁컨닝	-11.7459
▁심정	-11.7459
▁승민	-11.746
사고	-11.746
▁부르라고	-11.746
▁자랐	-11.7461
▁결과로	-11.7461
속도	-11.7462
하라는	-11.7463
▁해주려	-11.7465
마실	-11.7465
▁집들이	-11.7466
지내	-11.7466
▁부끄러워	-11.7467
▁기범이	-11.7468
▁이틀이	-11.7468
▁가봐야해서	-11.7469
▁프로그램	-11.7469
▁못먹겠어	-11.7469
▁망가지	-11.747
▁쪄가지고	-11.747
▁몸뚱이	-11.747
▁선물좀	-11.7471
▁오락	-11.7472
▁극단적	-11.7473
▁썩어	-11.7474
▁죽을줄	-11.7475
▁사직	-11.7475
▁마시라고	-11.7475
▁부를까	-11.7476
▁내껏	-11.7477
▁깠	-11.7478
▁갔다올게	-11.7481
▁놀아주	-11.7482
있으	-11.7484
▁진지충이	-11.7485
▁특별한	-11.7486
▁갈비집	-11.7486
▁그전까지	-11.7487
▁개자식이	-11.7487
▁35	-11.7487
▁될걸	-11.7487
▁고민할	-11.7488
▁신세	-11.7488
▁쓰러지	-11.7488
▁잡히	-11.749
▁거칠	-11.749
▁환불해달라고	-11.7491
▁들켰	-11.7492
▁눈물	-11.7493
대리님	-11.7495
▁시내	-11.7495
▁뛰지	-11.7495
▁작정했어	-11.7496
▁흘리	-11.7498
▁먹었다	-11.7498
▁말씀해주신	-11.7499
▁보고있어	-11.7499
키면	-11.7499
▁컴퓨터에	-11.7501
▁놓치	-11.7502
▁여직원	-11.7502
▁예뻐졌	-11.7506
▁이대리한테	-11.7507
▁괴롭혔다고	-11.7508
▁시간인데요	-11.751
▁보상을	-11.7511
▁처리해야	-11.7511
일한	-11.7512
▁할소리	-11.7512
▁조심할게요	-11.7512
▁그런사람	-11.7513
▁취급할	-11.7513
▁날씬해	-11.7516
▁마실게	-11.7516
▁파티	-11.7517
▁찍는데	-11.7517
000	-11.7518
분내	-11.7518
▁이상형이	-11.752
▁꼬질	-11.752
▁철민	-11.7521
▁나은씨	-11.7521
▁얼마필요	-11.7521
▁호흡기	-11.7523
준씨	-11.7528
▁합니	-11.7529
▁막장	-11.753
▁정상인	-11.7531
▁다니시는	-11.7532
▁필기	-11.7532
▁안보이는데	-11.7534
▁잘모르겠어	-11.7534
▁알려줄수	-11.7536
▁운영하	-11.7539
▁문턱세	-11.7539
▁이사람	-11.7539
나왔나	-11.754
▁울보	-11.7541
하지말	-11.7541
▁말해줄게	-11.7542
▁구매하신	-11.7543
▁말일세	-11.7543
▁재밌는데	-11.7544
▁발치	-11.7545
▁입는거	-11.7545
▁애기야	-11.7545
▁자본	-11.7546
▁승진이라	-11.7547
▁찍자	-11.7547
▁돌아가신	-11.7548
▁건드릴	-11.7548
▁해오세요	-11.7549
▁어따	-11.7551
▁정우가	-11.7551
▁애인있어	-11.7552
▁어렵다고	-11.7555
면에서	-11.7557
▁범죄라고	-11.7558
▁지쳤다	-11.7558
▁하진	-11.756
했던거	-11.756
▁전화하	-11.7561
▁반항하는	-11.7562
▁재혼	-11.7563
▁착용	-11.7563
▁저놈	-11.7564
▁필요한거	-11.7564
▁좌송	-11.7565
▁신어보	-11.7566
▁점심시간인데	-11.7567
▁가족들한테	-11.7567
한장만	-11.7568
▁장사하래	-11.7568
▁다닐때	-11.7568
미안해	-11.7568
▁오며	-11.7569
▁부시	-11.7569
▁바다	-11.7571
▁보낼게	-11.7572
▁맞추고	-11.7573
▁아버지한테	-11.7574
▁신는	-11.7574
▁밀렸	-11.7575
▁부당하다	-11.7576
▁핑	-11.7577
▁받으신	-11.7579
여자애들	-11.7582
▁주장	-11.7582
▁어짜	-11.7587
▁늘리	-11.7587
▁안듣	-11.7589
팔자	-11.7591
▁상도덕이	-11.7592
▁들어가니	-11.7592
▁친하지	-11.7595
▁패기	-11.7596
▁숨겼	-11.7596
▁일등이라	-11.7596
▁돕는	-11.7597
것들이	-11.76
▁고쳐줘	-11.76
▁가봐야지	-11.76
▁도와주는	-11.76
▁오해라고	-11.7601
▁열리	-11.7603
▁위급	-11.7605
▁사생활이	-11.7607
나오지말고	-11.7607
▁쉬었어	-11.7608
이구	-11.7609
▁챙겨야	-11.761
▁꼴통	-11.761
▁살려주지	-11.7611
▁빙	-11.7611
▁저질	-11.7612
▁제거	-11.7612
▁받아라	-11.7617
▁둘러	-11.7617
▁테러	-11.7618
▁있다니	-11.7619
학번	-11.762
▁불쌍하지	-11.7621
▁두배	-11.7621
두겠습니다	-11.7623
▁걸어다닐	-11.7623
▁일년	-11.7624
▁제공	-11.7624
▁민철	-11.7625
▁유포되	-11.7625
▁기다렸어	-11.7626
▁봉사	-11.7627
▁세수	-11.7629
볼거	-11.763
▁비웃	-11.7631
▁나갔다	-11.7632
▁나댔	-11.7632
▁놀았	-11.7633
▁흉기	-11.7635
▁말대답을	-11.7635
▁페	-11.7635
▁알아봤어	-11.7639
▁주겠어	-11.7639
▁저사람	-11.7639
▁어쩌겠다는	-11.7641
▁산거라	-11.7641
▁내가언제	-11.7642
▁통하시네	-11.7642
▁육수	-11.7642
장식으로	-11.7643
▁안든다	-11.7643
▁표시	-11.7644
▁해본	-11.7644
▁비슷하잖아	-11.7645
▁주는건	-11.7646
▁솔	-11.7646
▁반갑다	-11.7647
▁보관해	-11.7647
▁알려주지	-11.7649
해야하는거	-11.7649
시나	-11.7649
▁세개	-11.765
▁휴게	-11.7651
하여	-11.7653
▁넘길게	-11.7659
정씨	-11.7659
▁양반	-11.766
▁고아	-11.766
▁넣어줬	-11.7661
▁뭔상관이	-11.7662
두르	-11.7662
▁장애인아	-11.7662
▁민석	-11.7663
▁함부	-11.7664
▁버릇없	-11.7665
▁목요일	-11.7666
▁환불이나	-11.767
랄까	-11.7671
▁천장	-11.7673
▁당신들이	-11.7673
▁좋은일	-11.7675
▁짧다	-11.7676
▁넘었잖아	-11.7677
▁대상이	-11.768
▁상황이라	-11.768
▁쓸만	-11.7681
▁일억	-11.7681
▁안한다니까	-11.7681
▁미안하다면	-11.7682
▁아니래	-11.7683
▁놀거야	-11.7684
▁너거기	-11.7684
▁대구	-11.7688
▁뒤져야	-11.769
▁앵	-11.7691
▁냅	-11.7692
▁뺀	-11.7693
▁그만두시	-11.7695
▁꼬리쳐	-11.7697
▁슈	-11.7697
났다고	-11.7697
▁띠	-11.7699
▁저지를	-11.7703
▁말씀드려	-11.7704
▁다닐께	-11.7704
▁규	-11.7706
▁어떤일	-11.7707
▁앤	-11.7708
말이에요	-11.7709
▁넘어가지	-11.7715
있을	-11.7716
▁짱	-11.7717
▁좋지만	-11.7721
▁알려드려	-11.7721
▁가르쳤냐	-11.7722
▁시우	-11.7722
▁고백	-11.7722
▁작다고	-11.7722
당에	-11.7723
▁들어온거냐	-11.7723
▁하이고	-11.7723
▁보안	-11.7723
▁부시면	-11.7725
가야	-11.7725
▁잘나간다	-11.7725
▁차단할테니	-11.7727
▁사귀냐	-11.7727
▁울린다	-11.7728
드니	-11.773
▁막말	-11.7733
▁툭	-11.7733
냔말이	-11.7737
▁해주는데	-11.7739
▁노력했	-11.7739
▁깜빡했	-11.774
▁이정	-11.7741
▁없는척	-11.7741
▁휴지	-11.7742
외로	-11.7742
▁언젠가	-11.7742
▁모르는거	-11.7745
▁거리에	-11.7746
납금	-11.7746
▁받은거란	-11.7746
▁날씨	-11.7749
▁자수	-11.775
▁있단	-11.7751
▁못난	-11.7751
▁해보자는거	-11.7753
▁수치	-11.7755
▁과하신	-11.7755
어봐	-11.7758
▁박혀있어	-11.7759
▁쇠	-11.7759
치면	-11.776
▁알려드리	-11.7761
▁아껴쓰	-11.7761
▁드셨	-11.7762
▁먹히는	-11.7762
▁구입한	-11.7766
▁그런적이	-11.7766
모아	-11.7766
▁내뱉	-11.7768
▁회식에	-11.7769
▁물어보는거	-11.7769
▁웃으	-11.777
▁뭐라그랬	-11.777
▁허락받	-11.7772
▁훈	-11.7774
▁구역에	-11.778
▁민서	-11.778
▁와보	-11.778
▁꺼내줘	-11.7781
▁뺏어가	-11.7781
▁얘기하는	-11.7781
▁보호	-11.7781
▁빨리줘	-11.7782
▁잡종이라	-11.7783
▁말씀해주	-11.7785
▁사이에서	-11.7792
▁끼치	-11.7793
했자나	-11.7794
▁이시간에	-11.7795
▁맞긴	-11.7796
▁이뻐지	-11.7798
▁만나네	-11.78
반지	-11.78
▁계시고	-11.7801
▁다른애들	-11.7801
▁듣는건	-11.7802
아들	-11.7802
하하하	-11.7805
▁설정	-11.781
▁받으셔야	-11.7813
두던가	-11.7814
▁아니여서	-11.7816
▁탕비실에	-11.7817
▁만만한가	-11.7817
분안	-11.7818
▁양도	-11.7818
▁살만해	-11.7824
▁생각하나	-11.7824
▁재주	-11.7824
▁뛰는거	-11.7825
▁창피한	-11.7826
▁준다는데	-11.7829
▁시켜줄게	-11.7835
▁짜증나게하	-11.7838
▁시궁창이	-11.7838
▁거면	-11.784
▁막내씨	-11.784
▁흐흑	-11.7841
▁딸아이	-11.7844
▁물어봐요	-11.7844
▁봤는	-11.7844
▁작업이	-11.7846
▁드리기	-11.7846
▁잇어	-11.7848
▁걸려	-11.7848
▁친정	-11.7849
으시고	-11.7849
줍	-11.7852
▁뜯어서	-11.7857
▁기가막	-11.7859
▁고향	-11.7862
▁올리지	-11.7863
▁사람인거	-11.7864
하셨나	-11.7866
▁교수	-11.7866
▁놓은	-11.7867
▁질렸	-11.7867
▁사랑한다	-11.7869
올수있	-11.7869
▁바람났	-11.7869
▁빌려준거	-11.787
차하면	-11.7871
▁아니였는데	-11.7876
▁만났다	-11.7877
▁시장	-11.788
▁산다는	-11.788
끼가	-11.7884
▁정신차리고	-11.7884
▁생일선물이	-11.7885
▁어디있냐	-11.7887
▁못해주나	-11.7888
신다고	-11.7892
▁판매	-11.7892
▁유명해	-11.7895
▁있는거잖아	-11.7896
▁시간좀	-11.7898
내에	-11.7898
▁방식	-11.7899
▁사원님이	-11.7902
▁구르	-11.7903
긴거	-11.7903
▁유행	-11.7904
▁고칠	-11.7912
▁볼거야	-11.7912
▁길바닥에	-11.7913
▁받고싶	-11.7913
▁있습	-11.7913
▁도와주려	-11.7916
▁해봤자	-11.7916
▁하나봐	-11.7918
▁몇십	-11.7919
▁믿기	-11.7921
▁말조심하	-11.7921
▁구하	-11.7922
▁쓰레기를	-11.7923
▁앉을	-11.7929
▁천호	-11.793
달라는	-11.793
▁직원씨	-11.7932
▁어려운건	-11.7932
▁니네엄마	-11.7933
▁병장	-11.7937
고싶은거	-11.7938
▁줬겠	-11.7939
▁월급만	-11.794
▁볼래	-11.7945
▁고민이	-11.7945
▁이짓	-11.7946
▁사귄다	-11.7948
▁안되세요	-11.7955
▁물어보는	-11.7955
▁장담못	-11.7962
▁일들이	-11.797
▁해야하는거	-11.7971
▁꽁	-11.7976
▁됏	-11.7976
▁룸	-11.7976
▁되어있	-11.7976
▁두세요	-11.7977
▁참아봐	-11.7977
▁따라오던	-11.7977
▁그지같은	-11.7977
운전	-11.7978
▁않겠어요	-11.798
▁하려구	-11.798
▁나이들	-11.7981
리라고	-11.7984
▁소문나	-11.7988
▁가지고와	-11.7989
▁난동	-11.7993
▁누워있	-11.7996
▁데에	-11.7996
▁뚫어	-11.7999
▁조심하	-11.8003
▁시간없다	-11.8005
▁에라	-11.8006
▁보관하	-11.8006
▁빠릿빠릿하	-11.8014
▁놨	-11.8014
▁쫓아갈	-11.8014
▁좋았어	-11.8014
▁날까	-11.8015
▁수당	-11.802
▁확인해봐	-11.8024
▁뺏은	-11.8024
상이	-11.8025
▁넣는	-11.803
▁못하긴	-11.8031
▁사주셔	-11.8032
모를	-11.8035
▁피해주면	-11.8038
▁빌린것	-11.8039
▁알바하는	-11.804
▁안두	-11.8041
▁몇번이	-11.8042
말인데	-11.8043
▁희	-11.8043
▁부자라	-11.8044
▁따질	-11.8047
▁이내	-11.8051
대한	-11.8051
▁안좋으	-11.8051
▁씨발년	-11.8052
▁남는	-11.8055
인척	-11.8057
▁쩔	-11.8058
▁유전이라	-11.8059
▁아니라구요	-11.806
▁이용하	-11.8064
▁고아라	-11.8066
▁놀지말	-11.8066
▁여동생이	-11.8067
사장님께	-11.8069
▁픽업해	-11.8072
하지마라	-11.8072
▁믿었어	-11.8072
▁고려	-11.8072
▁힘들었	-11.8077
▁믿어봐	-11.8081
인을	-11.8081
▁거짓말하는	-11.8085
▁놈들이	-11.809
민들	-11.8093
았잖아	-11.8097
▁어렵냐	-11.8098
▁도와준거	-11.8104
▁따르는	-11.8104
▁행	-11.8105
▁욕먹	-11.8105
▁폼이	-11.8107
▁나중	-11.811
일뿐이야	-11.811
게시판	-11.811
고싶	-11.8112
▁받은건	-11.8117
▁김대리랑	-11.8118
▁법정	-11.8122
▁아픈거	-11.8122
▁결정할	-11.8125
준적	-11.8127
아주면	-11.8127
▁검	-11.8128
▁그런적없	-11.8129
▁제딸	-11.8132
▁참석해	-11.8135
시다고	-11.8135
좋자	-11.8136
▁뭣같	-11.8137
▁보일	-11.8139
▁좋자	-11.8143
▁말든가	-11.8144
▁택	-11.8145
렸다	-11.8145
▁지불하	-11.8147
▁올라갈	-11.815
벌어	-11.8154
긋	-11.8157
▁살겠다	-11.8158
▁유감이	-11.8158
▁좋아해주	-11.8161
▁거지로	-11.8162
▁올때	-11.8162
▁장면	-11.8167
▁발언이	-11.8171
▁필요한가	-11.8173
▁태어나지	-11.8178
▁분수	-11.8178
▁갚아야해	-11.8179
▁서두르는	-11.8179
▁체크하	-11.8181
▁어제까지	-11.8183
보내면	-11.8185
먹자	-11.8187
▁올꺼	-11.8189
▁만족하	-11.8191
견인	-11.8192
▁튀었	-11.8193
▁할수있어	-11.8194
▁복지	-11.8195
▁써야할	-11.8196
셨나봐	-11.8198
▁심했	-11.8201
▁연락하	-11.8205
▁공부하고	-11.8205
▁내부	-11.8206
▁마무리해	-11.8207
▁살다보	-11.8211
▁좋은곳	-11.8214
▁생사	-11.8217
▁찌질해	-11.822
▁나간다고	-11.8223
▁시대	-11.8223
▁나쁜년	-11.8224
▁지를	-11.8226
그만	-11.8227
▁갔다왔	-11.8228
▁유품이	-11.8231
▁공무원이	-11.8231
올라	-11.8231
▁띄지말	-11.8233
▁생긴것	-11.8234
▁글을	-11.8235
실래	-11.8236
▁서있었	-11.8237
▁묻는거	-11.8238
▁알수있	-11.8239
▁경찰들	-11.8243
▁낸다고	-11.8244
▁티내는	-11.8245
▁바람핀거	-11.825
▁어렵네	-11.825
▁마이	-11.8251
▁행복해	-11.8255
▁인정받	-11.8256
같고	-11.8259
츠	-11.8259
▁튀어가	-11.8261
댁에	-11.8263
▁왕	-11.8267
▁짬이	-11.827
▁비하	-11.827
갈까	-11.8271
▁아니자나	-11.8271
아닌가	-11.8272
▁빌려간거	-11.8273
▁성분	-11.8274
시겠	-11.8276
▁우리때	-11.828
▁터	-11.8282
▁쳤	-11.8284
▁새끼들이	-11.8284
▁비우는	-11.8284
▁계시네	-11.8288
▁식은	-11.829
▁좆같	-11.8291
▁딱딱하	-11.8293
신을	-11.8297
▁값이라	-11.83
▁전번줄	-11.8302
▁빌려줄거면	-11.8305
▁올릴꺼	-11.8305
▁전화받	-11.8308
나라	-11.8309
▁필요하다면	-11.8312
▁깔았	-11.8318
연수	-11.8319
까짓거	-11.8319
름이	-11.8319
▁대답만	-11.832
▁도로에	-11.8322
선에서	-11.8322
▁장애인들이	-11.8322
▁취직한	-11.8323
▁여깄어	-11.8332
보도	-11.8338
▁뭐라는	-11.834
▁사나보	-11.8342
▁범	-11.8343
▁참한	-11.8344
업체에	-11.8345
들이지	-11.8346
드백	-11.8349
▁입금하시	-11.8352
렇지	-11.8352
▁말씀해주셔	-11.8355
▁장애인새끼	-11.8356
▁효	-11.8363
▁살아있는	-11.8365
▁상대해줄	-11.8366
▁망쳐	-11.8372
스우	-11.8373
됐는지	-11.8375
▁시중	-11.8378
상을	-11.8379
▁안된다면	-11.8382
▁아프단	-11.8386
▁봐줬	-11.839
해보고	-11.839
▁급여	-11.8393
▁공부나	-11.8402
▁처음보	-11.8403
▁마무리하고	-11.8404
▁죽여버린다고	-11.8405
▁안갚아	-11.8406
분후	-11.8407
▁회장이	-11.841
▁하지마시고	-11.8417
▁사이인	-11.8419
▁빌리지	-11.8427
▁요구하는	-11.8427
▁행동했	-11.843
시키는	-11.8432
▁말했냐	-11.8437
당장	-11.844
대면	-11.8442
▁이혼해	-11.8444
▁찢어지	-11.8444
▁축내는	-11.8447
▁가야해서	-11.8449
▁그렇네	-11.8457
판이	-11.8468
▁아쉬	-11.8469
살았	-11.8469
▁일이냐	-11.8472
▁자폐	-11.8476
짜리	-11.8478
▁그만하고싶	-11.8481
▁감정적	-11.8482
▁죽던	-11.8484
▁안하겠	-11.8485
▁가줘	-11.8491
말인가	-11.8494
▁부러트	-11.8495
▁가져갈테니	-11.8497
▁벌자	-11.8497
▁좋아하지	-11.8498
▁다녀오려	-11.85
숨이	-11.8502
▁쓰던	-11.8502
▁정신머리	-11.8507
해볼게	-11.8507
▁상관없다	-11.8516
▁비켜요	-11.8516
▁부탁하는거	-11.8517
▁물흐	-11.8518
▁못됐	-11.8523
▁져야	-11.8523
▁저장	-11.8528
▁머하	-11.853
질텐데	-11.8534
▁무사한	-11.8535
지른	-11.8537
▁차가운거	-11.854
▁그만하라했	-11.8541
▁알린다	-11.8544
▁죄값	-11.8545
사태	-11.8545
못하면	-11.8548
▁하지말라	-11.8556
마디	-11.8558
▁사겨	-11.8563
▁개나	-11.8567
▁안좋네	-11.857
원하는	-11.8571
▁있는건가	-11.8571
려봐	-11.8572
▁방안	-11.8573
▁스토킹	-11.8575
▁사용한	-11.8577
▁얘들이	-11.8579
▁이새끼들	-11.8579
▁갈수있	-11.858
▁일하던	-11.8581
되신거	-11.8585
▁바쁘다	-11.859
▁갖다주	-11.8591
▁안들어가	-11.8594
주시는거	-11.8595
▁당하셨	-11.8598
▁안그랬	-11.8599
▁해준다	-11.8599
급이	-11.8601
▁책임져야	-11.8602
▁원망하지	-11.8609
▁좋을까	-11.8609
▁쳐다보냐	-11.8611
주사	-11.8612
▁너무하는	-11.8613
▁왜이러시는	-11.8613
▁많았어	-11.8616
▁물론이	-11.8616
▁내놓던	-11.862
아리	-11.8621
▁사라진다	-11.8625
해보던가	-11.8627
무지	-11.8629
▁못자겠	-11.8631
이야기	-11.8632
▁빌려서	-11.8634
먹는데	-11.8634
▁튀어	-11.8637
만하냐	-11.8639
▁그년	-11.8639
▁급하신	-11.8639
▁안되는거잖아	-11.8641
▁시끄럽다	-11.8646
▁그렇군	-11.8651
▁아이만	-11.8658
▁몰리	-11.8659
▁요구하시	-11.8662
▁줘야되	-11.8665
▁자리인데	-11.8666
▁싸울	-11.8672
바르	-11.8674
끼야	-11.8674
못했어요	-11.8681
▁운운	-11.8681
위에	-11.8681
▁심보	-11.8685
님께	-11.8686
끄	-11.8689
말라고	-11.8691
▁나름이	-11.8691
▁돈좀있	-11.8695
▁칼퇴하	-11.8696
▁울리	-11.8701
사람들이	-11.8704
울때	-11.8706
▁안됐다	-11.8707
▁놓으라고	-11.8708
▁걷기	-11.8725
누가	-11.8727
▁해킹했	-11.8731
▁못살	-11.8732
▁재수없으	-11.8733
▁열배	-11.8735
▁피곤	-11.8735
는거다	-11.8736
▁방도	-11.8739
▁집안일이	-11.8739
성주	-11.874
▁부르시	-11.8741
▁넣었다	-11.8744
▁달린거	-11.8747
▁떼워야	-11.8749
▁밀려	-11.875
▁긴	-11.875
▁험담	-11.8751
▁알아보시	-11.8751
▁집안일	-11.8753
▁시계도	-11.8754
써보고	-11.8754
야하는	-11.8758
▁잘들	-11.8759
▁가졌	-11.8759
▁아프고	-11.8761
▁무리한	-11.8763
▁웃는	-11.8763
▁뉴스에	-11.8769
치우	-11.8769
▁해오	-11.8769
▁아까우	-11.8771
▁마트	-11.8774
▁빡빡	-11.8777
▁남자친구있어	-11.8782
▁생기는	-11.8786
▁올려놓으	-11.8789
▁사과할게	-11.8789
▁생기나	-11.8793
▁먹이	-11.8799
▁그모양	-11.8801
▁안끝나	-11.8809
움이	-11.881
대라	-11.8811
▁저작권이	-11.8812
선이	-11.8813
▁오타	-11.8816
그럽	-11.8816
▁밝히는	-11.8819
문자로	-11.8821
▁실수였	-11.8824
▁안가져왔다	-11.8827
볼줄	-11.884
이게	-11.8841
▁싫은가	-11.8843
▁찔러버릴	-11.8843
싶다면	-11.8846
▁업무시간	-11.8846
▁반응하	-11.8855
▁된다니까	-11.8856
▁보고서라	-11.8862
▁내놓은	-11.8862
입은거	-11.8863
같은데요	-11.8864
▁그옷	-11.8865
▁화났	-11.8868
▁부족하다	-11.8869
▁살빼야	-11.887
▁하나씨	-11.8873
▁돈없	-11.8876
셨냐	-11.8878
▁죽기싫	-11.8878
됬	-11.8878
▁몰고	-11.8882
▁짜지	-11.8883
▁담보	-11.8884
▁싸우기	-11.8887
사자	-11.8889
다니는	-11.8891
▁바란	-11.8894
▁꼬리쳤	-11.8898
▁오른	-11.8902
▁건든	-11.8909
▁까불	-11.8917
▁팔을	-11.8919
저러냐	-11.892
▁친구라	-11.8927
싶었어	-11.8931
상하	-11.8933
▁폭로	-11.8944
▁병가	-11.8944
▁뺏어갈	-11.8946
▁처먹	-11.8946
짓거리	-11.8947
버리든	-11.895
살려주세요	-11.8951
고무	-11.8954
▁삼백충이	-11.8954
▁뒀	-11.8954
▁했다가	-11.8956
▁일입니다	-11.8966
▁의심이	-11.8967
▁이용해	-11.8972
▁거부하	-11.8973
▁해주셔	-11.8976
▁없어졌	-11.8976
심하고	-11.8976
▁혈	-11.898
▁중대장님	-11.898
해주실	-11.8981
▁담배사	-11.8981
▁안달이	-11.8985
▁왜그러시는	-11.899
▁스카이	-11.8992
하겠다는	-11.8992
▁되거든	-11.8996
갑자기	-11.8997
▁문의	-11.8997
▁하다보니	-11.8998
▁털리고	-11.9001
▁배우게	-11.9001
▁주는데	-11.9001
▁해주겠다	-11.9003
▁뿌릴거	-11.9007
누구	-11.901
▁뭐라하	-11.9011
▁비싸보이	-11.9012
▁중국에	-11.9019
▁간호	-11.9021
▁다른곳에	-11.9021
▁뚱뚱	-11.9024
▁안되는데요	-11.9033
▁구해오는	-11.9034
▁책임지실	-11.9038
▁친절하	-11.9041
▁울지	-11.9041
▁보여주지	-11.9043
▁시끄럽네	-11.9044
▁출발해	-11.9046
▁정리할	-11.9061
받은거라	-11.9065
▁안들어갔	-11.9067
졌는데	-11.9071
▁어쩌겠어	-11.9072
▁만들지	-11.9077
▁나대리	-11.9085
이건	-11.909
▁샤워하	-11.9094
▁북	-11.9097
려주시겠습니까	-11.9106
▁사장이	-11.9107
이라니까	-11.911
▁해보고	-11.9119
▁기다리면	-11.9119
▁어린애들	-11.9123
▁거에	-11.9126
▁가보자	-11.9128
▁챙겨가	-11.9131
▁입장이	-11.9133
▁하마	-11.9135
▁나쁜데	-11.9135
그리고	-11.9139
▁조건이	-11.9146
▁윗집에	-11.9146
▁써야해	-11.9146
편은	-11.9156
▁까고	-11.9159
몸	-11.9162
▁모야	-11.9163
▁잖아요	-11.9163
▁싫어하는거	-11.9163
됐고	-11.9163
위해	-11.9167
▁잃은	-11.9171
▁엿들	-11.9173
▁딸과	-11.9174
▁그려	-11.9175
통한	-11.9176
엄마한테	-11.9176
걸요	-11.9178
▁성형해	-11.9183
하겠지	-11.9184
▁능력없	-11.9185
▁되려	-11.9187
▁우리식구	-11.919
▁무겁다	-11.9197
▁단골이	-11.9197
▁우리반에	-11.92
▁부족했	-11.9215
어진	-11.9219
▁이유라	-11.9223
하려는데	-11.9229
▁생각해야	-11.9236
▁빌려주냐	-11.9239
▁갈테니	-11.9245
▁판에	-11.9246
▁해야할거	-11.9248
▁입닥치	-11.9248
▁치어	-11.9248
언제	-11.9249
▁사네	-11.9251
▁지켜줄	-11.9259
▁해결할게	-11.9261
▁너희엄마	-11.9262
▁원장님이	-11.9263
릴게요	-11.9264
▁살아봐	-11.9265
올수	-11.9269
랬냐	-11.927
▁느껴봐	-11.9273
▁오해해	-11.9273
▁안내리	-11.9275
돈은	-11.9279
▁네개	-11.928
끄지	-11.9283
▁갚지	-11.9284
▁넘겨주	-11.9285
▁팔든	-11.9288
치냐	-11.9289
▁안들어왔	-11.9289
학교에	-11.9292
▁못생기지	-11.9298
▁쳐먹는	-11.931
▁문서	-11.9319
▁고맙지	-11.9324
▁잘못했다는	-11.9325
해봤어	-11.9333
대응	-11.9333
▁시국	-11.9334
장소에	-11.9339
나와서	-11.9342
▁억울	-11.9345
▁떠나는	-11.9346
▁만지	-11.9352
▁네에	-11.9357
하셨습니다	-11.9358
▁클	-11.9358
냥하	-11.9361
싸보인다	-11.9364
▁이쪽	-11.9367
▁조국	-11.9367
▁뭣하	-11.9369
칠게	-11.937
▁가져가시	-11.9377
▁안갔다왔	-11.9382
▁돌려줄테니	-11.9383
▁뺏을	-11.9387
말한거	-11.9392
기사님	-11.9395
▁에어팟이	-11.9402
▁이런대	-11.9403
하라면	-11.9403
그러세요	-11.9407
▁나쁘잖아	-11.9408
하지도	-11.941
셨다는	-11.9413
▁뽑아가	-11.9413
▁걔네들	-11.9413
다는게	-11.9414
▁무슨말인	-11.942
▁듣잖아	-11.942
우유사	-11.9424
▁볼만	-11.9437
▁말대답이	-11.9438
▁으아	-11.9438
▁같은반	-11.9443
▁돼지같	-11.9446
▁패줄	-11.9447
상해	-11.9447
▁사야	-11.9448
▁돌아가시	-11.9451
▁따님께	-11.9456
▁정상적	-11.9462
됐지	-11.9463
▁놀리지말아	-11.9469
▁하라는거	-11.9477
정신	-11.9479
울게	-11.948
▁뻔뻔한거	-11.9481
▁실수하는거	-11.9483
▁장난아니	-11.9489
▁까마	-11.9489
▁같단말이	-11.949
센터	-11.949
▁헤어진거	-11.9491
났네	-11.9491
▁말차	-11.9501
수도있어	-11.951
줫	-11.9529
▁고소하	-11.9532
▁안들면	-11.9533
새끼보다	-11.9538
▁쳐맞고싶	-11.954
옮기는	-11.9548
▁음식먹	-11.9554
부모님	-11.9557
▁무슨상관이	-11.9558
▁매장에	-11.9573
▁숨기고	-11.9576
▁해볼테	-11.9577
▁정지	-11.9586
랐	-11.9586
▁반말하	-11.9588
석이	-11.9589
▁참석이	-11.9591
어제	-11.9592
▁못빌려주	-11.9593
▁회원	-11.9595
▁마련할거	-11.9596
▁웃지	-11.9601
리겠습니다	-11.9604
▁맞는건	-11.9604
했대	-11.9606
꼭	-11.9607
▁안됐어	-11.9609
▁전문	-11.9611
▁엿	-11.9612
▁비싸서	-11.9616
으시겠	-11.962
▁다들었어	-11.9621
▁운좋	-11.9622
▁갈아주	-11.9624
이병	-11.9632
▁사먹으라	-11.9633
게해줘	-11.9634
용할	-11.9634
▁받아도	-11.9638
▁불편할	-11.9638
▁이혼했	-11.9641
▁아파트에	-11.9643
▁문닫	-11.9644
▁니도	-11.9644
▁빠지지	-11.9644
▁있자	-11.9645
▁못타	-11.9649
▁놨어	-11.9651
▁알릴거	-11.9661
▁좋아하는데	-11.9663
안보	-11.9667
▁별로라	-11.9672
▁다녀왔어	-11.9677
▁안어울리는	-11.9677
달랬	-11.968
▁봐준	-11.9681
립이	-11.9683
내게	-11.9684
▁몰아가지	-11.9689
▁감사해야	-11.9691
저기	-11.9691
▁잡는	-11.9692
▁두고보	-11.9693
▁폭로할	-11.9699
▁안나가	-11.97
▁협상	-11.9705
▁걸지	-11.9708
▁뽑아봐	-11.9708
거였어	-11.9711
▁이런말	-11.9714
▁병원비에	-11.9715
▁그러지마요	-11.9718
▁찾아오지	-11.9723
▁짝	-11.9724
▁쓰겠다	-11.9727
▁퇴근하면	-11.9731
가져다	-11.9733
▁안가져왔	-11.9734
▁만든다	-11.974
▁내는거	-11.9745
▁용서해주시	-11.9745
▁닦아야	-11.9748
거네	-11.9753
법도	-11.9753
▁진급	-11.9763
▁안빼	-11.9764
가고	-11.9772
▁술이	-11.9778
▁때문이라	-11.9779
할거에요	-11.9779
▁놀릴	-11.9781
같다	-11.9783
▁미친건	-11.9784
올께	-11.9788
▁밀	-11.9791
▁그런일이	-11.9797
없나보네	-11.9805
안하겠습니다	-11.981
▁잠깐이	-11.9812
▁괜찮다는	-11.9813
어치	-11.982
없냐	-11.9821
것같다	-11.9823
▁올리면	-11.9825
방구	-11.9826
나같	-11.9829
내라고	-11.9833
아이	-11.9837
▁친구니	-11.9838
▁일이니	-11.9838
▁두나	-11.984
▁다니겠	-11.9843
▁할거에요	-11.9846
▁사과할	-11.9846
▁내리라	-11.9848
▁합의해	-11.9849
▁반항	-11.9851
▁예뻐해	-11.9858
교사	-11.9859
▁되서	-11.986
건뭐냐	-11.9861
이크	-11.9864
였다니까	-11.9874
▁소리나	-11.9876
▁받아가는	-11.9876
▁점심시간이	-11.988
▁못먹어	-11.9886
▁미안하다는	-11.9887
▁퍼뜨	-11.9887
▁쳐다보는	-11.9894
온다	-11.9895
먹은거	-11.9895
▁그러는건	-11.9895
▁짤라버리	-11.9897
부서	-11.9899
▁편한가	-11.9901
▁일잘하	-11.9904
려는	-11.9907
줬다	-11.9908
▁이겼	-11.991
▁살도	-11.9912
▁놀아야	-11.9913
▁고객님이	-11.9923
만이야	-11.9926
▁말단	-11.9929
▁웃기잖아	-11.9929
▁안낸다	-11.993
▁못살겠	-11.9935
▁안갈거	-11.9937
말장난	-11.994
▁그런말씀	-11.9941
있겠습니다	-11.9943
▁니사정이	-11.9948
▁돌아가지	-11.9949
하에	-11.9952
믿어	-11.9953
고싶지	-11.9956
만나	-11.9956
셨을까	-11.9956
▁스카	-11.9964
중에서	-11.9965
▁소용	-11.9967
▁해보자는	-11.9968
▁놀렸	-11.9972
▁너지	-11.9976
▁가져오시	-11.9978
팔아	-11.9978
▁이러냐	-11.9979
▁중대장	-11.9983
▁방해해	-11.9986
할줄	-11.9994
▁전통	-11.9995
▁쉬면	-11.9996
▁오나	-11.9999
버리게	-12
▁친구고	-12.0002
▁끼어들	-12.0002
▁니네집에	-12.0005
▁혐오	-12.0006
▁구한	-12.0007
지않	-12.0012
▁흥분하	-12.0013
▁사올	-12.0016
▁안맞는	-12.0018
▁자를	-12.0032
▁샀는	-12.0033
▁해보면	-12.0048
▁했다면	-12.005
▁빼야	-12.0051
▁별것	-12.0051
봐야할	-12.0054
▁먹고싶어	-12.0061
▁게임하	-12.0064
▁일이든	-12.0067
▁밀려있	-12.0073
▁분질러버릴	-12.0073
▁반이	-12.008
▁다닐거	-12.008
▁씻고왔	-12.0082
▁못믿겠	-12.0088
▁윗집	-12.009
지않을까	-12.0092
▁양보하	-12.0094
▁폭력적	-12.0094
▁사용해야	-12.01
▁차보	-12.0101
▁다니더	-12.0102
▁써놓	-12.0102
▁장사하기	-12.0103
▁사과드리	-12.0103
▁꼬리쳤다	-12.0111
▁못피	-12.0112
▁가시나	-12.0113
▁낮춰	-12.0118
제껏	-12.012
▁그런일	-12.0122
화났어	-12.0123
▁보고해	-12.0125
▁욕하고	-12.0128
▁나오셔	-12.0132
▁안타깝	-12.0134
9	-12.0135
해가	-12.0146
▁돼야	-12.0149
▁울면	-12.015
졌잖아	-12.0152
▁먹을거	-12.0158
▁지연	-12.0159
▁잘못했으니	-12.0161
말씀	-12.0161
러져	-12.0167
▁맞춰주	-12.0168
▁보여줘야	-12.0169
분들이	-12.0178
하셨으	-12.0179
▁너무하잖아	-12.0181
다봤어	-12.0181
조금	-12.0182
▁자연스	-12.0185
변	-12.0186
붙은	-12.0187
보도록	-12.0187
▁가려서해	-12.0187
▁들었다	-12.0196
▁안했다	-12.02
얼마	-12.0201
킬	-12.0204
▁하셨어	-12.0205
▁장기만	-12.0217
▁간건	-12.0217
▁칼퇴	-12.0217
▁없애버릴거	-12.0222
▁어마	-12.0227
▁뽕이	-12.0235
▁단골인	-12.0236
때마	-12.0236
▁받자	-12.0249
▁시도	-12.0251
▁안울	-12.0255
차선에	-12.0256
▁들어가지	-12.0259
▁사용할	-12.0261
▁그러시는거	-12.0265
▁굴리	-12.0268
마라	-12.027
▁병신년	-12.0273
줄거면	-12.0274
▁국가에	-12.028
▁치는거	-12.0296
▁처리하라	-12.0297
▁부분이라	-12.03
▁잃는	-12.0303
▁마신	-12.0306
도그	-12.031
▁기름	-12.031
▁걔네들이	-12.0314
리어	-12.0314
놓지	-12.0315
▁하라고요	-12.0315
▁무안	-12.0319
▁찢어버릴	-12.0324
버는	-12.0325
▁믿는다	-12.0325
딴	-12.0329
원들	-12.0331
▁올리셨	-12.0337
딴거	-12.0337
▁허튼짓하	-12.0341
▁말걸	-12.0346
개씩	-12.0347
힘들어	-12.0351
▁돌리는	-12.0359
▁없었다	-12.0363
평가	-12.0368
기간	-12.037
가시게	-12.0371
▁날리	-12.0373
과의	-12.0373
▁써가	-12.0374
▁도와준	-12.0383
▁석탄	-12.0389
▁알려야	-12.0389
▁말게	-12.0391
▁까칠	-12.0391
하시는데	-12.0393
▁이분	-12.0394
▁죽을것	-12.0396
▁너에	-12.0397
▁개인사정	-12.04
대야	-12.0402
차에	-12.0403
▁후기	-12.0403
▁내신	-12.0406
▁터치	-12.0408
생각해	-12.0409
▁사이다	-12.0411
▁사라진	-12.0411
▁잡종이	-12.0414
▁수있	-12.0415
▁똑똑해	-12.0416
▁집에가	-12.0422
▁이세상	-12.0426
▁빼서	-12.0427
토하	-12.0429
▁지랄하지	-12.0437
▁지어	-12.0441
▁공개하	-12.0442
▁봐주지	-12.0442
▁중학교	-12.0444
▁봐주시	-12.0445
맞기	-12.0451
▁돌아오지	-12.0457
▁괜찮나	-12.0458
▁찔리니	-12.046
남자	-12.0461
▁갖고싶	-12.0462
쳤어	-12.0465
렀	-12.0466
말해	-12.0468
지르	-12.0468
쟤	-12.047
▁해외	-12.0471
▁잘린	-12.0474
▁사람죽	-12.0475
▁좋아보	-12.0479
시켜놓	-12.0489
플까	-12.0493
▁보도	-12.0498
셨지	-12.0499
목이	-12.051
죽여버릴거야	-12.0519
▁막을	-12.052
▁옳	-12.0521
▁출근했	-12.0522
▁당일	-12.0522
▁하루만에	-12.0525
말하면	-12.0526
▁잃어버렸	-12.0531
▁시키신	-12.0538
▁교육시켜	-12.0539
▁신고하려	-12.0539
▁달려있	-12.0542
▁화장이	-12.0554
▁밥먹으면	-12.0568
세여	-12.0569
상병	-12.0576
▁보셨	-12.0577
▁빌려줄거	-12.0579
엄마가	-12.0582
쓰는	-12.0583
일인지	-12.0587
▁돌아가는거	-12.0587
뿐이	-12.059
▁안나오는	-12.0594
자식이	-12.0597
▁불지	-12.0609
▁울리는	-12.0611
▁축내	-12.0611
▁야근해야	-12.0613
▁많을	-12.0614
고싶으	-12.062
▁오해하지	-12.0623
▁준비해야	-12.0624
▁사주는	-12.0625
싶어서	-12.0627
갑	-12.0628
시길	-12.063
적인거	-12.0633
▁불렀는	-12.0638
▁고객님들	-12.0646
▁우리애들	-12.0648
핑계를	-12.0651
▁지인들	-12.0652
▁바뀌어	-12.0652
▁거래처에	-12.0652
흑	-12.0654
▁어리버리	-12.0657
▁수술해야	-12.0658
▁척이	-12.0659
낼게요	-12.0659
사장	-12.0661
것이	-12.0672
▁상병	-12.0672
▁오빠들	-12.0679
▁사오라는	-12.068
그러지마	-12.0681
쓰지	-12.0684
▁딸들	-12.0685
황	-12.0688
▁고생한다	-12.0689
▁다리로	-12.069
▁나냐	-12.0698
할려고	-12.0698
닮았나	-12.0704
▁야동	-12.0716
오늘은	-12.0719
▁넘는	-12.0721
▁받으시	-12.0721
저는	-12.0722
▁잘못이라는	-12.0723
없다고	-12.0728
▁세탁소	-12.0736
런걸	-12.0736
▁싸와	-12.0738
▁힘들겠	-12.074
▁한거냐	-12.0741
▁꺼져요	-12.0742
▁신고할테니	-12.0746
아닌	-12.0747
▁안듣고	-12.0748
▁경비실	-12.075
▁하는거냐	-12.075
가능할	-12.0751
필요	-12.0751
▁안구	-12.0754
▁시키겠어	-12.0755
▁가겠네	-12.0756
됐잖아	-12.0759
리게	-12.076
우고	-12.0764
해주는	-12.0767
▁만족	-12.0767
▁이동	-12.077
꺼내	-12.0772
시켜주	-12.0776
힘들	-12.0778
을거면	-12.0779
▁않았지	-12.0781
너같은	-12.0782
▁고용하	-12.0783
▁생활이	-12.0786
차리겠구나	-12.0793
장만	-12.0796
줄테니	-12.0796
▁오는데	-12.0797
▁무시하는거	-12.0797
▁벌리	-12.0798
시라	-12.08
놀리	-12.0803
힌다	-12.0804
▁퍽퍽퍽	-12.0807
▁젊은이	-12.081
초에	-12.0817
▁딱딱	-12.082
▁원한	-12.0821
아가	-12.0824
보나	-12.0835
주셔야해요	-12.0836
승진	-12.084
▁순수	-12.0841
나가는	-12.0847
▁바람핀	-12.0849
했어야지	-12.0854
시인데	-12.0858
▁그래봐	-12.0862
대에	-12.0864
▁보겠다	-12.0865
▁부인	-12.0865
할거요	-12.0866
▁비켜주시	-12.0878
다닌	-12.0879
▁거짓말이라	-12.0883
▁기관	-12.0886
▁창의	-12.0888
▁안풀	-12.0891
▁부른거	-12.0891
부에	-12.0892
행하는	-12.0894
▁실망	-12.0894
꼬	-12.0896
▁마련하	-12.0897
직원	-12.0897
았나	-12.0904
▁틀	-12.0908
▁말로하	-12.0914
피가	-12.0916
액	-12.0919
해줄	-12.092
낸거	-12.0926
저녁	-12.0928
▁실망시키	-12.0932
어떡해	-12.0937
▁만들어야	-12.0942
▁죽는걸	-12.0944
하셨어요	-12.0948
▁뭔일인	-12.0951
▁안살	-12.0954
▁죽여버려	-12.0955
누나	-12.0968
장소	-12.0968
▁사전	-12.097
안됩니다	-12.097
여사	-12.0972
경	-12.0972
려주세요	-12.0974
사람이라는	-12.0975
▁그러셨	-12.0979
숙이	-12.0981
헤어져	-12.0984
아님	-12.0989
많	-12.099
신경	-12.0994
보이던데	-12.0994
외	-12.0995
▁회장님이	-12.0998
▁불만있	-12.1001
▁다가오는	-12.1002
▁병신인	-12.1004
는군	-12.1013
▁시작했	-12.1013
▁으아아	-12.1015
정돈	-12.1015
▁단호	-12.1017
▁대접하	-12.1022
왜이래	-12.1026
▁일상	-12.1027
분명	-12.1028
주머니	-12.1029
▁내껀	-12.103
▁며칠이	-12.1032
댔어	-12.1035
▁내기	-12.1036
안되는	-12.1036
리는거	-12.1037
▁나올텐	-12.1038
▁들으라	-12.1041
▁시원	-12.1041
▁전송	-12.1054
한다니	-12.1057
보이잖	-12.1057
세상에	-12.1059
한거에요	-12.1061
▁귓	-12.1062
▁샐러드	-12.1062
당할	-12.1067
▁가겠다	-12.1076
생겼어	-12.1077
▁떼어	-12.1078
살려줘	-12.1082
▁거기지	-12.1087
우님	-12.1088
압	-12.1088
▁줄었	-12.109
▁놀이터에	-12.1094
만해	-12.1095
올때	-12.1099
었다면서	-12.11
회의	-12.1104
늘	-12.1107
▁줘야겠	-12.1109
▁다행	-12.1109
▁얘기할	-12.111
▁010	-12.1111
▁착각하나	-12.1112
받은	-12.1114
▁열심히만	-12.1115
연아	-12.1115
좋다	-12.1118
▁신대리	-12.112
푼	-12.1123
▁부탁이니	-12.1126
▁수상하	-12.1127
어때	-12.1128
해줬다	-12.1133
▁뺏기	-12.1136
▁느끼는	-12.1136
▁지키는	-12.1139
▁정해져	-12.1141
웃기네	-12.1143
가져오	-12.1147
새끼는	-12.1148
▁시켜주	-12.1151
▁가보	-12.1156
올게	-12.1159
▁직원이라	-12.116
끝까지	-12.1161
▁나쁘니	-12.1161
▁조차	-12.1163
있음	-12.1164
▁봤을	-12.1166
▁일하시	-12.1168
보낸	-12.1168
▁끊지	-12.117
내는	-12.1173
▁형기	-12.1175
▁잘만	-12.1177
마음대로	-12.1179
꼬라지	-12.1179
못할	-12.1181
있는게	-12.1182
져야	-12.1184
톡방	-12.1186
▁잘모르	-12.1187
▁피할	-12.1187
▁왕따당	-12.1187
▁얘기하는거	-12.119
신건	-12.1194
▁수있는	-12.1195
▁냈어	-12.1199
야할	-12.12
다니는데	-12.1201
으라	-12.1202
8	-12.1204
시험	-12.1204
▁받아줄	-12.1205
▁조언해	-12.1209
▁해야겠	-12.121
여줘	-12.1211
▁거봐	-12.1212
▁날라	-12.1214
감고	-12.1217
▁오천	-12.1217
▁전화했	-12.1222
▁연락한	-12.1224
뭔가	-12.1227
▁노력한다	-12.1232
▁좋아할	-12.1232
저런	-12.1232
▁죽을게	-12.1242
▁방해하지	-12.1247
▁맛있었	-12.125
잠깐만	-12.125
장사	-12.1251
할것같	-12.1255
▁생신이	-12.1263
▁애매	-12.1265
▁데려오라	-12.1276
▁걱정해	-12.1278
▁협의	-12.1281
샀	-12.1281
망한	-12.1283
하루만	-12.1283
죽자	-12.1285
▁못하시	-12.1289
해봐야	-12.1289
하라했어	-12.1299
▁회장	-12.1299
▁말하는것	-12.1301
▁안들으	-12.1302
싱	-12.1302
▁징그	-12.1303
▁입을게	-12.1307
▁길바닥	-12.1307
너도	-12.1314
생기	-12.1318
내야되는	-12.1321
▁삼촌이라	-12.1329
▁넘으	-12.1329
일부터	-12.133
▁급한거	-12.1332
▁나갈수	-12.1332
▁대다	-12.1335
닥	-12.1336
었을텐데	-12.134
▁또또	-12.134
▁할거냐	-12.1342
오빠랑	-12.1343
▁구해올	-12.1343
치마	-12.1351
공원	-12.1352
▁빌려줄수	-12.1358
소리만	-12.1359
떨	-12.136
겁	-12.1362
빤	-12.1365
뒤지	-12.1366
치한	-12.1367
받아봐	-12.1371
▁여우	-12.1372
기다려주세요	-12.1373
▁걸었	-12.1377
▁말았어	-12.1381
보기	-12.1381
작업	-12.1382
어린	-12.1385
뚜	-12.1391
사업	-12.1393
산다	-12.1398
딸만	-12.1399
▁배워야	-12.14
뭐래	-12.1401
찬	-12.1403
돌아다니	-12.1403
▁부리지	-12.1404
심부름	-12.1405
▁있다는거	-12.1405
▁등록	-12.1406
장애	-12.141
어눌해	-12.141
이벤트	-12.1414
앞	-12.1414
알어	-12.1415
붕	-12.1416
메일	-12.1416
▁죽여야겠	-12.1418
생각하지	-12.1418
시켜줄게	-12.1419
병원에	-12.1419
훈	-12.1421
▁없애버릴	-12.1423
아이디어	-12.1428
▁약속해	-12.1429
터져	-12.143
▁할건	-12.1431
▁제니	-12.1432
따라해	-12.1432
북에	-12.1432
융	-12.1433
▁하는일	-12.1433
못생겼다	-12.1434
이사원	-12.1436
충	-12.144
죽는거야	-12.1441
책임	-12.1442
▁엉엉	-12.1443
펴	-12.1443
▁털어버릴	-12.1446
▁못받은	-12.1447
롭	-12.1448
못하게	-12.1453
▁중요하니	-12.1457
헤어지	-12.1457
▁있겠지	-12.1458
돌리	-12.1458
▁비정상	-12.1458
위해서	-12.1464
백만	-12.1465
분해	-12.1467
봤나	-12.1468
살기	-12.1471
▁형식	-12.1472
따라와	-12.1474
렸네	-12.1474
주제	-12.1477
들었나봐	-12.1478
뒤진다	-12.1478
▁우리아들이	-12.1479
쪄	-12.1482
받지	-12.1484
▁커피사	-12.1489
연락처	-12.149
르기	-12.1491
▁가식	-12.1492
영수증	-12.1493
이상해	-12.1493
을줄	-12.1495
휴무	-12.1495
얼마있냐	-12.1502
튀	-12.1502
말아줘	-12.1503
헉	-12.1503
봉	-12.1503
벅	-12.1504
책상	-12.1507
남아서	-12.1507
썩	-12.1508
중학교	-12.1509
▁죽었	-12.1509
쇠	-12.1515
도시락	-12.1517
치를	-12.1517
▁덕분	-12.1517
불편해	-12.1517
▁말씀하신거	-12.152
▁원한다	-12.1522
뿌리	-12.1525
들어가	-12.1525
의원님	-12.1527
릴꺼	-12.1529
미팅	-12.1529
▁챙피하	-12.1535
▁지겹	-12.1536
파일	-12.1537
셨다	-12.1537
모가지	-12.1537
설정	-12.1537
웅	-12.1538
다녔	-12.1541
기술이	-12.1542
▁척해	-12.1543
갓	-12.1544
▁못잡	-12.1545
40	-12.1547
어때서	-12.1551
옷차림	-12.1551
살펴	-12.1552
걸렸다	-12.1552
▁거부	-12.1553
헤어졌어	-12.1554
득이	-12.1555
툭	-12.1555
극	-12.1555
대박	-12.1558
가건물	-12.1559
갔다오면	-12.1559
▁살려달라	-12.156
사물함	-12.1561
혜	-12.1562
▁망친	-12.1563
팬	-12.1563
바꿀	-12.1563
나갈	-12.1564
다하셨어요	-12.1565
넣어놓	-12.1567
짱	-12.1567
메뉴	-12.1568
뒈	-12.1569
불러와	-12.157
쏠	-12.1571
문의	-12.1572
국밥	-12.1573
오줌	-12.1573
어디로	-12.1573
▁저러니	-12.1574
▁알아들었	-12.1575
용품	-12.1576
감염	-12.1576
얼굴에	-12.1576
▁아들이라	-12.1577
재료	-12.1577
▁놀린	-12.1578
비용	-12.1579
상품	-12.158
잘하잖아	-12.1582
했겠다	-12.1582
사주라	-12.1582
▁자식들이	-12.1584
빈	-12.1584
빙	-12.1584
졸	-12.159
폈	-12.1591
그날	-12.1592
앤	-12.1593
▁들어있	-12.1593
할것	-12.1594
여자랑	-12.1594
▁토나올	-12.1594
▁전시	-12.1594
▁쩔뚝	-12.1596
▁상사님	-12.1596
볼때	-12.1597
양반	-12.1597
시장	-12.1597
▁맞대	-12.1598
▁지낼	-12.1602
남자한테	-12.1602
벌려	-12.1605
생각하면	-12.1606
▁변했	-12.1606
띠	-12.1606
선생	-12.1607
슈	-12.1608
흰	-12.1609
쌔	-12.1609
특	-12.161
뺀	-12.1611
냅	-12.1614
뻗	-12.1614
반찬	-12.1615
뵈	-12.1616
발언	-12.1616
앵	-12.1618
▁짤	-12.1619
가져와봐	-12.1619
움직여	-12.1621
▁티비	-12.1623
▁않았을	-12.1624
붙여	-12.1626
겼	-12.1626
▁걸어다니는	-12.1629
말던	-12.1631
▁부모없	-12.1635
걸려서	-12.1636
솔	-12.1637
▁잘라버	-12.1637
깍	-12.1638
못살겠	-12.1639
해지	-12.1641
▁해볼	-12.1642
걸음	-12.1643
수작	-12.1644
▁구별	-12.1646
킨	-12.1648
거울	-12.1649
한거니	-12.1649
▁폰이	-12.1651
해두	-12.1655
▁물어봤	-12.1655
오빠들	-12.1655
갖	-12.1655
▁사라져야	-12.1659
▁쏴야	-12.166
▁몇시	-12.166
▁들어가면	-12.1662
▁싫으시	-12.1663
나갔어	-12.1664
호씨	-12.1664
▁여자들이	-12.1667
▁핸드폰이	-12.1673
놓으시고	-12.168
수당	-12.1681
▁지쳤	-12.1684
▁졌다	-12.1688
투자	-12.169
▁시비거	-12.1694
제부터	-12.1699
부탁이	-12.1701
해보려	-12.1702
없죠	-12.1703
▁쓰고싶	-12.1705
▁빛	-12.1705
나가야	-12.1709
가실	-12.1709
엿	-12.1711
올려놨	-12.1713
부른	-12.1715
내줘	-12.1716
사야	-12.1717
▁니엄마	-12.1719
크게	-12.1719
▁야무	-12.1723
천만	-12.1727
존	-12.1729
▁나타나지	-12.173
▁못할거	-12.1731
사건	-12.1733
▁같긴	-12.1733
앉	-12.1734
떼지	-12.1736
찾아	-12.1737
▁통해	-12.1737
▁끝냈	-12.1739
그런거야	-12.1739
▁전역	-12.1739
안된	-12.1741
년이나	-12.1743
▁투자	-12.1748
인사	-12.1757
▁쪽팔	-12.1757
▁적혀있	-12.176
퇴근을	-12.1764
리지마	-12.1766
▁얘봐	-12.1766
▁호두	-12.1771
▁김서	-12.1771
▁무섭단	-12.1773
하냐니까	-12.1776
조치	-12.1778
▁700	-12.1779
▁쉐	-12.1784
▁죽이라	-12.1785
핑	-12.1785
▁대학생	-12.1787
▁말해보	-12.1788
▁기회줄	-12.1789
마시는	-12.1792
마저	-12.1792
▁치사	-12.1794
▁잘할	-12.1795
크다	-12.1797
▁다했	-12.1797
▁드리려	-12.1803
주자	-12.1804
▁살려내	-12.1804
▁부르기	-12.1804
테러	-12.1807
▁내야해	-12.1812
▁자르기	-12.1814
사회	-12.1816
▁업보	-12.1817
▁이체	-12.1817
▁뭐했	-12.1818
가진	-12.1821
봐야하는데	-12.1824
사실	-12.1824
▁참았다	-12.1825
▁입원해있	-12.1827
려야겠어	-12.1831
주셨나	-12.1832
▁못마시	-12.1837
▁찾아볼	-12.1841
▁기가	-12.1841
사먹을	-12.1844
▁수고	-12.1844
▁마지막이라	-12.1846
▁끓	-12.1846
자격이	-12.1848
철이	-12.185
아니잖아	-12.1851
▁웃었	-12.1854
▁하는것	-12.1855
▁너때문인	-12.1857
▁나대지	-12.1857
▁안빌려	-12.1859
▁연결	-12.186
▁김유	-12.1861
정한	-12.1862
▁무례하	-12.1862
▁먹칠	-12.1867
봤다는	-12.1869
머리가	-12.1879
01	-12.188
▁딱한	-12.1881
▁대하는	-12.1883
▁야너	-12.1887
▁협박해	-12.1887
▁독약아니	-12.1896
출신	-12.1898
▁살라	-12.19
▁돕	-12.19
▁이후	-12.1903
▁얻어먹	-12.1905
▁늦지	-12.1905
▁벌면	-12.1905
▁흉	-12.1907
뿐이라	-12.1907
▁끝에	-12.1909
▁하다가	-12.1909
▁작정했	-12.1913
퇴사	-12.1913
드릴려고	-12.1916
만나면	-12.1926
▁띄지	-12.1927
▁쫓아	-12.1927
가보세요	-12.1933
전되	-12.1934
▁해야될	-12.1937
대냐	-12.1939
▁떳떳	-12.1941
▁셔틀이	-12.1943
나한테	-12.1948
나온거	-12.1956
안와	-12.1958
자들이	-12.1958
원도	-12.1961
▁안남았	-12.1962
▁예지	-12.1965
▁노려	-12.197
▁알수	-12.197
▁박혀있	-12.1973
▁막는	-12.1974
시대	-12.1979
시킬거	-12.1981
▁구하는	-12.1982
▁놓는	-12.1983
애한테	-12.1986
보호	-12.1987
▁해지	-12.1988
▁뒤진	-12.1988
찾아서	-12.199
▁마신다	-12.1997
있을꺼	-12.1998
▁냄새나는거	-12.2003
▁언제든	-12.2004
겠구나	-12.2004
갈지	-12.2006
그래요	-12.2008
있을거야	-12.201
연기하	-12.2014
민씨	-12.2015
밥이	-12.2017
▁저런애	-12.2019
되고싶	-12.2021
▁죽어볼	-12.2022
▁즐	-12.2026
말란	-12.2026
▁쳐져	-12.2033
잘좀	-12.2036
▁부끄럽	-12.2037
▁선약	-12.2041
▁못하겠으	-12.2047
드러운거	-12.2048
글자	-12.2048
이신	-12.2055
▁가지고오	-12.2057
▁왔다	-12.2057
▁쉰	-12.2061
▁나불거	-12.2065
▁하시니	-12.2067
되셨	-12.2069
을게요	-12.207
▁좋아한다	-12.2072
기야	-12.2072
▁바보라	-12.2074
질않	-12.2075
구리	-12.2076
겼는데	-12.2078
▁보내시	-12.2079
친구니	-12.208
▁아쉽	-12.2082
성적으로	-12.2082
▁준비하는	-12.2083
▁아시	-12.2085
쓰기	-12.2086
죽였	-12.2086
기지	-12.2089
야한단	-12.209
자로서	-12.2091
하다는	-12.2091
▁밟	-12.2091
▁안가는	-12.2094
왔단	-12.2095
▁상하	-12.2096
▁티켓	-12.2097
창고	-12.2098
수리	-12.2099
보실	-12.21
해줄래	-12.2101
먹으면서	-12.2102
▁만드니	-12.2105
입으로	-12.2107
해준거	-12.2108
▁않으니	-12.211
▁달달한	-12.2111
물어라	-12.2116
▁안쓰럽	-12.2117
▁안먹는	-12.2117
이사	-12.2117
▁어디있는	-12.2125
할건	-12.2126
▁이런애	-12.2127
▁못사는	-12.2127
▁담당인	-12.213
에이	-12.2132
▁섭하	-12.2132
▁뵈	-12.2134
▁손안	-12.2138
이겨	-12.214
▁편하다	-12.2141
닙니다	-12.2142
득	-12.2147
▁가셔	-12.2147
사는지	-12.2153
▁써주는	-12.2158
▁인도	-12.2159
팔아서	-12.2161
▁돌이	-12.2166
▁식구	-12.2166
▁언어	-12.217
▁빠듯해	-12.217
쟁	-12.2171
▁작다	-12.2172
▁바랄게	-12.2174
볼께	-12.2178
이겠지	-12.2178
▁노출	-12.2179
편에	-12.218
▁호흡	-12.218
▁보라	-12.2181
▁조회	-12.2183
만나고	-12.2187
▁최악	-12.2189
▁심심	-12.2192
▁성근	-12.2194
▁무릎꿇	-12.2195
▁뒤쳐	-12.2195
▁강부장	-12.2198
줄알	-12.22
▁승진하는	-12.22
건에	-12.2201
▁안감	-12.2203
▁해줄테니	-12.2205
뻐	-12.2208
것뿐이	-12.2209
탱	-12.2213
나타날게	-12.2214
▁지옥같	-12.2214
▁몸살	-12.2217
된단	-12.2217
▁단톡	-12.222
해볼까	-12.222
▁이자리	-12.2224
▁관심있	-12.2225
저거	-12.2226
▁물어볼	-12.2226
▁해올	-12.2227
▁깎	-12.2228
▁3000	-12.2229
▁있는거라	-12.2229
▁온라인	-12.2231
▁좋았잖	-12.2231
▁닥치라	-12.2233
기범	-12.2233
▁편이	-12.2237
▁내돈이	-12.2238
▁이상하지	-12.2241
실에서	-12.2242
줌	-12.2244
쁠	-12.2245
▁연락오	-12.2246
하십시오	-12.2248
▁지난달	-12.2249
율이	-12.2249
▁전화하지	-12.2249
▁수업이	-12.2251
▁괴롭	-12.2257
귄	-12.2258
▁망하는거	-12.226
▁건들이지	-12.226
▁했잖	-12.2261
▁깝	-12.2262
▁신용불량	-12.2262
▁건방	-12.2262
▁빠듯	-12.2264
▁정신차릴	-12.2264
▁이부장	-12.2265
춰	-12.2265
엘	-12.2266
칙	-12.2266
▁교통	-12.2266
▁소원	-12.2266
흡	-12.2266
▁콩	-12.2267
함이	-12.2267
▁비정규직	-12.2267
▁당황	-12.2268
▁있나보	-12.2268
샷	-12.2268
칸	-12.2268
뻑	-12.2268
밌	-12.2268
스크	-12.2269
엽	-12.2269
▁부숴	-12.2269
▁수급자	-12.2269
▁샤	-12.2269
쩡	-12.2269
▁왁	-12.2269
▁꼼	-12.2269
▁명문대	-12.2269
끗	-12.2269
퍼센트	-12.2269
▁믹스	-12.227
▁멈	-12.227
▁몽	-12.227
빡이	-12.227
쇄	-12.227
렬	-12.227
▁쑥	-12.227
▁탑	-12.227
인머스켓	-12.227
팥	-12.227
▁독서실갈돈	-12.227
▁왼손	-12.227
▁튜브	-12.227
촉	-12.227
▁뒷골목	-12.227
▁불싸질러버리	-12.227
▁비쌌	-12.227
▁상견례	-12.227
▁스타벅스	-12.227
▁애쉬브라운	-12.227
▁음주단속	-12.227
▁지긋지긋하	-12.227
▁짓밟	-12.227
▁컴플	-12.227
▁트렌드	-12.227
▁판자촌이	-12.227
▁헬	-12.227
▁갈아엎	-12.227
▁감찰관님	-12.227
▁개찌질	-12.227
▁거추장스	-12.227
▁공론화	-12.227
▁공식행사	-12.227
▁관제탑	-12.227
▁급발진하	-12.227
▁기안작성	-12.227
▁김꼬봉	-12.227
▁김포공항까지	-12.227
▁껍데기	-12.227
▁꿍쳐	-12.227
▁끝냅시다	-12.227
▁끼얹	-12.227
▁날벼락	-12.227
▁다리몽둥이	-12.227
▁다이너마이트	-12.227
▁당첨되	-12.227
▁대소변	-12.227
▁대통령이	-12.227
▁동태눈깔	-12.227
▁디자이너	-12.227
▁딸기우유	-12.227
▁땡큐	-12.227
▁뜨개질	-12.227
▁레스토랑	-12.227
▁리트리버	-12.227
▁맬래고	-12.227
▁명부작성	-12.227
▁모범생	-12.227
▁뮤	-12.227
▁미성년자	-12.227
▁반장선거	-12.227
▁방아깨비	-12.227
▁버틴다	-12.227
▁베이킹	-12.227
▁분리수거	-12.227
▁브로커	-12.227
▁비닐봉지	-12.227
▁빈부격차	-12.227
▁빈털털이	-12.227
▁살쪘	-12.227
▁서른하나	-12.227
▁설문조사	-12.227
▁성찬아	-12.227
▁소액결제	-12.227
▁스테이크	-12.227
▁쏟았	-12.227
▁씨부렸	-12.227
▁아마추어	-12.227
▁앨리트	-12.227
▁업무방해죄	-12.227
▁없앨	-12.227
▁엘리베이터	-12.227
▁엘리트	-12.227
▁왼손잡이	-12.227
▁왼팔	-12.227
▁원플러스원	-12.227
▁월급루팡	-12.227
▁웨이	-12.227
▁유부녀	-12.227
▁유투브	-12.227
▁육하원칙	-12.227
▁이의제기	-12.227
▁이판사판이	-12.227
▁인격모독	-12.227
▁입툭튀	-12.227
▁제육볶음	-12.227
▁존댓말	-12.227
▁주물러	-12.227
▁죽여블거구만	-12.227
▁징계위원회	-12.227
▁째째하게	-12.227
▁쩨쩨하게	-12.227
▁차트정리	-12.227
▁찰떡이	-12.227
▁챙겼	-12.227
▁체지방률	-12.227
▁초상권	-12.227
▁촉법소년	-12.227
▁최시후	-12.227
▁클락션	-12.227
▁키보드	-12.227
▁테블렛	-12.227
▁테블릿	-12.227
▁테이블	-12.227
▁특공대	-12.227
▁펑퍼짐	-12.227
▁페미니즘	-12.227
▁페이스북	-12.227
▁평화롭	-12.227
▁폐지줍고	-12.227
▁포착되	-12.227
▁하극상	-12.227
▁하향조정	-12.227
▁학창시절	-12.227
▁한숨쉬었	-12.227
▁한희영씨	-12.227
▁호두아이스크림	-12.227
▁휴대전화	-12.227
▁흔한	-12.227
껍질	-12.227
너무힘들어서그래요	-12.227
떙	-12.227
뜬금없	-12.227
랭	-12.227
만삭	-12.227
메신저로	-12.227
베베	-12.227
시나리오	-12.227
에티켓	-12.227
움찔움찔	-12.227
웨어	-12.227
이마빡	-12.227
인터뷰	-12.227
칩	-12.227
큭	-12.227
템	-12.227
해얄	-12.227
▁번지르르	-12.227
▁시댁에서	-12.227
▁존칭	-12.227
▁진열해	-12.227
▁가만안두	-12.227
▁곤충이	-12.227
▁과다출혈	-12.227
▁기숙사	-12.227
▁단화신	-12.227
▁루이비	-12.227
▁박준수	-12.227
▁불태워	-12.227
▁비협조적	-12.227
▁빠릿하	-12.227
▁사무직	-12.227
▁새재품	-12.227
▁수표	-12.227
▁순대국	-12.227
▁스쳐지나간	-12.227
▁스크래치	-12.227
▁실습실	-12.227
▁싱싱	-12.227
▁쓰다듬	-12.227
▁아프리카	-12.227
▁얄	-12.227
▁외제차	-12.227
▁정류장	-12.227
▁쥐꼬리만한	-12.227
▁쩝쩝	-12.227
▁천벌받	-12.227
▁카카오	-12.227
▁피뽑는	-12.227
6789	-12.227
▁까다롭	-12.227
▁꺄아아아	-12.227
▁디퓨	-12.227
▁목격자	-12.227
▁무너질	-12.227
▁보수적인	-12.227
▁부드러워	-12.227
▁샤넬	-12.227
▁우가우가	-12.227
▁허우적	-12.227
경우에	-12.227
흐흐흐흐	-12.227
▁경위서	-12.227
▁고물상	-12.227
▁그만둘게요	-12.227
▁긍정적	-12.227
▁뉘집	-12.227
▁불법촬영	-12.227
▁석훈이	-12.227
▁빌딩에	-12.227
▁검정고시	-12.227
▁꿀꺽	-12.227
▁넘쳐나	-12.227
▁멍멍	-12.227
▁못나간거	-12.227
▁불합격	-12.227
▁성숙한	-12.227
▁아름답	-12.227
▁젠장	-12.227
▁촌스럽	-12.227
▁무슨소용이	-12.227
▁변함없	-12.227
▁연루되	-12.227
▁조용해지겠	-12.227
▁풍경	-12.227
칙칙	-12.227
▁공항에	-12.227
▁길동제과	-12.227
▁원상복	-12.227
▁존경	-12.227
▁짝퉁	-12.227
▁철벽	-12.227
▁손세차	-12.227
▁가디건	-12.227
▁굼떠	-12.227
▁빼돌렸다	-12.227
▁쌀쌀	-12.227
▁청각장애	-12.227
▁치졸하	-12.227
▁흐흐흐	-12.227
▁깜둥이	-12.227
▁노원구	-12.227
▁소비자보호센	-12.227
▁형민샘	-12.227
▁금이빨	-12.227
▁속도위반이	-12.227
▁기대되네	-12.227
▁동남아	-12.227
▁박우식	-12.227
▁시의원	-12.227
▁틀림없	-12.227
▁학력위조	-12.227
▁수작부리지	-12.227
▁생리현상	-12.227
▁신혼이	-12.227
▁악감정	-12.227
▁근무태만	-12.227
퓨타	-12.227
▁품절	-12.227
킄킄	-12.227
▁개웃기지	-12.227
▁묻어놨	-12.227
▁쑥덕거	-12.227
▁은행비밀번호	-12.227
▁장바구니인	-12.227
▁침착하	-12.227
▁클랜	-12.227
▁품위	-12.227
띠로리	-12.227
▁무단결	-12.227
활동	-12.227
▁못생김	-12.227
▁삭감	-12.227
▁승객	-12.227
▁식충	-12.227
▁안계시	-12.227
신경안쓰	-12.227
▁파쇄해	-12.227
▁금팔찌	-12.227
▁덤벼	-12.227
▁좋아지셨잖아	-12.227
▁추가기능	-12.227
▁소유권	-12.227
▁쌓여있	-12.227
▁집어넣어	-12.227
▁철회하겠	-12.227
▁편돌이	-12.227
▁미영샘	-12.227
▁관광	-12.227
▁나불대	-12.227
▁도서관	-12.227
▁못내겠으니	-12.227
▁정신지체	-12.227
스탈이	-12.227
▁메세지	-12.227
▁몸무게	-12.227
▁종훈이	-12.227
▁쿠키	-12.227
▁눕히	-12.227
▁손재주	-12.227
▁어길시	-12.227
▁땡땡병원	-12.227
▁교복입은	-12.227
▁꾀병	-12.227
▁꾸민	-12.227
▁덜맞았나	-12.227
▁긁혔	-12.227
▁사춘기	-12.227
▁백퍼센트	-12.227
번출구	-12.227
▁연습량	-12.227
▁편견	-12.227
▁급떨어지	-12.227
▁박명수	-12.227
▁위협	-12.227
케이션	-12.227
▁돈까스	-12.227
거같	-12.227
여버릴거야	-12.227
▁괴롭힌	-12.227
▁보험료	-12.227
▁뺀질거리	-12.227
▁환청	-12.227
▁동아리	-12.227
▁마케팅	-12.227
▁심리적으로	-12.227
디럭	-12.227
▁계약직으로	-12.227
▁아이돌준비	-12.227
▁클레	-12.227
▁경비아저씨	-12.227
▁슈퍼	-12.227
▁스벅	-12.227
▁두꺼비	-12.227
▁명문대생	-12.227
▁모아놓은	-12.227
▁조교님	-12.227
▁태클	-12.227
기발	-12.227
▁계약직이	-12.227
▁김민경	-12.227
▁왁스	-12.227
▁필승	-12.227
▁털쟁이	-12.227
▁폐급인거	-12.227
▁빌빌거리	-12.227
▁가까워	-12.227
▁겨울	-12.227
▁경마장	-12.227
▁따돌림당하	-12.227
▁창의적이지	-12.227
마인드	-12.2271
▁냅둘	-12.2271
▁쿵쿵거려	-12.2271
▁핑프	-12.2271
바꾼다	-12.2271
▁티셔츠	-12.2271
▁모함하	-12.2271
▁불안정	-12.2271
▁쉬쉬	-12.2271
▁중얼거	-12.2271
▁근평	-12.2271
▁동수저	-12.2271
▁종업원	-12.2271
▁어깨친거	-12.2271
▁따롸하	-12.2271
▁뜨끔	-12.2271
▁묶여	-12.2271
▁외롭	-12.2271
▁되묻	-12.2271
▁신고하겠소	-12.2271
▁안모아지	-12.2271
▁화이팅	-12.2271
▁채취하	-12.2271
▁감동이	-12.2271
▁무례하시네요	-12.2271
▁빡대가리	-12.2271
▁짤렸	-12.2271
▁오바마	-12.2271
▁오해말게	-12.2271
▁작성완료	-12.2271
▁모델	-12.2271
▁입막음	-12.2271
▁출출	-12.2271
▁카드내역	-12.2271
▁김나리	-12.2271
▁윗상사	-12.2271
▁프림	-12.2271
▁결석	-12.2271
▁갇혀	-12.2271
▁비쌀	-12.2271
▁디스	-12.2271
▁어금니	-12.2271
▁철판	-12.2271
▁기프트	-12.2271
▁맛도없	-12.2271
▁오라가라	-12.2271
▁돌아다녔	-12.2271
▁소홀	-12.2271
뜨끈	-12.2271
▁징그러운	-12.2271
▁괴물이	-12.2271
▁꼬봉	-12.2271
▁불복종	-12.2271
▁싸웠	-12.2271
▁집어치워	-12.2271
▁선후배	-12.2271
▁경수씨	-12.2271
▁못해먹겠	-12.2271
▁숙련	-12.2271
▁뺐어가	-12.2271
▁식칼	-12.2271
▁유식하	-12.2271
▁생육	-12.2271
▁호빗	-12.2271
▁도망간거	-12.2271
▁뜸들이지	-12.2271
▁빌빌	-12.2271
▁이송중	-12.2271
▁틀딱	-12.2271
▁발끈하네	-12.2271
▁휴식기	-12.2271
▁떨어트	-12.2271
▁예수님	-12.2271
▁소나기	-12.2271
▁언능	-12.2271
▁주제파악	-12.2271
▁중고차	-12.2271
▁제삿날이다	-12.2271
▁치명적	-12.2271
▁관례	-12.2271
▁미친것들아	-12.2271
▁빈혈	-12.2271
▁두개골	-12.2271
▁멀뚱	-12.2271
▁터뜨려	-12.2271
▁여유롭	-12.2271
▁발휘	-12.2271
▁느껴보라구	-12.2271
▁바쁘시다고	-12.2271
▁외로우	-12.2271
▁향수	-12.2271
▁화목하지	-12.2271
▁배때지	-12.2271
▁넘어갔	-12.2271
▁넘어가주실	-12.2271
▁비었구	-12.2271
▁이병헌	-12.2271
▁뒷전이	-12.2271
▁아름다	-12.2271
굽신	-12.2271
깔짝	-12.2271
▁빈자리	-12.2271
▁대령	-12.2272
▁가르쳐준	-12.2272
▁공과금	-12.2272
▁쫓아다니	-12.2272
▁섹시	-12.2272
▁잠궈	-12.2272
▁천지차	-12.2272
▁한국남자	-12.2272
36	-12.2272
▁정떨어지	-12.2272
껌뻑	-12.2272
▁노닥	-12.2272
▁운전기사	-12.2272
▁공짜폰	-12.2272
채시려는	-12.2272
▁김민수	-12.2272
▁철철	-12.2272
▁개인비서	-12.2272
아아아악	-12.2272
빤짝	-12.2272
▁바람펴	-12.2272
▁해보시던지	-12.2272
▁사고났	-12.2272
▁송구	-12.2272
▁칸에	-12.2272
▁시간낭비	-12.2272
▁용납	-12.2272
▁잃어버린	-12.2272
▁기절시켜	-12.2272
▁여유로운	-12.2272
▁대포통장	-12.2272
▁긁어버리	-12.2272
▁데려온거	-12.2272
▁복귀	-12.2272
▁셋째	-12.2272
▁도벽	-12.2272
▁쏟아부	-12.2272
▁원샷	-12.2272
▁미나씨	-12.2272
▁요령	-12.2272
▁실패	-12.2272
▁미안할짓	-12.2272
▁무너지	-12.2272
▁신용카드	-12.2272
▁똥싸	-12.2272
▁구회장	-12.2272
▁바뻐	-12.2272
▁덤비	-12.2272
▁정신나갔	-12.2272
▁지시하신	-12.2272
▁피바람	-12.2272
고싶지않아	-12.2272
▁부조리	-12.2272
▁악담	-12.2272
▁나눠쓰자	-12.2272
▁못갚을거	-12.2272
▁생겨먹었	-12.2272
▁정준하	-12.2272
▁환불기한	-12.2272
▁검정	-12.2272
▁종이가방	-12.2272
▁관악	-12.2273
▁아들내미	-12.2273
▁폐업	-12.2273
▁익명	-12.2273
▁걸렸었	-12.2273
▁비정규직이잖아	-12.2273
▁때래해	-12.2273
▁팀킬	-12.2273
▁배달완료	-12.2273
▁폭파시키	-12.2273
▁씹덕	-12.2273
▁놀랄	-12.2273
▁동네바보	-12.2273
▁접속	-12.2273
▁착한척	-12.2273
▁컵라면	-12.2273
▁마련해볼게	-12.2273
▁파탄	-12.2273
투덜	-12.2273
▁콩밥	-12.2273
타임	-12.2273
▁쪼가리	-12.2273
▁개인주의	-12.2273
▁방송	-12.2273
▁에너지	-12.2273
▁청산	-12.2273
▁부러질	-12.2273
▁택시	-12.2273
▁모양새	-12.2273
▁사기도박	-12.2273
▁구해온다	-12.2273
▁알뜰	-12.2273
▁살릴래	-12.2273
▁토익	-12.2273
▁연착	-12.2273
▁짱개	-12.2273
▁파이프	-12.2273
▁서울역	-12.2273
▁재환	-12.2273
▁사이코패스	-12.2274
▁서류정리	-12.2274
▁공범	-12.2274
▁아이고아이고	-12.2274
▁시험점수	-12.2274
▁단체생활	-12.2274
구할데가	-12.2274
유지비	-12.2274
▁짧았습니다	-12.2274
▁물량	-12.2274
▁지팡이	-12.2274
▁한두푼	-12.2274
▁설명해주신	-12.2274
▁쓰러져	-12.2274
▁의심병	-12.2274
▁중학교때	-12.2274
▁선착	-12.2274
▁코털	-12.2274
▁카운	-12.2274
▁체육관	-12.2274
▁복잡한데	-12.2274
▁비참해	-12.2274
▁사기죄	-12.2274
▁조카	-12.2274
▁도망간다	-12.2274
▁인권	-12.2274
▁졸고있	-12.2274
들어오기러	-12.2274
▁민족	-12.2274
▁복직	-12.2274
▁교체	-12.2274
▁전염병	-12.2274
▁게이같	-12.2274
▁발생할	-12.2274
어봐도	-12.2275
▁씻는다고	-12.2275
▁교도관	-12.2275
▁가르칠	-12.2275
▁오해받는	-12.2275
▁아닐테	-12.2275
▁처절	-12.2275
▁배려심	-12.2275
▁터트려	-12.2275
▁맡겨둔	-12.2275
▁지껄여	-12.2275
▁개봉하셨	-12.2275
▁누누	-12.2275
메뉴얼	-12.2275
안펴	-12.2275
▁요번주까지	-12.2275
▁후려줘	-12.2275
▁치켜	-12.2275
▁불편해보여	-12.2275
▁연구비	-12.2275
▁칠순	-12.2275
▁인출	-12.2275
▁화채	-12.2275
▁배민	-12.2275
▁불지르	-12.2275
▁불평	-12.2275
▁주인공	-12.2275
▁과실이	-12.2275
▁욕나오	-12.2275
▁회의자료	-12.2275
▁알라신	-12.2276
▁용돈받는	-12.2276
▁갇히	-12.2276
▁신어보겠다	-12.2276
▁캐시	-12.2276
▁챙겨먹고	-12.2276
것저것	-12.2276
▁놀래	-12.2276
▁광수씨	-12.2276
▁목이타	-12.2276
▁간판	-12.2276
▁망신당하	-12.2276
▁십년	-12.2276
▁전과자라	-12.2276
▁직장상사	-12.2276
▁빌려드렸	-12.2276
▁껴준다고	-12.2276
▁메스	-12.2276
▁요양병원	-12.2276
▁처방전	-12.2276
▁고소할겁니다	-12.2276
▁많이컸	-12.2276
▁지어내	-12.2276
▁찍어둔	-12.2276
▁생리하냐	-12.2276
▁커피마시	-12.2276
▁찾아낸다	-12.2277
▁구매팀	-12.2277
▁미뤄진	-12.2277
▁양대리	-12.2277
▁재판	-12.2277
▁가천대	-12.2277
▁여행가기로	-12.2277
▁운전똑바로	-12.2277
▁구해오던가	-12.2277
▁선물해준거	-12.2277
▁신경거슬리게	-12.2277
▁등등	-12.2277
▁연인사이	-12.2277
▁자극	-12.2277
▁원치않아	-12.2277
▁서두르겠습니다	-12.2277
▁우리구역인	-12.2277
영광	-12.2277
▁실직	-12.2277
▁빵점이	-12.2277
▁양보라는	-12.2277
▁방역	-12.2277
▁당황스러	-12.2278
▁시발럼	-12.2278
▁다른아이들	-12.2278
▁박일병	-12.2278
▁잡채	-12.2278
▁꼬였	-12.2278
▁지폐	-12.2278
▁풀칠	-12.2278
▁찌발	-12.2278
▁주방장	-12.2278
▁형량	-12.2278
▁명절	-12.2278
▁애키우	-12.2278
꾸역	-12.2278
꽉막힌	-12.2278
▁새거사	-12.2278
▁빌려드린	-12.2278
▁치루	-12.2279
▁일반인	-12.2279
▁뽑아버릴테니까	-12.2279
▁소영씨	-12.2279
▁헤매	-12.2279
▁한발짝	-12.2279
▁불효	-12.2279
▁꼴찌	-12.2279
▁놓아주세요	-12.2279
▁배째라	-12.2279
▁시궁창에서	-12.2279
▁반전이	-12.2279
▁그만둘거	-12.2279
▁밝혀내	-12.2279
▁신문사	-12.2279
▁가혹	-12.2279
▁주관이	-12.2279
▁잘어울린다	-12.2279
▁장례식	-12.2279
▁그런가봅	-12.2279
돈안받	-12.2279
▁키스	-12.2279
▁가평에	-12.2279
▁착각하셨나	-12.2279
▁협박하는겁니까	-12.228
▁들어갔다	-12.228
▁이용료	-12.228
▁정석이	-12.228
▁토박	-12.228
▁천재	-12.228
▁45	-12.228
▁개천에	-12.228
▁움직일	-12.228
▁드물어	-12.228
▁채무	-12.228
▁꼬매	-12.228
▁쥐새끼	-12.228
▁늦어질	-12.228
▁우리엄마아빠	-12.2281
▁상전이	-12.2281
▁양치	-12.2281
▁친척	-12.2281
▁뽑아야겠네	-12.2281
▁손님이왕	-12.2281
▁성장기	-12.2281
▁절친	-12.2281
▁딴놈	-12.2281
▁유사원	-12.2281
▁백번	-12.2281
▁부를테니까	-12.2281
▁사가셨	-12.2281
▁흠집	-12.2281
토닥	-12.2281
▁아픈사람	-12.2281
▁뵙겠습니다	-12.2282
▁단답	-12.2282
▁출세	-12.2282
▁150	-12.2282
▁아작내	-12.2282
▁부탁드린	-12.2282
▁떠맡	-12.2282
▁신용등급	-12.2282
▁빨아먹는거	-12.2282
▁빼빼	-12.2282
▁허위	-12.2282
▁변제	-12.2283
▁굴러들어와	-12.2283
▁경찰불러	-12.2283
▁사람살려	-12.2283
▁보관함	-12.2283
▁내주차자리	-12.2283
▁투여	-12.2283
▁철저	-12.2283
▁오늘밤까지	-12.2283
▁찔릴	-12.2283
▁왕씨	-12.2283
▁생색내	-12.2283
▁당장급해서	-12.2283
▁알콜	-12.2283
▁지지자	-12.2283
▁국물내는	-12.2283
입었	-12.2283
▁잘알고있	-12.2283
▁돌려주십시오	-12.2283
▁세계	-12.2283
실밥이	-12.2283
▁구제불능이다	-12.2283
▁술퍼	-12.2283
▁들켜	-12.2284
▁잔업	-12.2284
감량	-12.2284
▁배울	-12.2284
▁권대리	-12.2284
▁시각	-12.2284
▁고생해줘	-12.2284
▁어릴적에	-12.2284
▁로또	-12.2284
▁백신맞	-12.2284
▁대영이	-12.2284
▁기강	-12.2284
흐읍	-12.2284
▁횡제	-12.2284
▁안드시는건	-12.2284
▁신뢰도에	-12.2284
▁왜부르시	-12.2284
▁영태	-12.2284
▁새상품	-12.2285
▁잘못본거	-12.2285
방긋	-12.2285
▁역사	-12.2285
▁챙겨줘야하	-12.2285
▁분류	-12.2285
▁풀릴	-12.2285
▁내성격	-12.2285
▁시민들	-12.2285
▁낼꺼	-12.2285
▁장난전화	-12.2285
▁임관	-12.2286
▁입닥치라	-12.2286
▁물려받은	-12.2286
▁이러셔	-12.2286
▁필수	-12.2286
▁뒷통수를	-12.2286
▁담번에	-12.2286
▁고급진	-12.2286
▁떼어먹	-12.2286
▁당돌	-12.2286
▁지민이	-12.2286
▁글꼴	-12.2286
삐죽	-12.2286
▁빼준거	-12.2287
▁돈빌린	-12.2287
▁떨어뜨린	-12.2287
▁챙겨줘	-12.2287
▁엉망으로	-12.2287
▁시험본	-12.2287
▁팔아버린다	-12.2287
▁웃긴애	-12.2287
▁지킨	-12.2287
▁한나씨	-12.2287
▁촌스러워	-12.2287
▁한두개	-12.2287
▁넣으시면	-12.2287
▁가득	-12.2288
▁잔인하	-12.2288
▁두꺼워	-12.2288
▁개콘	-12.2288
▁살렸다	-12.2288
▁놀림	-12.2288
▁쳐넣	-12.2288
▁씻었는데	-12.2288
▁커피마셔	-12.2288
미만큼	-12.2288
▁변경하	-12.2289
▁고양이	-12.2289
▁빠질	-12.2289
▁애플	-12.2289
재깍	-12.2289
▁거슬린다	-12.2289
▁잠들었	-12.2289
▁털어갈	-12.2289
▁우편	-12.2289
▁돌아온	-12.229
▁수고하세요	-12.229
▁말꼬리	-12.229
▁새로산	-12.229
내밀	-12.229
▁적립	-12.229
▁반팔	-12.229
▁이혼하신	-12.229
▁납득	-12.229
▁시원해	-12.229
▁구청에	-12.229
▁장난아니니까	-12.2291
▁너무하대	-12.2291
▁빌려주면안돼	-12.2291
▁취소하겠습니다	-12.2291
▁비싼척	-12.2291
▁계셨던	-12.2291
▁우리모두	-12.2292
▁안움직이	-12.2292
▁이원씨	-12.2292
▁시팔	-12.2292
단위	-12.2292
▁어르신들	-12.2292
▁정도껏	-12.2292
▁띠껍게	-12.2292
▁데워	-12.2292
칼부터	-12.2292
▁입주민	-12.2292
▁목따	-12.2292
▁찔렸	-12.2292
▁감금	-12.2292
▁안빌려주	-12.2293
▁사슴	-12.2293
▁모셔	-12.2293
▁두드려	-12.2293
▁원본	-12.2293
▁술자리에서	-12.2293
▁양식	-12.2293
▁결혼생활	-12.2293
▁저항	-12.2293
▁이쁠거	-12.2294
▁통과	-12.2294
▁즐거	-12.2294
▁사주신거란	-12.2294
▁안고쳐	-12.2294
▁가스통	-12.2294
만원권	-12.2294
▁내려가봐야	-12.2294
▁때려보라고	-12.2294
스포	-12.2294
▁빵빵	-12.2295
▁하루준다	-12.2295
갈통	-12.2295
▁암바	-12.2295
▁들어줬어	-12.2295
▁예약제	-12.2295
▁어려워질	-12.2295
빠딱	-12.2295
▁제정신아니	-12.2295
▁수영장	-12.2295
▁혼자있게	-12.2295
일어난	-12.2295
▁저번꺼	-12.2296
▁지하	-12.2296
▁출마	-12.2296
▁잘쓴다	-12.2296
▁노트	-12.2296
병신이	-12.2296
▁미칠	-12.2297
▁구매했는데	-12.2297
▁만남	-12.2297
▁버리지마	-12.2297
▁처지에	-12.2297
못할걸	-12.2297
▁들어갈게요	-12.2297
▁두통이	-12.2297
▁학사	-12.2297
▁기색	-12.2298
▁입털	-12.2298
▁살찌	-12.2298
▁잔소리	-12.2298
▁짜증난다	-12.2298
▁참교육	-12.2298
▁다른제품	-12.2299
억지쓰	-12.2299
▁맡아줘	-12.2299
▁보여줄께	-12.2299
▁수빈	-12.2299
▁액수	-12.23
▁해당업체	-12.23
▁데리러와	-12.23
▁베트남사람이	-12.23
▁해명하	-12.23
▁숙소	-12.2301
푸석	-12.2301
▁노력이	-12.2301
▁된다니깐	-12.2301
▁안괴롭히	-12.2301
았나봐	-12.2301
▁사례	-12.2301
▁준다니깐	-12.2301
▁그어버리	-12.2301
▁벌받	-12.2301
▁먹물	-12.2301
▁할줄아나	-12.2301
▁학폭으로	-12.2301
▁빙신	-12.2302
▁은희	-12.2302
▁겪어봐야	-12.2302
▁경제	-12.2302
기러했	-12.2303
▁헛나왔	-12.2303
▁편하지는	-12.2303
▁지켜주는	-12.2303
▁했던건데	-12.2303
▁본심	-12.2303
▁학비	-12.2303
▁말씀드려볼게	-12.2303
▁계단	-12.2303
▁다른길로	-12.2304
▁최팀장님	-12.2304
▁인강	-12.2304
들어주겠냐	-12.2304
▁깨워	-12.2304
▁때려치우	-12.2304
▁기재	-12.2304
▁하지말아줘	-12.2304
▁편드	-12.2304
▁군말	-12.2304
▁기자한테	-12.2304
▁물품하나	-12.2304
▁삼가해주	-12.2304
▁이사람아	-12.2304
▁부당해	-12.2304
▁화장했는데	-12.2304
성웅	-12.2304
▁골프약속	-12.2305
▁복잡해	-12.2305
▁써야할거	-12.2305
▁가방줘봐	-12.2305
▁은색	-12.2305
▁부담스러워요	-12.2305
겸사	-12.2305
▁증거사진이	-12.2305
▁이쪽길	-12.2306
▁혼내	-12.2306
▁아무잘못	-12.2306
▁아뉘	-12.2306
▁욕하셨	-12.2306
▁예민하다니까	-12.2306
▁나가보게	-12.2306
▁사라져줄게	-12.2307
▁손절	-12.2307
▁팀장님업무	-12.2307
▁해결보자	-12.2307
▁싫으니	-12.2307
▁선정	-12.2307
▁연락하지마세요	-12.2307
하느냐	-12.2308
▁김영	-12.2308
▁안오르	-12.2308
▁덮어	-12.2308
▁성장	-12.2309
▁다다음주에	-12.2309
▁말이됩니까	-12.2309
자라는	-12.2309
▁제정신일수	-12.2309
▁망가져	-12.2309
▁처사	-12.2309
▁안무서운	-12.2309
겠단거야	-12.2309
▁자른다	-12.2309
▁잘돌아	-12.2309
▁위험해져	-12.2309
▁허전	-12.2309
▁안들리세요	-12.2309
▁하기만해	-12.2309
▁온라인으로	-12.2309
경수야	-12.2309
▁최팀장이	-12.231
▁갖다놔	-12.231
▁최악이야	-12.231
▁한가해보이	-12.231
▁나눠먹게	-12.231
▁회식비	-12.231
▁독일	-12.2311
▁부셔버릴	-12.2311
승진평가	-12.2311
▁교신	-12.2311
놓을거야	-12.2312
무들	-12.2312
▁갖다와	-12.2312
▁쳐맞자	-12.2312
▁준비한건데	-12.2312
▁찌르려고	-12.2313
▁없었던	-12.2313
으려는	-12.2313
▁쫓아오	-12.2313
▁처분	-12.2313
▁과장달	-12.2313
▁여겨	-12.2314
▁가까우	-12.2314
▁부족했나봐	-12.2314
▁위아래가	-12.2314
▁픽업해주	-12.2314
▁갚아주면	-12.2315
▁하고다니는	-12.2315
▁엉망이더라	-12.2315
▁도착해	-12.2315
▁산소	-12.2315
▁진동을	-12.2315
▁텅비	-12.2315
▁약먹여	-12.2315
▁친구분들이	-12.2315
▁높으	-12.2315
▁수갑	-12.2316
▁신선	-12.2316
▁로비	-12.2316
▁가자구	-12.2316
▁공부열심히	-12.2316
▁싶은가봐	-12.2317
▁신고가	-12.2317
▁연락할	-12.2317
▁개구리	-12.2318
▁놀아줘	-12.2318
▁접대	-12.2319
끊을	-12.2319
▁노란	-12.2319
방식	-12.2319
횡령한	-12.232
▁중국사람	-12.232
▁보상금	-12.232
▁가봐야하는데	-12.232
▁계셨네	-12.232
써볼테니	-12.2321
▁절뚝거	-12.2321
▁이혼한거	-12.2321
페이	-12.2321
블로	-12.2321
▁잘부탁해	-12.2321
▁조금이따가	-12.2321
▁전직원	-12.2322
▁불편사항	-12.2322
▁뭐가문제	-12.2322
▁조심하라고	-12.2323
▁물러나	-12.2323
▁배탈나	-12.2323
이새끼야	-12.2323
▁짜르는	-12.2323
▁흥분했	-12.2324
▁돌려줄거지	-12.2324
▁높여	-12.2324
씩이다	-12.2324
▁안전한	-12.2324
▁오시는거	-12.2324
▁아내분	-12.2325
▁보시는거	-12.2325
▁본드	-12.2325
▁사라졌	-12.2325
▁배치	-12.2326
▁굶기	-12.2326
▁사기꾼아	-12.2326
▁공부중	-12.2327
▁퍼뜨릴꺼	-12.2327
▁박차장님	-12.2327
▁평사원이	-12.2327
▁먹여살리기	-12.2327
찐것	-12.2327
혜윤	-12.2327
▁친구좋다는게	-12.2328
▁비키세요	-12.2328
▁자처	-12.2328
▁기꺼	-12.2328
▁내숙제	-12.2329
▁아쉬워	-12.2329
▁오시지마	-12.2329
▁여행가는지	-12.2329
밀	-12.2329
▁무선	-12.233
▁퇴원	-12.233
▁부치고	-12.233
▁동기들한테	-12.233
나야겠다	-12.233
겄다	-12.2331
있을거같	-12.2331
▁짜릿	-12.2331
▁꼴값	-12.2331
▁놨나	-12.2331
▁화려	-12.2331
▁싶나보네	-12.2332
▁계좌보낼	-12.2332
커팅	-12.2332
▁잠그	-12.2332
경찰청	-12.2332
▁해드리	-12.2332
쟁이	-12.2332
▁13	-12.2332
▁세세	-12.2332
▁참으세요	-12.2333
▁알아봐	-12.2333
▁질질짜	-12.2333
▁잔돈	-12.2333
▁긴장	-12.2333
▁주중에	-12.2333
▁하지말라구	-12.2333
29	-12.2334
▁안될것같은데	-12.2334
▁싫은가보지	-12.2334
▁즉사	-12.2334
▁오늘밤	-12.2334
▁멍청하게	-12.2334
▁말햇어	-12.2335
▁고졸인	-12.2335
▁교재비	-12.2336
▁어떡하실	-12.2336
▁애쓰	-12.2336
▁쓸텐데	-12.2336
▁기분나쁜가	-12.2336
▁송대리네	-12.2336
▁갚을려고	-12.2337
▁판매한	-12.2338
▁악마	-12.2338
▁걔네랑	-12.2338
▁든든	-12.2339
▁안들어주면	-12.2339
▁구해볼께	-12.2339
▁빈정	-12.2339
▁물어보신	-12.2339
▁배제	-12.234
▁주민번호로	-12.234
▁죽이려	-12.234
▁마셨	-12.234
▁불러오	-12.2341
▁통하겠어	-12.2341
▁태우	-12.2341
▁못합니	-12.2342
▁사오도록	-12.2342
좀빼	-12.2342
신데요	-12.2342
▁속였	-12.2343
▁밉보이	-12.2344
몇푼	-12.2344
▁갈아입	-12.2345
▁말씀드리겠습니다	-12.2345
▁해왔잖아	-12.2345
▁나쁘대	-12.2345
▁늘어난	-12.2346
머니	-12.2347
▁말아주십시요	-12.2347
▁살려내지	-12.2347
▁잘못먹었	-12.2347
년차인	-12.2347
▁쉰다	-12.2348
▁어떡하긴	-12.2349
래머	-12.2349
▁기준이고	-12.2349
▁길동경찰서	-12.2349
▁빌려가셨잖	-12.2349
▁찍혔으	-12.2349
▁과장님께	-12.235
▁불난	-12.235
▁혜정	-12.235
▁자재	-12.235
▁버린거	-12.235
▁만난사람	-12.235
▁잘했어야지	-12.235
▁보증	-12.235
▁나무라	-12.2351
▁깔깔이	-12.2351
▁직장인이	-12.2351
▁수익	-12.2351
어려웠	-12.2351
▁지옥같은	-12.2352
▁취급하	-12.2352
▁아는척	-12.2352
▁담궈버릴까	-12.2352
▁하나둘	-12.2352
▁삭제했	-12.2352
▁개통	-12.2352
▁의미있는	-12.2353
▁끝내도록	-12.2353
▁폈	-12.2353
▁사준거란말	-12.2353
기어다니	-12.2353
▁지나치신거	-12.2353
시일내	-12.2355
▁내숭	-12.2355
양심없는	-12.2355
▁반장	-12.2356
▁최하	-12.2356
▁오전까지	-12.2356
▁성근씨	-12.2356
▁잘못된거야	-12.2357
▁안계십니	-12.2357
▁돌반지	-12.2357
▁신제품이	-12.2357
석인데	-12.2357
일루와바	-12.2357
▁좋을때	-12.2358
▁뜨거	-12.2359
▁마주쳤	-12.2359
▁얘기하시죠	-12.2359
▁남자직원이	-12.2359
▁떠든	-12.2359
▁예약했는데	-12.236
▁무서운줄	-12.236
▁말해줬	-12.2361
▁기생충이라	-12.2361
▁기억력	-12.2361
▁그짝이	-12.2362
▁들고다니네	-12.2362
감한	-12.2363
▁개판이다	-12.2363
▁두발	-12.2363
▁안자르	-12.2363
▁입금안	-12.2364
매출	-12.2364
▁김정	-12.2365
▁죽게생겼	-12.2365
▁달라진	-12.2365
▁비꼬시는	-12.2366
▁죽여버릴테니	-12.2366
▁전부인	-12.2366
▁노출이	-12.2366
▁과분	-12.2366
▁모질	-12.2366
▁얼음	-12.2366
▁바랄게요	-12.2367
▁뛰어내린	-12.2367
▁와줬	-12.2368
▁안힘든	-12.2368
▁도배	-12.2368
▁안좋대	-12.2368
▁장난친	-12.2369
▁괴롭히라고	-12.2369
▁조회수	-12.2369
▁독한	-12.237
▁판단하는	-12.237
▁못보던	-12.237
▁가루	-12.237
▁무무슨	-12.2371
▁욕먹이	-12.2371
라꾸	-12.2371
▁가란다	-12.2371
▁식었잖아	-12.2373
▁힘들어질	-12.2373
▁살려줄거	-12.2373
▁있다니깐	-12.2373
▁끼워	-12.2373
▁뭔말이	-12.2374
▁떡	-12.2375
▁대해주	-12.2375
▁무단	-12.2375
▁입고있는	-12.2375
▁돈쓰는	-12.2375
▁잡는다	-12.2376
동서는	-12.2376
▁시위하는거	-12.2376
▁회사업무	-12.2376
▁맞선	-12.2376
▁한국사람이	-12.2377
▁검은	-12.2377
▁비슷하더라	-12.2378
▁장난치지	-12.2379
▁어떤사람인줄알	-12.2379
▁투자한	-12.2379
▁끊어라	-12.2379
▁지방	-12.2379
▁안쳐다봤	-12.2379
▁못다닐	-12.2379
▁떵떵거	-12.2379
▁끝내려	-12.238
▁고장난거	-12.238
듣는	-12.2381
▁퇴사했	-12.2381
▁것같지	-12.2382
▁족	-12.2383
▁비꼬는거	-12.2384
▁거울이나	-12.2384
▁준비하겠습니다	-12.2384
▁못배워먹은	-12.2385
돌보려	-12.2385
▁전용	-12.2386
▁안된다구요	-12.2386
▁뭘그만해	-12.2386
어야	-12.2386
▁잘생각해봐	-12.2386
▁튀어나왔	-12.2386
▁주차장이	-12.2387
▁했는	-12.2387
사도	-12.2387
▁받겠네	-12.2387
▁배수	-12.2387
▁실시간	-12.2387
해주겠다는	-12.2387
▁진짜라니까요	-12.2387
▁나이들어	-12.2388
소송	-12.2389
▁조심해주세요	-12.2389
▁그러실까	-12.2389
▁강부장님	-12.2389
겼다고	-12.239
선씨	-12.239
우습게본	-12.2391
▁대낮	-12.2392
▁병신만들어	-12.2393
▁약해지는	-12.2393
해주는건데	-12.2393
▁체면	-12.2394
▁다행이네요	-12.2394
▁도용	-12.2394
▁배려해주	-12.2394
▁말세야	-12.2395
▁놓쳐	-12.2395
▁불우	-12.2396
▁자동	-12.2397
▁해결되	-12.2397
▁무슨뜻이	-12.2397
▁소리쳐	-12.2398
▁치과	-12.2398
빙수	-12.24
▁떨어질거	-12.2401
▁얘기하려고	-12.2401
▁말해줬어야	-12.2402
▁비추	-12.2402
키지	-12.2402
▁상납해	-12.2402
▁저딴	-12.2402
▁수금	-12.2403
▁깨버리	-12.2403
▁풀자	-12.2403
▁한채	-12.2403
▁쉰다고	-12.2404
▁지저분해	-12.2404
▁맞는것	-12.2404
▁죽어보자	-12.2404
▁불안해졌	-12.2404
▁부실게	-12.2404
소독	-12.2405
▁사복	-12.2405
▁못본	-12.2405
▁다른반	-12.2405
▁몸살이	-12.2407
내미	-12.2407
▁한말인데	-12.2407
▁좋아하실	-12.2407
▁야근할	-12.2407
▁정정	-12.2408
▁박살나	-12.2408
되는줄	-12.2409
▁없애버려	-12.241
▁챙겨드리	-12.241
▁겹	-12.2411
달까	-12.2411
▁터트리	-12.2413
▁김대	-12.2413
▁안돌려줘	-12.2413
▁돌려받을	-12.2413
▁꺾을	-12.2413
▁하민씨가	-12.2413
▁나가는데	-12.2413
▁확장	-12.2413
▁닥치라고	-12.2414
▁회식자리	-12.2415
▁싫은가보	-12.2415
▁32	-12.2415
까슬	-12.2416
▁신체적인	-12.2417
되는거잖아	-12.2417
▁잘려나갈	-12.2417
▁다름	-12.2418
▁부분입니다	-12.2418
▁안끝냈는데	-12.2418
▁잘넘어가	-12.2419
넘어	-12.242
▁싱글이	-12.242
▁땡기	-12.2422
▁쉬시는	-12.2422
▁겪어왔	-12.2422
▁될만한	-12.2423
▁옆반	-12.2423
잇어	-12.2424
▁직원분들	-12.2424
▁쓸만한	-12.2425
▁더럽히	-12.2426
봤을때	-12.2426
▁간지나	-12.2426
▁점심값	-12.2426
▁뒈지	-12.2426
▁난이도	-12.2427
▁길가다	-12.2427
▁끝날거야	-12.2428
▁맘충이	-12.2428
▁구경하고	-12.2428
한단말이	-12.2428
줄꺼	-12.2428
▁쓰래기야	-12.2428
▁조심해야하는	-12.2429
▁제눈	-12.243
직으로	-12.243
▁않았을거	-12.243
▁수비	-12.243
▁조심좀	-12.2431
▁놀러다니	-12.2431
▁밟았	-12.2431
▁아하하	-12.2432
▁우리부모님	-12.2432
▁총대	-12.2433
맞춘	-12.2434
▁제업무	-12.2434
▁메뉴에	-12.2434
▁천원뿐	-12.2436
▁매치	-12.2436
▁빌붙	-12.2437
▁빨래	-12.2437
▁있을걸	-12.2437
▁실수하지	-12.2438
▁안건드렸	-12.2439
▁해둔	-12.2439
▁당직자	-12.2439
▁괜찮은거	-12.2439
헤실	-12.244
형인	-12.244
기념일	-12.2441
▁가족에게	-12.2442
▁고통받아	-12.2442
내버릴테니	-12.2442
▁거절해서	-12.2442
▁조심하자	-12.2443
까고	-12.2443
▁넣어놓고	-12.2443
러운	-12.2444
▁때려줘	-12.2444
▁말해줬더니	-12.2444
▁친구인	-12.2445
년전에	-12.2445
▁남겨오라	-12.2445
▁잖아	-12.2445
▁들어가기	-12.2446
▁준비하세요	-12.2446
▁염	-12.2448
▁이번꺼	-12.2448
▁뒤져라	-12.2449
▁로마	-12.245
▁신약이	-12.245
▁성함	-12.245
▁부탁이에요	-12.2451
제압	-12.2452
▁잘듣네	-12.2452
▁해남	-12.2452
놀아	-12.2452
▁본능	-12.2453
▁다리하나	-12.2453
▁교수되	-12.2454
▁만져봐	-12.2454
▁밥상	-12.2454
▁세시간	-12.2455
었을	-12.2455
▁라떼는	-12.2455
▁하교	-12.2456
만원정도	-12.2457
▁안찍	-12.2457
물고	-12.2458
▁돋네	-12.2458
과목이	-12.246
▁일하시려	-12.246
▁손실	-12.246
▁하사원	-12.246
죽든	-12.2461
▁의자	-12.2462
말씀이	-12.2462
▁사랑한다면	-12.2462
부하직원이	-12.2464
▁뭐드시	-12.2465
▁검색해보	-12.2465
▁늘어나	-12.2466
▁몇반이	-12.2467
▁가시라구	-12.2467
▁안배웠	-12.2467
▁입어만	-12.2468
▁너한	-12.2468
▁한짝	-12.2468
▁실수하지말라	-12.2469
▁이뻐하시	-12.247
▁신경써야해	-12.247
▁그만두게	-12.2471
▁모자쓰	-12.2472
▁죽어줘야겠	-12.2472
▁살인을	-12.2473
▁안먹었잖아	-12.2473
▁택도	-12.2473
▁그러신거	-12.2474
▁비꼬아	-12.2474
▁않겠냐	-12.2474
▁숨겨놓	-12.2474
▁실실	-12.2474
▁안변	-12.2475
▁잡혔	-12.2475
▁생각했냐	-12.2475
▁외부에	-12.2476
▁봐보	-12.2476
▁소중하	-12.2477
▁신고하자	-12.2478
▁가자구요	-12.2479
나빠진다	-12.248
▁쫄보	-12.248
▁엉망인	-12.2481
났으니	-12.2482
▁개그	-12.2484
▁이런식이었어	-12.2484
▁재미있어	-12.2484
▁죽어줘	-12.2485
기업	-12.2485
▁만들어내	-12.2485
▁지불해	-12.2485
▁민석이	-12.2487
행을	-12.2488
▁두고보자고	-12.2488
▁쪼들	-12.2489
▁끊겼	-12.2489
욕보이	-12.249
▁알아야해	-12.249
새키	-12.249
▁시험기간이	-12.249
▁남용	-12.249
나옵니	-12.2491
▁달라져	-12.2491
▁해올게	-12.2491
나이먹어서	-12.2492
▁복어	-12.2492
▁유산	-12.2493
▁대학생이	-12.2494
▁직장생활이	-12.2495
드문	-12.2495
▁비리	-12.2496
안한거잖아	-12.2496
새록	-12.2496
▁거짓말하네	-12.2497
▁부드러운	-12.2497
▁안줬	-12.2497
▁안싸	-12.2499
▁폭로해	-12.2499
▁끼어들었	-12.25
▁잘못하신	-12.25
현상	-12.25
▁나불거리	-12.25
좋을것같아	-12.25
▁다양	-12.2501
▁씻은	-12.2501
▁중요한날	-12.2502
▁유선	-12.2503
▁낀거	-12.2504
▁묻어버릴	-12.2504
▁너무하신	-12.2504
▁민수아빠	-12.2505
▁곱	-12.2505
▁쉬려하	-12.2506
릴꺼야	-12.2508
▁열정이	-12.2508
보로	-12.2509
▁다행이네	-12.2509
연락	-12.251
▁덕분인	-12.251
듣자	-12.2512
▁불참이라	-12.2513
▁그업체	-12.2514
▁치켜뜨	-12.2514
▁신고하기만	-12.2515
▁손님에게	-12.2516
▁드라이	-12.2517
▁아쉽네	-12.2517
▁지연되	-12.2517
▁기차	-12.2518
▁안도와	-12.2518
▁묻어버리	-12.2519
올께요	-12.2519
반이	-12.2521
▁발령	-12.2521
▁민우야	-12.2521
▁보내줘라	-12.2521
▁기수	-12.2522
▁퍼뜨린	-12.2522
▁환장했나	-12.2524
▁고친	-12.2524
▁확인했어	-12.2525
▁운동안	-12.2525
시절	-12.2526
▁한벌	-12.2526
▁좋아져서	-12.2527
▁가둬	-12.2527
▁학원비라	-12.2528
▁전표	-12.2528
기분상하게	-12.2529
▁협	-12.2529
▁권고	-12.2529
않나	-12.253
▁완	-12.2532
▁노력할게요	-12.2533
행사때	-12.2534
포함해	-12.2535
▁굴려봐	-12.2536
▁아범	-12.2536
▁안온다	-12.2537
▁해당되	-12.2537
▁발표할	-12.2538
▁붙이라고	-12.2538
▁금전	-12.2539
▁얼마잇	-12.254
▁놀래서	-12.254
▁기분나쁜	-12.2541
▁달라졌어	-12.2544
▁키웠지	-12.2545
▁출장갔	-12.2546
▁당구	-12.2546
▁낮게주	-12.2547
▁뱃	-12.2547
▁능력자	-12.2547
▁하나정도	-12.2548
▁아랫사람	-12.2548
▁목숨걸	-12.255
▁빨개지	-12.2551
▁튀어나와	-12.2552
후비	-12.2552
▁비밀이야	-12.2554
▁세워	-12.2554
▁버는거	-12.2555
가락	-12.2556
▁안할거	-12.2557
▁없소	-12.2557
▁내빼	-12.2557
쓰러워	-12.2558
▁어케	-12.2558
▁해보던지	-12.2558
▁걸어라	-12.2559
▁공개하구	-12.256
▁범위	-12.256
▁죄송한거	-12.256
▁거역	-12.2563
▁연장해	-12.2563
▁뜸	-12.2564
▁하자는거	-12.2564
▁유행이	-12.2565
▁찾아온	-12.2566
▁펑	-12.2566
▁받자고	-12.2567
▁흉내내	-12.2568
▁반차쓰	-12.2568
▁되시	-12.2569
▁다녀올께	-12.2569
▁충격	-12.257
▁줬었잖아	-12.257
▁용사	-12.257
▁하고싶은데	-12.2571
▁보시라고	-12.2571
▁멋져	-12.2572
▁말아라	-12.2572
▁시시	-12.2572
▁사올까	-12.2573
▁가르쳐줘야	-12.2574
▁못나갈	-12.2575
▁붓	-12.2575
▁섰	-12.2575
▁덥	-12.2575
▁삽	-12.2575
보내	-12.2576
고해주세요	-12.2576
▁좌석	-12.2576
▁항의하는	-12.2577
살다	-12.2577
▁뻥치	-12.2577
▁부드	-12.2579
▁변명이라	-12.2579
▁건방지	-12.2579
▁전남친	-12.2579
빛이나	-12.2582
▁보든가	-12.2582
▁올랐	-12.2583
▁제생각	-12.2584
▁주님	-12.2584
▁챙길게	-12.2584
▁끼친	-12.2585
▁비교해	-12.2585
실로	-12.2585
▁상사들	-12.2586
▁낄	-12.2587
지났어	-12.2587
▁신경써줘야	-12.2587
먹을까	-12.2587
▁신호	-12.2588
▁충실	-12.2588
▁코드	-12.2588
이팅	-12.2589
▁될꺼	-12.2589
▁숟가락	-12.259
▁싫었을거	-12.259
▁폐지	-12.2591
▁옆집인데	-12.2591
▁도망을	-12.2591
당에서	-12.2592
른다는	-12.2592
▁행정	-12.2592
▁무거워	-12.2592
드론	-12.2593
▁안드셨	-12.2593
일일	-12.2593
음쓰	-12.2593
라테	-12.2594
▁바뀔	-12.2594
▁짬뽕	-12.2594
▁트럭	-12.2594
▁뚜벅	-12.2594
▁뚱땅	-12.2594
시설	-12.2595
▁대학생들	-12.2595
▁답변	-12.2595
▁문젠	-12.2595
▁모닝	-12.2595
▁키득	-12.2595
▁무대	-12.2596
▁반갑	-12.2596
▁소식이	-12.2596
▁드린다니까	-12.2597
알려줬는데	-12.2597
▁것들한테	-12.2597
주신다면	-12.2599
▁거머리	-12.2599
어이	-12.26
▁민수엄마	-12.26
괜찮아보이	-12.2601
▁찢어버려	-12.2601
기다	-12.2601
된다구요	-12.2601
▁송아지	-12.2603
▁발자국	-12.2603
▁새치혀	-12.2604
편하거든	-12.2604
▁혓바닥	-12.2604
거길	-12.2605
▁후임	-12.2605
▁싸움이	-12.2606
▁썩었	-12.2606
너가	-12.2606
▁미끄러	-12.2607
배운	-12.2607
▁국민	-12.2607
▁만나라	-12.2608
▁설명해줘야	-12.2608
▁확인해본	-12.2609
▁떳떳해	-12.261
▁못구하	-12.261
▁백화점에서	-12.261
▁있으려나	-12.2611
▁못나가게	-12.2611
▁옥	-12.2612
▁으유	-12.2613
▁800	-12.2613
▁시비걸었	-12.2613
▁뜰	-12.2615
▁400	-12.2615
▁용무	-12.2616
▁잘해놔	-12.2616
▁왔대	-12.2617
▁생각해보면	-12.2617
▁잘쓰	-12.2617
▁넣어놔	-12.2617
▁모이는	-12.2619
사귀었	-12.2619
▁따님이	-12.262
▁그럴때	-12.262
▁수근이	-12.262
▁챙피해	-12.262
▁들러	-12.262
▁망하는	-12.2621
▁몰아	-12.2621
만지시는	-12.2622
▁걔한테	-12.2622
았던	-12.2623
나가지	-12.2624
바꿔주	-12.2625
▁불쾌한	-12.2625
▁비밀정보	-12.2626
보이겠냐	-12.2626
벌릴거	-12.2626
▁다섯개	-12.2627
▁마무리해야하	-12.2627
침입	-12.2631
▁지겹지	-12.2632
▁들어갑니다	-12.2633
졌지	-12.2634
▁다녀올게	-12.2634
▁원하는걸	-12.2634
▁배우겠	-12.2635
맞네	-12.2638
스에	-12.2638
▁재호	-12.2639
키는	-12.2639
날것같	-12.264
▁아프니	-12.264
하십시	-12.2642
끝내	-12.2642
▁생각한다고	-12.2643
▁광수	-12.2643
▁진동	-12.2644
▁없는대	-12.2645
▁초기	-12.2645
▁잘못들은	-12.2646
▁원망해	-12.2647
▁남긴	-12.2648
▁언어폭	-12.2648
▁서줘	-12.2648
▁치웠	-12.2648
▁판단할	-12.2648
▁죽이자	-12.2649
▁하등	-12.265
▁피곤한	-12.2652
▁무시하는게	-12.2652
▁이따구	-12.2653
▁시람	-12.2653
▁그립	-12.2654
▁문안	-12.2654
▁꾸지	-12.2656
변호	-12.2656
▁잘못햇	-12.2657
▁낳아	-12.2657
된거냐고	-12.2657
좀하려는데	-12.2658
▁밀지마	-12.2659
▁좋아보여	-12.2659
▁오전중	-12.266
▁한입	-12.266
▁게임에서	-12.2662
▁모유	-12.2663
▁바래	-12.2663
▁판단하	-12.2664
중심	-12.2664
▁돋보	-12.2665
▁위험해지	-12.2665
▁안보내주	-12.2665
▁들리거든	-12.2666
▁사줄수	-12.2667
▁단어	-12.2668
이러시는거예요	-12.2669
부업체	-12.267
흐리지	-12.2672
▁못보내	-12.2673
▁되는건가	-12.2673
▁안타깝네	-12.2673
▁101	-12.2674
▁안먹었으	-12.2675
▁뭐였	-12.2676
상교육	-12.2676
▁못다녀	-12.2676
주실수	-12.2676
▁가만있을	-12.2677
▁녹음했	-12.2677
▁사온	-12.2679
해졌	-12.2679
댕기	-12.2679
▁되어있으	-12.268
많아서	-12.268
▁닦으라	-12.2681
도청	-12.2681
▁발의	-12.2681
코우유	-12.2682
▁마찬가지라고	-12.2682
▁넘기지	-12.2682
▁남학생	-12.2684
▁그건아니	-12.2684
▁뛰어들	-12.2686
▁공부잘하	-12.2687
▁사퇴하	-12.2687
▁고시원이	-12.2688
▁갑갑하	-12.2688
낮은거	-12.2688
▁보태줬	-12.2689
▁살아남	-12.2691
▁나락	-12.2691
하는대로	-12.2692
▁시일안	-12.2693
▁유전이	-12.2694
신다고요	-12.2695
▁노려보	-12.2698
▁사과부터	-12.27
▁오시	-12.2701
▁못만나	-12.2702
비할게	-12.2704
▁측정	-12.2705
▁써버렸어	-12.2705
▁본분	-12.2706
▁캐	-12.2706
▁끓는	-12.2708
▁소매	-12.271
▁안들리는거	-12.271
▁추적	-12.2712
▁아무상관없	-12.2712
▁챙겨오	-12.2712
▁중구	-12.2713
시켜놨	-12.2713
▁지킬게	-12.2715
▁어디까지가	-12.2716
▁암걸	-12.2716
▁부쳐	-12.2717
▁사생활이라	-12.2717
▁미련	-12.2717
▁입수	-12.2718
▁데에서	-12.2718
▁강요하	-12.2719
▁수업듣	-12.2722
▁앞날	-12.2724
▁잘나셨	-12.2726
▁동전	-12.2728
▁입으셨	-12.273
▁최신이	-12.273
▁닦을	-12.273
분이시	-12.2731
▁외워	-12.2732
▁확인해볼게	-12.2734
▁박스들	-12.2734
▁버리지	-12.2735
일러봐	-12.2735
▁떨어뜨려	-12.2736
▁제스타일이	-12.2736
▁나쁜거야	-12.2736
▁사항이	-12.2737
▁가져오지	-12.2738
▁끼쳐	-12.2738
▁차원	-12.2738
▁기분나쁘다	-12.2739
▁붙여준	-12.2739
▁빌려줬다	-12.2739
▁버는	-12.274
▁사오겠습니다	-12.2744
▁맛있어보이	-12.2744
▁쉬어지	-12.2745
▁섞여	-12.2745
▁죽은사람이	-12.2746
▁그쪽에서	-12.2747
▁이것봐	-12.2747
▁오늘꺼	-12.2749
▁한놈	-12.275
▁얘기해봐	-12.2751
▁얘기하지	-12.2752
▁닿아	-12.2755
지원씨	-12.2757
▁방해되	-12.2758
▁않은건	-12.2759
▁대답이	-12.276
려보	-12.2761
▁하는군	-12.2761
▁셈	-12.2761
▁찐따같은	-12.2761
리시면	-12.2762
▁죽을거	-12.2762
▁찾아다니	-12.2762
죽이든	-12.2764
▁같더라구	-12.2764
▁낼테니까	-12.2764
▁사시는	-12.2765
▁약속있는데	-12.2767
▁됐나	-12.2768
▁생각할거	-12.277
▁갈취야	-12.2775
▁될꺼야	-12.2775
▁알려나	-12.2775
▁적당	-12.2775
▁말라했잖아	-12.2777
갖구	-12.2778
▁하셔야지	-12.2779
▁쉬고싶어서	-12.2779
늘이	-12.2779
▁이르기	-12.278
쉐이	-12.278
▁지원받	-12.2781
▁빨리할게요	-12.2782
[...]
